#version: 0.2
Ġ Ð
Ð ¾
Ð µ
Ð °
Ñ Ĥ
Ð ¸
Ñ ģ
Ð ½
Ð¾ Ð
Ñ Ģ
Ð »
Ñ ĥ
Ð º
Ñ ı
Ñ ĭ
Ð ²
Ð ¼
Ñ Į
ĠÐ ¿
Ð ´
Ġ Ñģ
ĠÐ ²
Ñ ĩ
ĠÐ ½
Ñģ ÑĤ
Ðµ Ð½
ĠÐ ¸
ÑĢ Ð°
Ð ·
ĠÐ ¾
Ð¾Ð ²
Ñ ħ
ĠÐ º
Ð ¿
Ð ¹
Ð ±
Ð ³
ÑĢ Ðµ
ÑĤ Ð¾
ĠÐ ´
Ñ Ī
Ðµ ÑĤ
Ð¾Ð »
Ð° Ð»
Ñ İ
Ð¾Ð ¼
ĠÐ ¼
Ð½ Ð¸
ĠÐ½ Ð°
Ð½ Ð¾
Ġ ÑĤ
Ð¾Ð ´
Ðµ Ð»
ÑĢ Ð¸
Ð ¶
Ð¾Ð ³
Ð½ Ñĭ
ĠÐ ±
ÑĤ ÑĮ
Ñ Ĩ
ĠÐ½ Ðµ
Ð¾Ð ¹
Ðµ ÑĢ
Ð½ Ð°
ĠÐ ·
Ð» Ð¸
Ñģ Ðº
Ġ Ñĩ
Ġ Ñĥ
Ð° Ðº
ÑĢ Ð¾
Ñģ Ñı
Ð» Ð°
Ñ ī
ĠÐ¿ Ð¾
ÐµÐ½ Ð¸
Ðµ Ð¼
Ġ Ñ
Ð¸ ÑĤ
ĠÐ ³
Ð² Ð°
â Ģ
Ðº Ð°
ÑĢ Ñĥ
ÑĤ Ð¸
Ð¾Ð³ Ð¾
Ð´ Ð°
Ð¾Ð ±
Ġ t
Ġ Ċ
ĠÐ· Ð°
Ġ ÑĢÐ°
Ð¾ ÑĢ
Ð¾ ÑĤ
Ð¼ Ð¸
ĠÐ »
ĠÑ į
ĠÐ µ
Ðµ Ð¹
Ð¾ Ð½
Ð¾Ð ¶
Ð° Ð½
ĠÐ¾ ÑĤ
ĠÐ °
ÑģÑĤ Ð²
Ñģ ÑĮ
Ġ a
h e
Ð¾Ð º
ĠÐ Ĵ
ÑĨ Ð¸
ÑĤ Ð°
Ðº Ð¸
Ð» Ñı
i n
e n
ĠÐ¿ ÑĢÐ¸
Ð³ Ð¾
Ð¾Ð» ÑĮ
Ð¸ Ð»
ĠÐ¾ Ð±
ĠÑĩ ÑĤÐ¾
t e
ĠÐ Ł
ĠÐ± Ñĭ
Ðµ Ð´
Ð¸ Ð½
Ñĩ Ðµ
ÐµÐ» ÑĮ
ĠÐ² Ñĭ
ĠÐ ¡
ĠÐ ¶
Â ł
o f
Ð¾Ð ·
Ñ Ħ
Ð° Ð¼
ĠÐ¿ ÑĢÐ¾
ÑĢ Ñĭ
Ð¾Ð² Ð°
ÑģÑĤ Ð¸
Ð¾ Ñģ
ÑĢÐµ Ð´
Ð½ Ðµ
ĠÐ Ŀ
Ð¸ Ð¼
âĢ Ķ
. .
Ð½ Ñĥ
o n
Ðº Ð¾
Ñģ Ðµ
Ð¸ Ñħ
Ð¾Ð ¿
Ñĩ Ð°
ĠÑģ ÑĤ
ÑģÑĤ ÑĮ
ĠÐ¸ Ð·
ĠÐ ļ
r e
Ġt he
Ð½ Ð¾Ð¹
Ġ -
ÑģÑĤ Ð°
Ġ "
Ġ Ñı
ÐµÐ½Ð¸ Ñı
Ð² Ð¾
Ð°Ð» Ð¸
ÑĤ Ðµ
Ð² Ð¸
Ð½Ñĭ Ñħ
Ð¼ Ð°
ĠÐº Ð°Ðº
Ð°Ð» ÑĮ
Ðµ Ðº
Ð½ Ð¾Ð³Ð¾
ĠÐ¿ Ð¾Ð´
Ð· Ð°
ĠÐ ŀ
Ñģ Ð¿
Ð½Ñĭ Ðµ
ĠÐ ľ
Ġ Ñħ
ĠÐ¿ ÑĢ
Ġ s
Ġ 1
Ñĩ Ð¸
Ð½Ñĭ Ð¹
Ñģ Ð¸
Ġ ÑĢÐµ
Ñĥ Ð´
ĠÑĤ Ð°Ðº
ĠÐº Ð¾
ĠÑĢÐ° Ð·
Ñİ ÑĤ
Ð° ÑĢ
e r
Ðµ ÑĢÐµ
Ñģ Ð»
Ñī Ðµ
en d
Ð¸ Ðµ
ĠÑ Ħ
Ġ (
Ðº Ñĥ
Ð¶ Ðµ
âĢ ĵ
Ġ w
ĠÐ Ĳ
ÑģÑĤ Ð¾
Ð» Ð¾
x t
ÐµÐ½Ð¸ Ðµ
o r
Ñ ĳ
ĠÐ ĺ
ÑĪ Ðµ
te xt
| >
< |
end of
endof text
ĠÐ² ÑģÐµ
ĠÐ Ķ
ÐµÑĤ ÑģÑı
Ð½ Ñı
Ð°Ð» Ð°
ĠÐ¿ Ð¾Ð»
Ð´ Ðµ
a n
ĠÐ ¢
ĠÑį ÑĤÐ¾
Ð¸ Ð¹
Ð³ Ð°
ĠÑģ Ð»
i s
ĠÑģ Ð¾
Ñĥ ÑĤ
Ġ c
ĠÐ ł
ÑĢ Ð¾Ð²
Ð¼ Ðµ
ĠÐºÐ¾ ÑĤÐ¾
Ñħ Ð¾Ð´
Ġ 2
ÑĢÐ° Ð²
ÑĩÐµ ÑģÐº
Ð¼ ÐµÐ½
Ðµ Ð·
Ġ ÑĤÐ¾
Ð° ÑĤÑĮ
a t
ÑĤ Ð¾Ð¼
i t
ĠÑģ Ð¿
Ð´ Ð¸
ÐµÐ½ ÑĮ
Ð¸ Ð·
a l
Ġ f
o u
Ġ b
a r
Ð° Ñģ
Ñı ÑĤ
ĠÐ´ Ð»Ñı
e s
Ð ¡
Ġ p
in g
ĠÐ» Ð¸
Ðµ Ð²
Ð° Ñı
Ñĥ Ñİ
Ð¸ ÑĤÑĮ
ĠÐ´ Ð¾
Ð ŀ
ĠÐ ĳ
Ð½Ð¾ Ðµ
Ð° ÑĤ
Ġa n
Ð½Ð¸ Ñı
ĠÐ½ Ð¾
Ñĥ Ð¶
Ð¾Ð»ÑĮ ÐºÐ¾
Ðº Ð¾Ð²
Ð» ÑĮ
ĠÑĤ Ðµ
Ð½Ð° Ñı
Ð Ĳ
Ġ of
ĠÐ¿ ÑĢÐµÐ´
ĠÐ¾ Ð½
Ð Ł
ĠÑģ Ð²Ð¾
Ð Ŀ
Ð Ĵ
Ġ in
ÑĪ Ð¸
Ð½Ñĭ Ð¼
ĠÐº Ð°
ĠÐµ Ð³Ð¾
1 0
ÑĨÐ¸ Ð¸
e d
ÑĢ Ñı
ĠÐ½ Ð¸
Ð½ Ð¾Ð¼
Ġ m
Ð² Ðµ
Ð¾Ð´ Ð°
Ð¿ Ð°
Ġt o
ĠÐ¸ Ð½
Ġ âĢĶ
ÑĤ Ñĥ
Ð´ ÐµÐ»
Ð ļ
Ñģ Ð°
Ð½Ð¸ Ðµ
ĠÐ¼ Ðµ
ĠÐ¼ Ð¾Ð¶
Ð´ Ñĥ
Ð» Ðµ
Ð¾Ð³ Ð´Ð°
ĠÐ ĵ
i c
Ñģ Ð»Ð¸
a s
ĠÐ¾ Ð´
ÑģÑĤÐ² ÐµÐ½
Ð² Ñĭ
ÑĤ Ñĭ
.. .
Ġ h
ĠÐº Ð¾Ð¼
Ð² ÐµÑĤ
ÑĤÑĮ ÑģÑı
ĠÐ» Ñİ
ĠÐº Ð¾Ð½
Ð² ÐµÑĢ
Ġ ÑĨ
Ð± Ð¾ÑĤ
0 0
Ġ d
ĠÐ± ÑĥÐ´
ĠÑģ Ð°Ð¼
Ðº Ðµ
Ð³ Ð¸
ÑģÑĤÐ° Ð²
Ġan d
Ð¸ÑĤ ÐµÐ»ÑĮ
l e
ÑĢÐ° Ð·
Ñĥ Ñĩ
Ġ ÑĪ
ÐµÐ» Ð¸
Ñĥ Ð¿
Ðµ Ñģ
Ġ âĢĵ
ĠÐ´ Ð°
Ġ ÑĢÑĥ
Ð¾ Ðµ
ĠÐ¾ Ð¿
Ð· Ñĭ
ĠÐ¶ Ðµ
ĠÑģ Ðµ
i on
Ð½Ð¾ ÑģÑĤÑĮ
ÑĢÑĥ Ð³
o m
& #
Ð¾Ð² Ñĭ
Ð» Ñİ
Ð½Ð¾ ÑģÑĤÐ¸
ĠÐ² Ð¾
Â «
Â »
ĠÐ¿ ÐµÑĢÐµ
ĠÐºÐ¾ÑĤÐ¾ ÑĢÑĭ
ĠÐ¸ Ð»Ð¸
Ð¾ Ñĩ
ÑģÑĤ Ð²Ð°
ĠÐ² Ð¾Ð·
Ð° Ð¹
Ð ĺ
Ñ į
ĠÐ¿ ÑĢÐµ
ĠÐ ķ
ÑĢÐ° Ð½
Ð¼ Ñĥ
Ð°Ð» Ð¾
ÑĤ ÐµÐ»ÑĮ
ÑĢÐµ Ð¼
Ð¸ Ñģ
ÑĢ Ð¾Ð¼
Ð¾Ð± Ñĭ
ĠÐ¾ Ñģ
ĠÐ Ľ
Ġ Â«
Ðº Ð¾Ð¼
ĠÐ £
Ġt h
ĠÐ Ĺ
Ð ¢
Ð± Ðµ
ÑĪ ÑĮ
Ð´ Ñĭ
ĠÐ· Ð½Ð°
Ð» ÐµÐ½
ĠÐ² Ð¸
ÑģÑĤÐ² Ð¾
ÐµÐ½ ÑĤ
ĠÐ¼ Ñĭ
Ñĥ Ð±
Ð ľ
Ñİ Ñī
ÑĢÐ¾ Ñģ
ÑĤÐ¸ Ð²
ĠÐ¼ ÐµÐ½
ĠÐ¿ Ð¾Ðº
ĠÐ Ń
ÑĢ Ð¾Ð´
ĠÐĿ Ð°
; &#
ÑĨ Ð°
Ð½Ñĥ Ñİ
Ð¾Ð² Ð¾
ĠÐ¼ Ð°
Ð´ Ð¾
Ðµ ÑĢÐ°
ĠÐ± Ð¾Ð»ÑĮ
i l
Ð Ķ
Ð½ Ð¾Ð²
ĠÐ±Ñĭ Ð»Ð¾
Ñĥ ÑĢ
Ð¸Ð» ÑĮ
Ð ł
ĠÐ´ ÐµÐ»
en t
ĠÑģ ÑĤÐ°
ĠÑĤ Ð¾Ð»ÑĮÐºÐ¾
Ð° Ð·
ĠÑĢÐ° Ð±Ð¾ÑĤ
ĠÐ ¯
Ñ Ĭ
Ñĩ Ð½Ð¾
ĠÑģ Ð²
ÐµÐ¼ Ñĥ
Ð¶ Ð¸
ĠÐ¿ Ð¾Ð¼
ĠÐ §
ĠÐ´ Ð¾Ð»
ÑģÐº Ð¾Ð¹
ĠÑĢÐ° Ñģ
. <|
Ð¾Ð» Ðµ
Ð¼ ÐµÑĢ
Ġ S
Ð½Ð¸ Ð¼Ð°
ĠÐ¼ Ð¸
ÐµÑĤ Ðµ
r o
ĠÐ¼ÐµÐ½ Ñı
ĠÑģ ÑĤÐ¾
ĠÐ² ÑĢÐµÐ¼
ĠÐ¼ Ð¾
ĠÑģ Ð¾Ð²
ĠÐ· Ð°Ðº
Ġ n
ĠÐ¿Ð¾ ÑģÐ»
Ñĥ ÑĪ
ÐµÐ» Ð¾Ð²
Ð¸ Ñı
ĠÐ¸ Ñħ
Ġ l
v e
ÐºÐ° Ð·
Ð ķ
ĠÑģ Ð¾Ð±
Ġ re
ĠÑĤ Ñĭ
ĠÐ² Ñģ
Ð± Ñı
s t
ĠÐ´ ÑĢÑĥÐ³
ĠÑĥ Ð¶Ðµ
ĠÐ¿ ÐµÑĢ
Ñī Ð¸
Ġ T
ĠÐ² Ðµ
ĠÐ½Ð° Ð¿
Ð²Ð° ÑĤÑĮ
) )
Ġ e
Ð¾Ð´ Ñĥ
ĠÐ»Ñİ Ð±
ĠÐ¾ Ð½Ð°
ÑĤ Ð¾Ð±Ñĭ
0 1
Ð¼ Ñĭ
Ġ I
ÑĢ Ð¾Ð²Ð°
Ð¼ Ð¾ÑĤ
Ð¾ ÑĢÐ¾
Ñĩ Ð¸ÑĤ
ĠÐ± ÐµÐ·
ĠÐ² Ð°
ÑģÐº Ð¾Ð³Ð¾
Ð¶ Ð°
ÑİÑĤ ÑģÑı
a c
ĠÐ±Ñĭ Ð»
ĠÑį ÑĤ
Ð¸ Ð²
Ð¸ Ð»Ð¸
Ð½Ð¸ Ðº
ÑĨÐ¸ Ñı
ĠÐ´ Ðµ
ĠÐ³ Ð¾ÑĢ
Ġ A
i d
l y
Ð½Ñĭ Ð¼Ð¸
Ð½Ð¸ Ð¸
Ġ1 9
ĠÑĩ ÐµÐ»Ð¾Ð²
Ð¸ÑĤ Ðµ
Ñĭ Ñħ
ÑĤÐ¾ ÑĢ
Ġ C
o t
Ð· Ð¸
Ġ 3
Ð± Ð¾
Ðº Ð¾Ð¹
ĠÐµ ÑģÐ»Ð¸
Ð» ÐµÐº
e t
ĠÐ¾ Ð½Ð¸
a m
Ð»Ð° ÑģÑĮ
ĠÐ¸ ÑģÐ¿
ĠÐ ¤
ĠÐ¿ Ðµ
ÑĦ Ð¸
ÐµÐ½Ð¸ Ð¸
Ġ g
te r
ĠÑĩ ÑĤÐ¾Ð±Ñĭ
ĠÐĿ Ð¾
ĠÐ² Ð·
Ð°Ð½ Ð¾Ð²
ĠÑģ Ñĥ
Ð¾Ð³ Ð¸
o l
ÑģÐº Ð°
ĠÑĩ Ð°
Ñĥ ÑĩÐ°
ĠÐ³ Ð»Ð°
Ñĩ ÐµÐ½ÑĮ
ÑģÑĤÐ¾ Ñı
ĠÐ¼ Ð½Ðµ
ĠÑģ Ð¸
ĠÐ¼ Ð¾Ð³
ÑĢÐµ Ñģ
ĠÐ±ÑĥÐ´ ÐµÑĤ
ĠÑģÑĤ ÑĢÐ°
ÑģÐº Ð¸Ð¹
ĠÐµ Ðµ
ĠÐ¸ Ð¼
Ð² Ð¾Ð´
ĠÐµ ÑīÐµ
ĠÐº Ð¾Ð³Ð´Ð°
ĠÐ¼Ð¾Ð¶ Ð½Ð¾
a d
Ð¾Ð»ÑĮ Ð·
Ð¸ÑĤ ÑģÑı
âĢ ¦
i m
ÑĪ Ð°
Ð°Ð» ÑģÑı
Ð¼ Ð¾Ð¶
Ġ Ġ
o w
" .
Ñĭ Ðµ
ĠÐ²ÑĢÐµÐ¼ Ñı
ÐµÐ½ Ð°
ĠÐ½Ð° Ñģ
ĠÐ ¥
ÐµÐ» Ñı
ĠÐµ ÑģÑĤÑĮ
ÑĨ Ðµ
Ð» ÑģÑı
ĠÐ¿ Ð»Ð°
Ġb e
ÑĤ Ð¾Ð²
Ñĥ Ð»ÑĮ
Ð¸Ð¼ Ð¾
ĠÐ³ Ð¾Ð´Ð°
ĠÐ¾ Ðº
ĠÐ¿ Ð°
Ð¾Ð» Ð¸
ĠÑį ÑĤÐ¾Ð¼
Ġ M
Ð¾Ð¼ Ñĥ
Ð³ Ð¾Ð´
ĠÐ¿ ÑĢÐ°Ð²
) .
ĠÐ¿ Ð¾Ð·
Ð± Ñĭ
Ð¿ Ð¸
Ġ on
ĠÐ» Ðµ
Ñĥ Ñħ
ÐµÐ» Ð°
ÑĤ ÐµÑĢ
i g
Ñĥ Ð´Ð°
Ñī Ð°
u s
ÑĨÐ¸ Ð¾Ð½
Ð½ ÐµÐ¹
Ð½Ð¸ ÐºÐ°
a y
Ð² Ð»Ñı
" ,
ĠÐ³ Ð¾Ð»
ĠÐº ÑĢÐ°
ĠÐ¿ Ð¾Ð²
ĠÑģ Ðº
Ġ is
ĠÐ¼Ð¾Ð¶ ÐµÑĤ
ĠÐ¶ Ð¸Ð·
ÑĢÐ° Ð¶
e l
ÑģÑĤ Ðµ
ĠÑĩ ÐµÐ¼
ĠÐ´ Ð¸
Ñĭ Ð¹
ÑĦ Ð¾ÑĢ
Ð² ÑĪ
ĠÐ¾ ÑĩÐµÐ½ÑĮ
Ð ĳ
Ð¾Ñģ ÑģÐ¸
Ðº ÑĢÐ°
ĠÑĤ ÐµÐ¼
ĠÐ¿ Ð¾Ð¿
ĠÐ¿ÑĢ Ð¾Ð²
ĠÐ´ Ð¾Ð¼
Ġf or
10 8
Ð½Ð¸ Ð¹
Ð± Ð°
Ð £
Ñĥ Ñģ
ÐµÐ½Ð¸ Ð¹
ĠÐ² ÐµÑĢ
Ð¾Ð¶ Ðµ
Ð ĵ
Ð» ÐµÐ½Ð¸Ñı
ĠÐĿ Ðµ
ĠÑį ÑĤÐ¸
Ð· Ð½Ð°
ÐµÑĤ Ð°
ĠÐ¿Ð¾ Ñģ
Ð²Ð° ÐµÑĤ
ÑģÑĤ ÑĥÐ¿
ĠÐ° Ð²
a te
ÑĨ Ñĭ
v er
Ð¾ Ð½Ð°
ĠÐ½Ð° Ñĩ
Ġth at
ĠÐ¿ Ñĥ
Ð± Ð¸
Ð¾Ð»Ðµ Ðµ
Ð³ ÑĢÐ°
u n
Ð Ľ
ĠÐ´Ð¾Ð» Ð¶
c t
ÑĢ Ð¾Ð¹
Ġ ÑĢ
ĠÐł Ð¾ÑģÑģÐ¸
ÑĢÐ° Ðº
ÐµÐ½ Ð½Ð¾
Ð¿ Ð¾Ð»
Ð´ ÐµÑĢ
ĠÐ±Ñĭ ÑĤÑĮ
ĠÑį Ðº
ĠÐ¾ ÑģÑĤ
Ð¾Ð²Ð¾ ÑĢÐ¸
ĠÐ» ÐµÑĤ
ĠÐŁ Ð¾
ÑĢÑĥ Ð´
Ð¿ Ñĥ
Ġ B
Ð´ ÐµÑĤ
u r
Ð¿ ÐµÑĢ
Ð¸Ð» Ð¾
at ion
Ñĥ Ð¼
ÑģÑĤ ÑĢÐ°
Ġ P
Ð¸Ð» ÑģÑı
Ð³ Ñĥ
Ð»Ð¸ ÑģÑĮ
ĠÐ¿Ð¾ Ñĩ
Ð¿ ÑĢÐ¸
ĠÐ¾ ÑĢ
ĠÐŃ ÑĤÐ¾
ĠÐ´Ð° Ð¶Ðµ
ÑģÑĤÐ² Ñĥ
Ð¶ Ð´
ĠÐ½ ÑĥÐ¶
ĠÐ½Ð° ÑĪ
ĠÐºÐ¾ÑĤÐ¾ÑĢÑĭ Ðµ
Ð¾Ð³ ÑĢÐ°
ÐµÐ½ Ñĭ
ÑģÑĤ ÑĢÐ¾
Ð° Ð¼Ð¸
Ġ2 01
Ð½Ðµ Ðµ
Ð¼ ÐµÑĤ
ĠÐŁ ÑĢÐ¸
u t
ĠÐ´ ÐµÑĤ
i r
Ñı ÑĤÑĮ
ĠÐ½ ÐµÑĤ
ĠÐ¿ÑĢÐ¾ Ð¸Ð·
) ,
ÐµÐ½Ð¸ Ñİ
ĠÑĤ Ð¾Ð³Ð¾
ÑģÑĤ ÑĢÐµ
ÑĤÐµ ÑĢÐ¸
ÑĤÐ¾Ð¼ Ñĥ
ĠÐ½Ð¸ Ðº
Ðµ Ð³Ð¾
Ð°Ð» Ðµ
ÑĮ Ñİ
Ð Ĺ
Ð¾Ð½ Ðµ
ĠÑĤ ÑĢÐµ
ĠÐĴ Ñĭ
ÑģÐº Ð¸Ñħ
Ð ¯
Ð¸ Ð½Ð°
Ð°Ð»Ð¾ ÑģÑĮ
ĠÑģÐµ Ð±Ñı
Ð²Ð° Ñı
Ġ 4
ÑĢÐ¸ Ð¸
Ġ 5
Ġs t
Ð°Ð»Ð¸ ÑģÑĮ
ĠÐ±Ñĭ Ð»Ð°
ÐµÐ¹ ÑģÑĤÐ²
Ð §
ĠÐ±Ñĭ Ð»Ð¸
c h
ĠÑĤ Ð¾Ð¼
Ñħ Ð°
ĠÑįÑĤ Ð¾Ð³Ð¾
ÐµÐ» ÐµÐ¹
ÐµÐ½Ð¸ ÐµÐ¼
Ġ he
ĠÐŀ Ð½
it h
ĠÐ¾Ð± ÑĬ
ĠÐ³ Ð´Ðµ
ĠÑħ Ð¾ÑĤ
Ð¸ Ðº
ÑĢ ÐµÐ½
Ñģ Ñĭ
ĠÐ´ ÐµÐ½ÑĮ
c e
ĠÑģ ÑĢÐµÐ´
Ð½Ð¸ Ð¼
ĠÐ±Ð¾Ð»ÑĮ ÑĪ
ĠÐ¿Ð¾Ðº Ð°
ĠÑĥ Ð¿
ĠÐļ Ð°Ðº
Ð¾ÑĤ Ð¾Ð²
Ñı Ð²
ĠÑģ Ð´ÐµÐ»
ĠÐ° Ðº
ÑĢ Ð¾Ðº
ĠÐ² Ð¾Ð¿
ĠÑģ ÐºÐ°Ð·
ĠÐ¢ Ð°Ðº
ÑĢÑı Ð´
Ð½ ÑĮ
Ñĥ Ð¼Ð°
ĠÐ¼ Ð½
Ð¸ ÑĩÐµÑģÐº
Ġ R
ĠÑģÐ» ÐµÐ´
ĠÐĹ Ð°
ĠÐ¼ Ð¾Ð»
Ð» ÐµÐ½Ð¸Ðµ
Ð¾ÑĢÐ¾ ÑĪ
ĠÐ¿Ð¾ÑģÐ» Ðµ
ĠÐº ÑĤÐ¾
ĠÐ± Ð¾Ð»ÐµÐµ
Ġ N
Ð» ÐµÐ¼
Ñĩ ÐµÐ½
ĠÑģ Ð¾Ð·
Ð³ Ð»Ñı
u l
Ð¾Ð²Ð° ÑĤÑĮ
Ð¼ Ð¾
ÑĢÑĥ Ð¿
Ð¿ Ðµ
Ġ H
Ðµ ÑģÐ¿
ÑĢÐµ Ð¼ÐµÐ½
o s
Ð² ÐµÐ´
Ñĥ Ð½
Ðº ÑĢÑĭ
ĠÐ¾Ð± ÑĢÐ°Ð·
ĠÐº Ð¾ÑĢ
ÐµÐ» Ð¾
ÑĮ Ñı
ĠÐ¿ÑĢÐ¾ ÑģÑĤÐ¾
ĠÑĤÐµ Ñħ
Ð¸Ð½ Ñĥ
Ð¸ Ð¼Ð¸
o p
Ġ it
Ġ y
Ġa s
Ġw ith
ĠÑĩÐµÐ»Ð¾Ð² ÐµÐº
ĠÐ¿ Ð¸
Ġw h
ÑĨÐ¸ Ñİ
Ġ D
âĢ Ļ
ÑĤÐ¸ ÑĩÐµÑģÐº
ÐµÐ» Ðµ
ÑģÑĤÐ°Ð² Ð»Ñı
ĠÐºÐ¾ÑĤÐ¾ÑĢÑĭ Ð¹
Ð² Ð°Ð»
Ð² Ð¾Ð»
Ðµ ÑĪÑĮ
Ð°Ð»Ð° ÑģÑĮ
Ð» Ñĭ
ĠÑĢÐ° ÑģÐ¿
Ġw as
ÐºÐ° Ð¼Ð¸
Ð»Ð° Ñģ
Ð½Ð¸ ÐºÐ¾Ð²
ĠÐ¿ Ð°ÑĢ
Ġ W
ĠÑĤÐ°Ðº Ð¶Ðµ
ĠÐ³ Ð¾Ð²Ð¾ÑĢÐ¸
Ð¾Ð²Ð° Ð½Ð¸Ñı
ĠÐ² Ð¾Ñģ
ĠÑģ ÐºÐ°
ĠÑģÐ» ÑĥÑĩÐ°
ÑĥÑİ Ñī
ÑĨÐ¸ Ð°Ð»ÑĮ
Ġ F
ĠÐ² Ð¾ÑĤ
ÑĩÐ° Ñģ
ĠÑģ ÐµÑĢ
ĠÐµ Ð¼Ñĥ
ĠÑĢÐµ ÑĪ
ĠÑĤ Ð°Ð¼
ĠÐ±Ð¾Ð»ÑĮ ÑĪÐµ
Ð´ Ð¾Ð²
ĠÐĶ Ð°
ĠÑĥ ÑģÐ»
r i
Ð³Ð° Ð½Ð¸
ÑĩÐµ Ð³Ð¾
Ð² Ð½Ð¾
ĠÐ²Ñĭ Ñģ
ÑĤÐµ ÑĢÐµÑģ
ÑĢÑĥ Ð¶
ĠÐº Ð°ÑĢ
Ð¸ÑĤ Ð°
ĠÐ¸ÑģÐ¿ Ð¾Ð»ÑĮÐ·
ĠÐ¾ÑĤ Ð²ÐµÑĤ
Ð ¤
ĠÐ²Ð¾Ð· Ð¼Ð¾Ð¶
ĠÐº Ð¾Ð»
Ð¶ Ð´Ñĥ
Ð½Ñĥ Ð»
ÐµÑĢÐµ Ð·
a g
Ñĥ Ð²
ÑĪÐµ Ð³Ð¾
Ġa l
ĠÑĥ ÑĩÐ°
Ð» Ð¾Ð¶
Ġ- -
ĠÐ¶ ÐµÐ½
Ð¾Ð² Ð¾ÑĢ
Ñĭ Ð¼
ĠÐ´ Ð¾Ð±
ÑģÐº Ð°Ñı
ĠÐ·Ð° Ð¿
ĠÐķ ÑģÐ»Ð¸
h t
ÑĢÐ¸ Ñı
Ð¾Ð² Ð¾Ð¹
ĠÑĢÐµ Ð·
ÑģÐº Ð¸Ðµ
ÐºÐ° Ñħ
ĠÑģÐ² Ñı
Ñĥ ÑĩÐ¸
ÐµÐ¹ ÑĩÐ°Ñģ
ĠÐ» ÑĥÑĩ
Ð½Ð¸ ÐºÐ¸
ĠÐ¾Ð± ÑĢÐ°
ĠÐ³ Ð¾Ð´Ñĥ
ĠÐ³ Ð¾Ð´
ĠÐ¾Ð± Ð»Ð°
Ð° Ð´
Ġ G
ĠÐ½ Ð¸Ñħ
ĠÐ² ÐµÐ´
Ð·Ñĭ Ð²Ð°
ĠÑı Ð²Ð»Ñı
ĠÐ»Ñİ Ð´
ĠÐ¸ Ð¼Ðµ
Ð½Ð¾Ð¼ Ñĥ
ĠÐ ¨
ĠÐ¿ÑĢ Ð¾Ð´
ĠÑģÑĤÐ¾ ÑĢÐ¾
o d
Ð¸ Ð»Ð°
ĠÐ¾ÑĤ Ð½Ð¾
Ð» ÐµÑĤ
ÑģÑĤ Ð°Ð½Ð¾Ð²
ÑĢ Ð¾Ð¿
ĠÐ½Ðµ Ð³Ð¾
ÑģÐº Ð¾Ð»ÑĮÐºÐ¾
ĠÐ³ Ð¾Ñģ
ĠÐ¿ÑĢ Ð¾Ð±
ÑĤ Ñı
ÑĤ ÑĢÐ°
ĠÑģÐ¿ Ðµ
ĠÐ²Ð¾Ð¿ ÑĢÐ¾Ñģ
ĠÐ´ Ð²
ĠÐ° Ð½
ĠÐ¿Ð¾ÑģÐ» ÐµÐ´
Ġ L
Ñĭ ÑĪ
10 7
Ð° Ð²
Ġ ÑĢÐ¾Ð´
r u
Ð± Ð¾ÑĢ
Ð¹ ÑĤÐµ
ÑĢÐ° Ñı
ou r
ĠÐ¸ ÑģÑĤÐ¾
il l
ĠÐ²ÑģÐµ Ñħ
ĠÐ¼ ÑĥÐ¶
ĠÐ¸ ÑģÐº
Ð¾ ÑģÐº
Ð¾Ðº Ð°
ĠÐ¾Ð´ Ð¸Ð½
ĠÐ²ÑģÐµ Ð³Ð¾
ĠÐ¼ Ð½Ð¾Ð³Ð¾
Ð¸ÑĤÐµÐ»ÑĮ Ð½Ð¾
Ġc on
ĠÑįÑĤÐ¾ ÑĤ
ĠÑģÐµ Ð±Ðµ
te d
Ð´Ðµ ÑģÑĮ
ĠÐłÐ¾ÑģÑģÐ¸ Ð¸
Ð¸Ð½ Ðµ
Ð± Ñĥ
ĠÑģ ÐµÐ¼
an d
ÑģÑĤÐ² Ðµ
ĠÐ² Ð¾Ð´
Ġw e
ÑĤ ÑĢÐ¸
Ð¾Ñģ Ð¾Ð±
ĠÐ²Ð¸ Ð´
ĠÐ´ ÐµÐ¹ÑģÑĤÐ²
Ð½ Ð¾Ð²Ð°
ĠÐ´ Ð°Ð½
ĠÐ¾ÑĢ Ð³Ð°Ð½Ð¸
ĠÑĤ ÐµÑĢ
ĠÐ² Ð°Ñģ
ÑĤÐ¸ Ñı
ÑĤÐ¾ ÑĢÑĭ
ĠÑħ Ð¾ÑĢÐ¾ÑĪ
Ð·Ð° ÑĤÑĮ
ou t
! !
ÑĨ Ñĥ
Ð Ń
ĠÑĩÐµÐ»Ð¾Ð² Ðµ
i f
Ñģ Ð¾Ð²
Ġd e
ĠÐ½Ðµ Ð¼
Ð² Ð°Ð»Ð¸
ĠT he
Ð¼Ð¾ÑĤ ÑĢÐµ
Ñĩ ÑĮ
ĠÐ² Ð°Ð¼
he r
Ð¾Ð³ Ð°
Ð¾Ð» Ð¾Ð³Ð¸
Ġ .
ĠÐºÐ¾Ð¼ Ð¿
- -
Ð¿ÐµÑĢ ÑĮ
Ð´Ð° Ð½
Ġ 6
Ð»Ð° Ð´
Ð¶ Ð´Ñĭ
ĠÐ½Ðµ Ð¿
Ġa t
r a
ĠÐ¶Ð¸Ð· Ð½Ð¸
ĠÑģÐ¸ ÑģÑĤ
ĠÐ¼ ÐµÑĤ
ĠÐ´ ÑĢÑĥ
ÑĦÐ¾ÑĢ Ð¼Ð°
Ðµ Ñħ
Ð³ Ð´Ð°
ĠÑĦ Ð¾ÑĢ
ĠÐ° ÑĢ
Ð¾Ð¶ Ð´
ÑģÑĤ Ñĭ
ĠÐ½Ðµ Ð¾Ð±
ĠÐ³ Ð¾
ÐµÑĤ Ñĭ
Ð²Ð¸ ÑĤÑĮ
ĠÐ½Ð° Ð´Ð¾
Ñĥ Ñī
Ñı Ñī
Ñĥ Ðº
Ð»Ð¸ Ñĩ
ĠÐ¿Ðµ ÑĢÐµÐ´
Â» .
Ġ2 00
er s
ÑĤ Ð°Ðº
Ġ E
ĠÑĩ ÐµÑĢÐµÐ·
ĠÐ¿Ð¾ ÑĤ
is t
ĠÐ ĸ
ÑģÐ» ÐµÐ´
ĠÐ² Ð¾Ð»
k e
l d
ou n
Ð¸ Ð¸
ĠÐ½Ð° Ð´
Ð°Ð»ÑĮ Ð½Ð¾
Ð´Ð° ÑĤÑĮ
ÑīÐµ Ð³Ð¾
Ñı Ñģ
ÑģÐº Ð¾Ð¼
ĠÐºÐ¾Ð¼ Ð¿Ð°
Ñı Ð½
s e
ÑĩÐ¸ Ð½Ð°
ĠÐ½Ð° Ð¼
Ð³Ð¾Ð´ Ð½Ñı
ĠÑĩ Ð¸
Ð° ÑĪ
ĠÐ¾ÑĤ ÐºÑĢÑĭ
ĠÐ¿ÑĢÐ¾ ÑĨ
Ð° Ð³
ÑĥÐ´Ð° ÑĢ
Ñĭ ÑĤ
ĠÐ¿Ð¾ Ð½Ñı
u m
ĠÑĤ Ð¾Ð¶Ðµ
Ð½Ðµ Ñģ
re s
ĠÐŀ ÑĤ
Ð½Ð¾ÑģÑĤÑĮ Ñİ
Ð¾Ð²Ñĭ Ñħ
Ñĩ ÐµÐ¼
ÐºÐ¸ Ð¹
ĠÐ¾ Ð³
Ġ ,
Ð²Ðµ ÑģÑĤ
ĠÑģÐ¾ Ð¾Ð±
ĠÐ¼Ð° ÑĤÐµÑĢÐ¸
ĠÐ½ÑĥÐ¶ Ð½Ð¾
Ġ ÑĢÑĭ
ĠÐ½ÐµÐ¾Ð± ÑħÐ¾Ð´
Ð¾Ð½ Ð¾Ð¼
r om
ĠÐ´ Ð¾ÑĢ
ÑĥÐ´ ÑĮ
Ð° Ñħ
Ñĳ ÑĤ
ĠÐ³Ð¾ÑĢ Ð¾Ð´
ÐµÐ½ ÑĤÐ°
ĠÐ¼Ðµ Ð¶Ð´Ñĥ
Ð»Ð° Ð²
e w
ÑħÐ¾Ð´ Ð¸ÑĤ
ĠÐ´ Ð²Ð°
Ðļ Ð°Ðº
Ð± ÑĢÐ°
ĠÑģ Ð¼
Ñĩ ÐµÑĤ
ÑıÑĤ ÐµÐ»ÑĮ
Ñĩ ÐµÐ½Ð¸Ðµ
o re
Ġp ro
Ð¿ Ð¾
Ð¼ÐµÐ½ Ð½Ð¾
ĠÐ¿Ð¾Ð» ÑĥÑĩ
Ð²Ð° ÑĢ
Ð´ Ð¸Ð½
Ġc om
ÑĪ ÐµÐ»
Ð°ÑĤ ÐµÐ»ÑĮ
Ġb y
ĠÐ¸Ð½ ÑĤÐµÑĢÐµÑģ
ĠÐ¿Ð¾ ÑĢ
Ġ 7
ĠÑģÐ¸ÑģÑĤ ÐµÐ¼
a b
Ðº Ð»Ñİ
o c
ÑĥÐ»ÑĮ ÑĤÐ°
ĠÐ²Ñģ Ñĳ
ĠÑģ ÐµÐ¹ÑĩÐ°Ñģ
Ð¸ÑĤ Ñĥ
ĠÐ± Ð»Ð°
Ġs e
ÑĨ ÐµÐ²
ĠÐ¼ Ñĥ
ÑĪ ÐµÐ½
ĠÑįÑĤ Ð¾Ð¹
Ð¸ÑĤÑĮ ÑģÑı
ÑĤÐµÐ»ÑĮ Ð½Ð¾
ÑĢÐ¸ ÑĤ
ÑĢÐ¾Ð² Ð°Ð½
ĠÐ² Ð¾Ð¹
Ġ1 0
ĠÐ ¦
i ve
ÑĢ Ð¾Ð±
ĠÐĴ ÑģÐµ
Ð° Ð±
Ð°Ð½ Ð´
ĠÐ´ ÐµÐ²
ĠÐ½Ðµ ÑģÐºÐ¾Ð»ÑĮÐºÐ¾
ĠÐ¿ ÑĢÐ°
ÑĤÐ¾ ÑĢÐ°
ĠÑģ Ð°Ð¹
p p
ĠÐ²ÑģÐµ Ð³Ð´Ð°
Ġ 8
Ġ r
Ð¾Ð²Ñĭ Ðµ
ĠÐ³ ÑĢÐ°
Ġ v
ÑģÑĤ Ñı
ÑīÐµ ÑģÑĤÐ²
ĠÐ¿ Ð¾Ð±
ĠÐ¾Ñģ Ð½Ð¾Ð²
ĠÐ½Ð° ÑħÐ¾Ð´
ĠÐ¿Ð¾Ð¼ Ð¾
ÑģÑĤ Ð¾Ð²
ĠÑĤ ÑĥÑĤ
t h
Ð²Ð¸ Ð¶
ÐµÐ½ Ðµ
Â» ,
Ð¸ ÑĢ
ĠÐľ Ð¾ÑģÐº
ĠÐ¼ Ð°Ð»
Ġa re
ÑĢÐ° Ð±Ð¾ÑĤ
m ent
es t
ĠÐĲ Ð½
it y
ĠÑģÐºÐ°Ð· Ð°Ð»
Ð ¨
Ð° ÑĢÐ¸
ĠÐ¿Ð¾ ÑĤÐ¾Ð¼
ĠÐ¿ Ð»Ð¾
Ð½ ÐµÑĢ
ĠÐ¸ Ñģ
ĠÑģÐ¿ Ð¾ÑģÐ¾Ð±
Ð½ ÐµÑĤ
Ð² ÑĢÐ°
ĠÐ² ÑģÑĤÑĢÐµ
ĠÐ½Ð¸ ÑĩÐµÐ³Ð¾
/ /
ĠÐ¶ Ð¸Ð²
Ð¸Ð»Ð¾ ÑģÑĮ
Ð¸ Ð´
ĠÐ· Ð´ÐµÑģÑĮ
ÑĪ ÐµÐ½Ð¸Ñı
ĠÐ¾Ñģ Ð¾Ð±
Ð² Ð¸ÑĤ
Ð³ Ð¾ÑĤÐ¾Ð²
ÑĨÐ¸ Ð¹
ĠÑĥ Ð´
Ñį ÑĤÐ¾Ð¼Ñĥ
ĠÑģÐ²Ð¾ ÐµÐ¹
ĠÑĥ ÑģÐ¿
a in
ĠÐ¿ÑĢÐ¾ ÑĤÐ¸Ð²
ÐĿ Ð°
ĠÐ¼ ÐµÐ´
Ð½ Ñİ
Ġ Ñİ
ÑģÑĤ ÐµÑĢ
ĠÐ¸Ð½ ÑĦÐ¾ÑĢÐ¼Ð°
Ð² Ð¾Ð·
ĠÐ¿ Ð¾Ð¶
Ġh a
Ð ¥
ĠÐºÐ° ÑĩÐµ
ÑĢÑĥ Ðº
Ð¸ Ñĩ
ĠÑģ Ð²ÐµÑĤ
ĠÐľ Ñĭ
ĠÑģ ÑĩÐ¸ÑĤ
Ñĩ ÐµÐ½Ð¸Ñı
Ð½Ð¸ Ñİ
ĠÑĤ ÑĢÐ¸
Ð¾Ð³ÑĢÐ° Ð¼
ĠÑĤÐµ Ð±Ñı
ÑĢÐ¾Ð²Ð° ÑĤÑĮ
ĠÐļ Ð°
Ð²Ð° ÐµÑĤÑģÑı
ĠÑĩ Ð°Ñģ
Ð² Ð¾ÑĢ
ĠÐ¿ÑĢÐ¾Ð¸Ð· Ð²Ð¾Ð´
ÐµÐ½ Ð½ÑĭÑħ
q u
ĠÐ³Ð»Ð° Ð·Ð°
ĠÐ¸ Ð³
Ñĳ Ð½
_ _
ÑĢÐ¾ Ð½
ĠÐ² Ð»Ð°
Ð²Ð° ÑİÑĤ
ĠÐ· ÐµÐ¼
ĠÐ¼Ð½ Ð¾Ð³
es s
Ð½Ð¸ ÑĤÑĮ
Ġ âĢ
ĠÐ³Ð¾Ñģ ÑĥÐ´Ð°ÑĢ
Ð² Ð¾Ð¹
ĠÐ»ÑİÐ´ ÐµÐ¹
ĠÐ½ Ð¾Ð²
ĠÐ¼ Ð¸Ð½
ÑģÑĤ ÐµÐ¹
Ð± ÑĢÑı
ĠÐ²Ñģ ÐµÐ¼
Ð´ Ð¾ÑĢ
ĠÐ· Ð²
ĠĠ ĠĠ
Ð» Ð¾Ð²
ĠÑĥ Ð³
ÑīÐµ Ðµ
ĠÐ¿ÐµÑĢ Ð²Ñĭ
ĠÐ² Ð¼Ðµ
' s
ĠÑģ Ð¸Ð»
Ġ1 8
Ñģ ÐµÐ¼
ĠÐ»Ðµ Ð³
Ġ2 0
ĠÑģÐ» Ð¾Ð²
Ñģ Ñĥ
ĠÑĤ ÐµÐ»Ðµ
Ġ O
Ð¸ Ð±
Ġ J
ÑģÐº Ð¸
ĠÐ¾Ð¿ ÑĢÐµÐ´
Ð» ÐµÐ¹
ĠÐ´ÐµÐ» Ð°
ĠÐ§ ÑĤÐ¾
ĠÐ´ Ð¾Ðº
ĠÑĤÐ°Ðº Ð¾Ð¹
ĠÑģÐ²Ð¾ Ñİ
ĠÑıÐ²Ð»Ñı ÐµÑĤÑģÑı
ÑĤÐ¸ Ð½
ĠÐ³ Ð»
ĠÐ¿ÑĢÐ¾ ÑĪ
ÐµÐ½ Ð½ÑĭÐµ
ĠÐŁ ÑĢÐ¾
ĠÑĢÐ°Ñģ Ñģ
ÑĥÐ± Ð»Ð¸
Ġ or
ĠÑĩ ÑĥÐ²
Ð½Ð° ÐºÐ¾
ĠÐ¾Ð± Ñī
Ð½Ð¸ ÐµÐ¼
ĠÐĺ Ð½
Ġf rom
Ð¾Ð²Ñĭ Ð¹
ÑİÑī Ð¸Ñħ
ĠÑį ÑĤÐ°
ÐºÐ° Ð½
Ñĩ ÐºÐ¸
p e
ĠÑħ Ð¾Ñĩ
ĠÐ½Ðµ Ð¹
ar t
Ġ 9
Ð»Ð¾ ÑģÑĮ
ĠÐ¿ÑĢÐµÐ´ ÑģÑĤÐ°Ð²
ĠÑģÐ² Ð¾Ð¹
Ð»Ð¸ Ð½
Ñī Ñĳ
ĠÐ³Ð»Ð° Ð²
ĠÐŀ Ð½Ð°
Ðµ ÑĢÐ¸
an t
Ð²Ð¸ Ñģ
ĠÐŁ Ð¾Ñģ
ĠÐ° Ð´
Ð»ÐµÐº Ñģ
Ð½Ñĥ ÑĤÑĮ
Ġs u
ÑĢÐµ Ð±
ĠÑĩÐµÐ»Ð¾Ð²Ðµ ÐºÐ°
ĠÐº Ð½Ð¸
ĠÑĢÑĥ Ð±
ĠÐ¼Ð¾Ð³ ÑĥÑĤ
ÑĢÐ°Ð· Ñĥ
ĠÑģÐ¾Ð· Ð´Ð°
Ñĳ Ð¼
Ġ &#
ĠÐºÐ¾Ð½ Ðµ
Ñĩ ÐµÑĢ
ĠÑĢÐµÐ· ÑĥÐ»ÑĮÑĤÐ°
ÑĢÐµ ÑĤ
ĠÐ² Ð½Ñĥ
ÑģÑĤÐ²ÐµÐ½ Ð½Ð¾
ĠÑģÐ¾Ð² ÐµÑĢ
ÑĢÐ° ÑĤ
ĠÐ»ÑĥÑĩ ÑĪÐµ
ĠÐŀ Ð´
Ð³ Ðµ
ĠÑĢÐ°Ð±Ð¾ÑĤ Ñĭ
Ð´ÐµÑĢ Ð¶
ÑĢÐ¾ Ðµ
Ð·Ð° ÑĨÐ¸Ð¸
ĠÐ´ Ð¾Ð²
ĠÐ¿Ð¾ ÑĤÐ¾Ð¼Ñĥ
ĠÑĩ ÐµÐ³Ð¾
ĠÐ»Ð¸ ÑĪÑĮ
or t
ĠÑģÐ¾ ÑģÑĤÐ¾Ñı
ĠÑĩ ÐµÑĢ
ÑĪ Ð¸Ñħ
i es
ĠÑĥ Ð¶
ĠÑĤÐµ Ð¿ÐµÑĢÑĮ
ĠÐ²ÑĭÑģ Ð¾Ðº
ÐºÐ¸ Ñħ
al l
ĠÐºÐ¾ÑĤÐ¾ ÑĢÐ°Ñı
ĠÑģ Ð¾Ð³
ÑĢÐ¸ Ð¹
ĠÑģÑĤ ÑĢÐ¾
Ð¾Ð²Ð° Ð½Ð¸Ðµ
ĠÐ¿ÑĢÐ¸ Ð½Ñı
ÑĢ Ð¾Ð³Ð¾
ĠÐº Ñĥ
ĠÑģÑĤ Ð°Ð½
Ð¸ÑĤ ÐµÐ»ÐµÐ¹
ÐµÐ½ Ð½ÑĭÐ¹
ĠÐº ÑĢÐ¸
ÑģÑĤ Ñĥ
Ġe x
Ð¼ ÐµÐ½Ð¸
ĠÐŀ Ð±
ĠÐ± Ðµ
Ñģ Ð¾
Ð½ ÐµÐ¼
ĠÐ»Ñİ Ð´Ð¸
ĠÐ¾ ÑģÑĤÐ°
ĠÐ¼ Ð°Ñģ
Ð¾Ð» Ð¶
Ð¾Ð± ÑīÐµ
ĠÑģ Ñĭ
ĠÐ·Ð°Ðº Ð¾Ð½
ĠÐ¿ÑĢÐ¾ ÑģÑĤ
ĠÐĶ Ð»Ñı
ĠÐ¿ÑĢÐ¾ ÑĦ
ÐµÑĢ Ð¶
ĠÑĢÐ°Ð±Ð¾ÑĤ Ð°
ĠÐ¿ÑĢÐ¾Ð± Ð»ÐµÐ¼
ĠÑģÐ²Ð¾ Ð¸
ĠÑĨ Ð²ÐµÑĤ
i v
ĠÐ¾Ð± Ñĭ
ĠÐº ÑĢÐµ
ĠÑģ ÐµÐº
Ð½Ð¸ Ñħ
ĠÐ± Ð»Ð¸
ĠÐ²ÑĢÐµÐ¼ ÐµÐ½Ð¸
ÐĿ Ðµ
Ð¾Ð¿ Ð¾Ð»
Ñı Ð¼
Ð¸ ÑĢÐ°
ĠÐ± Ð¾
ÐµÑĤ ÑĮ
re d
ÐµÐ½ Ð¾
Ð¿ ÑĢÐ°Ð²
ĠÐ² Ð½Ð¸Ð¼Ð°
ĠÑģÐµ Ð³Ð¾Ð´Ð½Ñı
ĠÑĤÐµ Ð±Ðµ
ĠÐ½Ð° Ð·
ÑģÑĤÐ² Ð¾Ð¼
ÑİÑī Ð¸Ðµ
ĠÑĥ ÑĤ
ĠÐ¸ Ð¼ÐµÐ½Ð½Ð¾
1 9
ĠÑĤÐ¾ ÑĤ
Ð¾Ð» Ð¾
ĠÐµ Ð¹
ĠÐ¾Ð± ÑīÐµ
ĠÑĢÑĥ Ñģ
Ñĩ Ñĥ
ig ht
Ġs h
ar d
ĠÑĪ Ðº
Ð°ÑĤÑĮ ÑģÑı
Ñİ ÑģÑĮ
Ġ 0
ĠÑģ Ð¾ÑĤ
ĠÐ³ ÑĢÑĥÐ¿
Ð½Ñĥ Ð»ÑģÑı
ĠÐ¿ÑĢÐ¾ ÐµÐº
Ð¼ÐµÐ½ ÑĤÐ°
Ð¿ Ð¾Ð´
ĠÐ¿Ð¾Ð· Ð²Ð¾Ð»
ĠÐ´ ÑĥÐ¼Ð°
Ġn ot
ĠÐºÐ¾ÑĤÐ¾ÑĢÑĭ Ñħ
ĠÑĨ ÐµÐ½ÑĤ
ĠÐ¶Ð¸Ð· Ð½ÑĮ
ĠÐ¾Ð± Ñı
ĠÐ¼ Ð¾Ð¼
ÑĦ ÑĦ
T he
ĠÑĤ ÑĢÐ°
ĠÑĤÐ¾ ÑĢ
Ñı ÑĤÐ¸
Ð½Ð¸ Ñĩ
Ġ1 5
Ð¶ Ñĥ
âĢ Ŀ
Ð¼ Ð°Ð½
ĠÐ¼ Ð°ÑĢ
t p
Ġha ve
ĠÐ°Ð² ÑĤÐ¾Ð¼
Ð¾ÑĤ Ð²ÐµÑĤ
ĠÑĤÑĭ ÑģÑı
Ð¸ÑĤ ÐµÐ»Ñı
ĠÑĥ Ð±
ÑģÑĤ Ð°Ð½
ĠÐºÐ° Ð¶Ð´
Ð¾Ð¶ Ð¸
ĠÐŁ Ð¾Ð´
ou ld
ĠÑģ ÐºÐ¾
ĠÐºÐ°Ðº Ð¾Ð¹
Ġ U
ĠÑģ Ð¸Ð»ÑĮ
Ð¹ ÑĤÐ¸
ÐºÐ¸ Ðµ
ĠÐ¿Ð¾ Ð½Ð¸Ð¼Ð°
ÑıÑĤ ÑģÑı
Ð½Ð° Ð´
Ð½Ðµ Ð³Ð¾
Ð¾Ð»ÑĮ ÑĪ
Ð³ Ð¾ÑĢ
Ðµ Ð¿
ĠÐ¿ÑĢ Ð¾Ð³ÑĢÐ°Ð¼
Ġ ÑĪÐµ
ĠÐµ Ñĳ
ĠÐ¾ ÑĩÐµ
u d
ĠÐ½ Ð¸Ð¼
ĠÐ±ÑĥÐ´ ÑĥÑĤ
ÑĢÐµ Ð¹
ĠÑģÑĤÐ° ÑĤÑĮ
: //
ĠÑĢÐ° Ð¹
e ar
ĠÐ²Ð° Ð¶
ĠÑĥ Ñĩ
ĠÑģÐ²Ð¾ Ð¸Ñħ
ÑĢÐ° Ð±
Ġ un
ÑĪÐ¸ ÑģÑĮ
ĠÑģÑĤ Ð¾Ð»
ĠÑģ ÑĥÐ´
ĠÑģÐ¾Ð± ÑģÑĤÐ²ÐµÐ½
ÑģÐ¸ Ð¹
ĠÐ¿ Ð¾Ð³
Ġc h
Ð²Ð° Ð½Ð¸Ñı
ĠÑĤ Ñĥ
ĠÑĢÐµ Ð±
ĠÐ¼Ð¾Ð» Ð¾Ð´
ĠÑģ ÑĤÐ¸
ÑĤ ÑĢ
ĠÐµ ÑīÑĳ
Ð½ Ð°Ð»
ĠÐ½Ðµ ÐºÐ¾
Ð¾ÑĢ ÑĤ
ĠÐ´ ÐµÑĢÐµ
Ð» Ð¾Ð¼
ĠÑģÐ»ÑĥÑĩÐ° Ðµ
ĠÐ»Ð¸ ÑĨ
ĠÐĺ Ð·
ĠÐ± ÐµÑģÐ¿
ĠÑĤ Ð¾Ð³Ð´Ð°
ÑĩÐµÑģÐº Ð¸Ñħ
e m
Ñī ÐµÐ½Ð¸Ñı
Ð± ÑĥÐ´ÑĮ
ĠÑģÑĤ Ð°Ð»
Ġ ÑĢÐ¸
ĠÐ²ÐµÐ´ ÑĮ
Ġ le
Ġth is
) <|
ac k
Ð²Ð¸ Ð´
Ġ ÑĢÐ¾
g e
ÐµÑĢ ÑĤ
Ġh is
ĠÐ´ÐµÐ» Ð°ÑĤÑĮ
ĠÐ¿Ð¾ Ñħ
Ñĩ Ð¸Ð½
ÑĪ ÐµÐ¹
ÑģÑı ÑĤ
ĠÑĥÑģÐ» Ð¾Ð²
ĠÐº Ð°Ð¼
ĠÐ¸Ð½ ÑĤÐµÑĢ
Ð°Ð» Ñĥ
ĠÐ¾Ð±Ð»Ð° ÑģÑĤÐ¸
Ð² Ð»Ðµ
ĠÐ¿Ð¾Ð» Ð¾Ð¶
ĠÑĦ Ð°Ðº
ĠÐ¸Ð· Ð²ÐµÑģÑĤ
ÐµÐ» ÐµÐ½
ĠÐ ®
ĠÑĤ Ð¸
Ġy ou
Ð°Ð»ÑĮ Ð½Ð¾Ð¹
ĠÐ¿Ð¾Ð¼Ð¾ Ñī
ÑĤÐ¾ Ñĩ
ĠÑĢÐ°Ð· Ð²Ð¸ÑĤ
a k
Ġ ÑĢÐ¾Ñģ
ÑģÑĤÑĮ Ñİ
ĠÐ³Ð¾Ð» Ð¾Ð²
Ð¿ Ð¸ÑĤ
Ð§ ÑĤÐ¾
ĠÑħ Ð¾
ĠÑģÐ» Ð¾Ð²Ð°
Ðº Ð»Ð°
ĠÐ± Ð°Ð½
ÑĢÐ¾Ð¼ Ðµ
.. ..
ĠÐ²Ð· Ð³Ð»Ñı
ÑģÑĤÐ²Ñĥ ÐµÑĤ
ĠÑįÐº ÑģÐ¿
Ð°Ð»ÑĮ Ð½ÑĭÑħ
Ð°Ð»ÑĮ Ð½ÑĭÐµ
ĠÐ² ÑĢÐ°
ĠÐ³ ÑĢÑĥ
Ð» ÐµÐ´
? ?
Ð· Ð°Ð½
ĠÐĴ Ð¾
ĠÐ¼Ðµ ÑģÑı
u p
10 9
ĠÑĥ Ð´Ð°
ĠÐº Ð¸
Ñħ ÑĢÐ°
ÑģÑĤ ÑĢÐ¾Ð¹
ÑĩÐ° ÑĤ
ĠÑģ Ð¾Ð»
ĠÐĴ Ð¾ÑĤ
ÑģÐº Ð¾
o k
Ð²Ð° ÑĤÑĮÑģÑı
ĠÐ´ Ð°Ð»ÑĮ
Ġ1 2
ĠÐ½Ð¸Ðº Ð°Ðº
ĠÐ²Ð¸ Ð´Ðµ
ĠÐ² ÑģÑı
ĠÑħÐ¾ÑĢÐ¾ÑĪ Ð¾
Ð¾Ð³ Ñĥ
Ñı Ñħ
ĠÑı Ð·Ñĭ
Ð³ Ð¾Ð²
o g
Ð´ÐµÑĤ ÑĮ
Ð°Ð½ ÑĤ
Ð½Ñĥ Ð»Ð°
ĠÑģÐ» ÑĥÐ¶
ĠÐ¼Ðµ ÑģÑĤÐ¾
ÑĮ Ðµ
ĠÐĿ Ñĥ
ÑĢÐ° Ð»ÑĮ
ĠÐ¿ÑĢ Ð¾Ð´Ñĥ
ĠÐ´Ð¾Ð¼ Ð°
ic h
Ñħ Ð¾ÑĤ
Ð°Ð»ÑĮ Ð½ÑĭÐ¹
i al
ĠÐ½ÐµÐ¾Ð±ÑħÐ¾Ð´ Ð¸Ð¼Ð¾
ĠÑģÐ´ÐµÐ» Ð°ÑĤÑĮ
ĠÐ´ÑĢÑĥÐ³ Ð¸Ñħ
ĠÐ± Ð°
Ð¿ ÑĢÐ¾
ĠI n
Ñħ Ð²Ð°
ĠÐ¼Ðµ ÑģÑĤ
ÑĤÑĥ ÑĢ
Ġ ÑĪÐ¸
ĠÐºÐ¾ÑĤÐ¾ ÑĢÐ¾Ð¹
a p
ĠÐ½Ð°Ð¿ ÑĢÐ°Ð²
Ġ K
ĠÑĤ ÑĢÑĥÐ´
ĠÐŀ Ð½Ð¸
Ñħ Ð¸
ĠÐ¿Ð¾Ð» ÑĥÑĩÐ¸
Ñĥ Ð³
ĠÐ¿ Ð¾Ð»ÑĮÐ·
Âł Âł
ĠÑĤ Ñı
i a
Ð¶Ð´Ñĭ Ð¹
ĠÑĥ ÑģÑĤÐ°Ð½Ð¾Ð²
ĠÐº ÑĥÐ¿
ÑĤÐ¸ ÑĤÑĮ
ÑĪ Ð»Ð¸
Ðµ Ðµ
ĠÑĥÐ¿ ÑĢÐ°Ð²
Ð¿ Ñĭ
Ð¾Ð» Ð¾Ð´
Ñĥ ÐµÑĤ
ÑİÑī Ð¸Ð¹
ĠÐ² Ð½Ðµ
Ġp l
ĠÑģÐ²Ð¾ ÐµÐ³Ð¾
ĠÐ·Ð° Ð´Ð°
ÑĩÐµ ÑģÑĤÐ²Ð¾
Ð½Ð° Ñĩ
ÑĩÐµÑģÐº Ð¾Ð¹
ĠÑĨ ÐµÐ»
ĠÑĥ ÑĢÐ¾Ð²
ĠÐ¿ÑĢÐ¾ Ð¸Ñģ
ĠÑĥ Ð¼
u st
ÑģÐº Ð¸Ð¼
ĠÑģ ÑĢÐ°Ð·Ñĥ
ĠÑģÐ» Ð¾Ð¶
ĠÐ¿Ð¾Ð» Ð¸ÑĤ
ÑģÑĤ Ð¾Ð¹
ĠÐ¶ ÐµÐ»
ÑĢÑĥ Ñİ
ĠÐ²Ð¾ Ð¾Ð±ÑīÐµ
ĠÑģÐ¾Ð± Ð¾Ð¹
Ð²Ð¾ Ðµ
ĠÑģÐ¾ Ð¾ÑĤÐ²ÐµÑĤ
Ð½Ð¸ Ð·
ĠÐ° Ð¿
ĠÐ² ÐµÐ»Ð¸
Ð°Ð»ÑĮ Ð½Ð¾Ð³Ð¾
ĠÑį Ð»ÐµÐº
ĠÑħ Ð¾Ð´
1 1
ÑĤÐ¸ Ð¹
as t
ĠÐ¡ ÑĤ
ĠÐ¿ÑĢÐ¾ÑĨ ÐµÑģ
ĠÐ¿Ð¾Ñĩ ÑĤÐ¸
ĠÐ¿ ÑĢÐ°Ðº
ĠÑĥÑĩÐ° ÑģÑĤ
Ñĭ ÑĤÐ°
ĠÐ¿ÐµÑĢ Ð²
o ver
ÑĪ Ð¸Ð¹
o st
ĠÐ¾Ð± Ð¾
ĠÑĢÐµ Ð³Ð¸
ĠÑĤ ÑĢÑĥ
ĠÑģ Ð°
Ð¼Ðµ ÑĢÐ¸
Ð¸ÑĤ ÐµÐ»Ð¸
ĠÐ¿Ð¾Ñĩ ÐµÐ¼Ñĥ
ĠÐº Ð»Ð¸
ĠÐ´ÐµÐ² ÑĥÑĪ
Ð¾ ÑĤÐ¾
Ð±Ð¸ ÑĢÐ°
ĠÐĿ Ð¸Ðº
ĠÐ¼ Ð¾ÑĢ
Ð²Ð° Ð½
ÑĩÐ° ÑĤÑĮ
ÑģÐº Ð¾Ðµ
c om
ĠÐ²Ñĭ Ð¿Ð¾Ð»
ĠÐĶ Ð¶
ĠÐ·Ð° Ð±
2 01
ÐºÐ° Ð·Ð°
Ð¾Ð² Ð°Ð»
ÑĢÐ¾ ÑģÐ¸
ÑĢÐµ Ðº
ĠÐ´ Ð²Ðµ
Ð²Ð° Ð½Ð¸Ðµ
Ñģ ÑĥÑĤ
ÑĪ Ð»Ð°
Ġ ...
ĠÐ² Ð´
Ð²Ñĭ Ðµ
ĠÐ´ÐµÐ» Ð¾
Ġ V
ĠÐ¼ Ð¾Ð´
Ð´Ð° ÐµÑĤ
ĠÐºÑĢÐ° Ñģ
ĠÐ½Ðµ Ð±
Ð» Ñĥ
Ðµ ÑĨ
Ġ :
ĠÐ´ Ñĥ
ĠÐ± ÑĢÐ°
ĠÐ½ Ð¾ÑĢ
ĠÑħÐ¾ÑĤ Ñı
ĠÐ¿ÑĢÐ¾Ð´Ñĥ Ðº
ÐºÐ° Ð¼
ĠÑĤ Ð°
ÑĢÐµ Ð²
ĠÑħ Ð°
ÐĶ Ð°
ÐµÐ½ÑĤ Ð¾Ð²
ĠÑĤÐ°Ðº Ð¾Ðµ
ĠÐ¼Ð¸Ð½ ÑĥÑĤ
Ð½Ð¸ Ð±ÑĥÐ´ÑĮ
ÑĪ ÐµÐ½Ð¸Ðµ
Ġa b
Ð¾Ð» Ð°
Ġ ÑĢÑıÐ´
Ð¾Ð· Ñı
Ð»Ð¸ Ñı
ÐºÐ¾Ð² Ð¾Ð´
ĠÑĤ Ð¾Ð²Ð°
o b
ÑĨÐ¸ Ð°Ð»Ð¸
Ġh as
Ñĩ Ð½Ð¾Ð¹
ĠÐķ Ð²
ĠÐº Ð¾Ð»Ð¸
ĠÐ¿ÑĢ Ð¾Ð¿
in e
ĠÐ¿Ð¾Ð´ Ð¾Ð±
ĠÐ³Ð¾Ð» Ð¾Ñģ
Ð² ÐµÐ»Ð¸
ĠÐºÐ¾Ð½Ðµ ÑĩÐ½Ð¾
ĠÑģÑĤÐ¾ Ð¸ÑĤ
Ð½Ð¸ ÑĨÐ°
am e
ÑģÐ» Ðµ
ĠÐ² ÐµÑģ
ÑĢÐ° Ñģ
ĠÑģÐ¾Ð² ÑģÐµÐ¼
ĠÐ³Ð¾ÑĢ Ð¾Ð´Ð°
ÑĤ Ð½Ð¾
ĠÐ´Ð¾ ÑģÑĤÐ°
Ð ĸ
ĠÐ²Ðµ ÑģÑĮ
ĠÐ¿ÑĢÐµÐ´ Ð»Ð¾Ð¶
ĠÐ¶ ÐµÐ»Ð°
ĠÐ½Ð° ÑģÑĤÐ¾Ñı
Ð¾Ñĩ ÐµÐ¼Ñĥ
ÐµÑĢ Ñĭ
ĠÐ²Ñĭ ÑħÐ¾Ð´
ĠÐ± Ð¾Ð»
ÑģÐº Ð¾Ð»ÑĮ
Ð¾ÑĤ Ð°
ĠÑģ Ð¾Ð´
ĠÐ£ ÐºÑĢÐ°
Ð· Ð¾Ð²
ĠÐ½Ðµ Ñģ
ĠÐ¿ÑĢÐµ ÐºÑĢÐ°
ĠÐ´Ð¾Ð»Ð¶ ÐµÐ½
ÑĨ ÐµÐ½
ÑģÐ¸ Ð¸
ĠÐ¿ÑĢ Ñı
Ð¾Ð± ÑĢÐ°Ð·
ÑĢ ÑĮ
ĠÐ¸ Ð´Ðµ
ĠâĢ ľ
ÐµÑĢ Ð¾
ĠÐ¡ Ð¾
Ð²Ð° ÐµÐ¼
el l
ĠÐ½Ðµ Ðµ
ÑĩÐ¸ ÑĤÑĮ
ĠÑįÑĤÐ¸ Ñħ
ÑģÐ¸ Ð¾Ð½
Ġs a
Ð¸ÑĤÑĥ Ð°
ĠÐ¶ÐµÐ½ ÑīÐ¸
ĠÐ¾ ÐºÐ°Ð·
Ġ us
00 0
ĠÑįÐº Ð¾Ð½Ð¾Ð¼
ĠÑĥ Ð²Ð¸
Ñī ÐµÐ½Ð¸Ðµ
Ð´ ÐµÐ»ÑĮ
ĠÐ³ Ð¾Ð²Ð¾ÑĢ
ĠÐº Ð»Ð°Ñģ
Ð»Ð° Ð½
Ð¾Ð²Ð° Ñı
ÑĢÐ¾ ÑĤ
Ġ k
ÐºÐ° Ñı
ĠÐ» Ð°
Ð¾Ð± Ð¾Ð´
Ð´ ÐµÐ½
Ġ j
ĠÐĲ Ð»ÐµÐºÑģ
u b
ÑĤÑĥ ÑĢÑĭ
ĠÑĦ Ð¸Ð»ÑĮ
ĠÑģÐºÐ° Ð·Ð°ÑĤÑĮ
ĠÐº Ð²Ð°ÑĢ
ĠÐ´Ð² ÑĥÑħ
ĠÐº ÑĥÑĢ
ĠÐ² ÑģÐ¿
ĠÑģ Ð¾Ñģ
ÐµÐ· Ð´
Ġw or
ÑĦÑĦ ÐµÐº
ĠÐ¿ÑĢÐ¾ÑĦ ÐµÑģ
ĠÐ½Ð° Ðº
on g
p l
Ð¸ ÐºÐ¸
ĠÐ¾ÑĩÐµ ÑĢÐµÐ´
ĠÑģ Ð»Ð¸
ĠÐ¾Ð´ Ð½Ð¾Ð¹
ĠÐ± ÐµÑĢÐµ
an s
1 2
Ð¾Ð½ Ð¾Ð²
Ð¸ Ð½Ñĭ
ĠÐºÐ¾Ð¼Ð¿Ð° Ð½Ð¸Ð¸
ÑĢÐ¸ ÑĤÐ¾
ĠÐ´ÐµÑĢÐµ Ð²
Ð½Ð¸ ÑĤÐµÐ»ÑĮ
ĠÐ·Ð° ÑıÐ²
ĠÐ¿ÑĢ Ð¾Ð´Ð°
id e
Ñı Ð»
ĠÐ·Ð° Ð½Ñı
ÑĩÐµÑģÐº Ð¾Ð³Ð¾
ÑģÑĤ ÑĢÑĥÐº
Ð²Ðµ ÑģÑĤÐ¸
ĠÐ½Ð° Ð´Ðµ
Ð¾Ð» Ð¾Ð³
ĠÐ½Ð° ÑĢÐ¾Ð´
u re
Ñĥ Ð»Ñı
ĠÐ¸ Ð³ÑĢÐ°
Ð½Ð¸ ÑĤ
ĠÐ¿ÑĢÐ¾Ð´ Ð¾Ð»Ð¶
ĠÐ·Ð° ÑĤ
al ly
Ð³ Ð»Ð°
ĠÐ¿Ð¾Ð» ÑĥÑĩÐ°
ĠÐ¢ Ñĭ
ĠÐ²Ð¼Ðµ ÑģÑĤÐµ
ĠÑģ Ð¼Ðµ
Ðµ ÑĪ
ĠÑĤÐ°Ðº Ð¸Ðµ
ÑģÑĤÐ² Ð¸Ðµ
ĠÑģÐ¾Ð² ÐµÑĤ
Ñĩ ÐºÐ°
ÐµÑĢ Ð±
ÐµÐ½ Ð½Ð¾Ð¹
ĠÐ¢ Ðµ
ĠÑģ Ð¸ÑĤÑĥÐ°
ĠÐ¿ÑĢÐ¾Ð² Ð¾Ð´
ĠÑĢÐ°Ñģ ÑģÐºÐ°
oun d
ÑĩÐµÑģÐº Ð¸Ðµ
ÑĢÐ° Ð²Ð¸
ĠÐľ Ð°
ĠÐ± ÐµÐ»
Ñħ Ð¾
ĠÐ¼ Ð¸Ð»
Ð´ Ð°Ð»
ĠÐĲ ÑĢ
ĠÑĢÐ¾Ñģ ÑģÐ¸Ð¹
Ð²ÑĪ Ð¸Ð¹
Ðº Ð¾Ð³Ð¾
ĠÐ¾Ð± ÐµÑģÐ¿
ou g
ĠÐ·Ð½Ð° Ñİ
ĠÐł Ð°Ð·
Ð½Ð° Ñħ
ĠÐ½Ð° ÑĩÐ¸Ð½Ð°
Ð² Ð°Ð»Ð°
ĠÐ¼Ð°ÑĤÐµÑĢÐ¸ Ð°Ð»
ÑĤÐ¾ ÑĩÐ½Ð¾
Ð» Ð¾Ðº
Ð½ ÐµÐ½Ð¸Ñı
ÐµÐ´ Ð¸Ð½
ion s
ĠÐ½Ð¸Ðº Ð¾Ð³Ð´Ð°
ĠÑģÑĩÐ¸ÑĤ Ð°
Ð·Ð° Ð´
Ġw he
i e
ĠÐ¾Ð´ Ð½Ð°
ĠÐ³ Ð°
ĠÐ·Ð° Ð¼ÐµÑĤ
ĠÑģÑĤÐ¾ÑĢÐ¾ Ð½Ñĭ
ĠÑģÐ°Ð¼ Ð¾
ĠÑį ÑĤÑĥ
ÑģÑĤÐ¾Ñı Ð½
ĠÐ´Ð¾Ðº Ñĥ
ĠÑĢÐµÐ± ÐµÐ½
ÑĪ Ð¸Ðµ
\ \
ag e
ĠÑĩÐ° ÑģÑĤÐ¸
ĠÐ¿Ðµ ÑĢÐ¸
ĠÐ± Ð¾ÑĢ
ĠÐ¾Ð±Ñı Ð·Ð°
ĠÐ´ÐµÑĤ ÐµÐ¹
ate d
Ð¿Ð° Ð´
ĠÑģÐ¾Ð²ÐµÑĢ ÑĪ
Ġ *
ĠÐ½Ð° Ð±
ÐµÐ´ Ð¸
Ð· Ñı
ĠÐ¾ÑĤ Ð»Ð¸
Ð¾Ð¼ Ð¸Ð½Ð°
ĠÐļ Ð¾Ð³Ð´Ð°
ĠÑĥ Ð»Ð¸
Ñı ÑģÑĮ
Ġb ut
ĠÑĥ Ð´Ð¸
Ðµ ÑģÑĤ
i z
ÑģÐ» ÑĥÐ¶
Ñĩ Ð½ÑĭÐ¹
2 0
ÑĩÐ° ÑģÑĤ
ĠÐ´ÑĢÑĥÐ³ Ð¾Ð¹
Ġ ÑĨÐ¸
ÑģÑĤÐ²ÐµÐ½ Ð½Ð¾Ð¹
ĠÐ³Ð¾Ð²Ð¾ÑĢÐ¸ ÑĤ
ĠÐ³ Ð¾ÑĤÐ¾Ð²
ĠÐ·Ð° Ð¼
ÐµÐ´ ÐµÑĢÐ°
ĠÐ´Ð¾Ð»Ð¶ Ð½Ñĭ
ĠÐºÐ¾ÑĤÐ¾ ÑĢÐ¾Ð³Ð¾
Ð½Ð¸ Ð»
ĠÐ¿ÑĢÐ¾ Ñģ
ÑĤÐ¸ÑĩÐµÑģÐº Ð¸
Ð² Ñı
ĠÐ¾Ð±ÐµÑģÐ¿ Ðµ
ĠÑĢÑĥ ÐºÐ¾Ð²Ð¾Ð´
ĠÐ´ Ð½Ñı
ĠÑĤÐµÑĢ ÑĢÐ¸ÑĤÐ¾
Ð´ÐµÐ» Ð°
ĠÐ² ÐºÐ»Ñİ
ÑĢÐ¾Ñģ Ð¸Ð»
ĠÐ¿Ð¾ ÑįÑĤÐ¾Ð¼Ñĥ
ĠÑĤ Ð¾Ð»
Ð¼ÐµÐ½ ÑĤ
ĠÑģ Ð½Ð¾Ð²Ð°
ĠÐ±Ñĭ ÑģÑĤÑĢÐ¾
ÑĢÐ° Ñħ
ĠÐ¿ÑĢÐµÐ´ Ð¿ÑĢÐ¸
ow n
ĠÐ¾ ÑĦÐ¸
ĠÐĽ Ñİ
ĠÐ¼ Ð¾Ð¹
ÑĨÐ¸ ÐµÐ¹
ĠÑģÑĤ ÑĢÐ°Ð½
ĠÑħÐ° ÑĢÐ°Ðº
ÑģÐº Ð°Ð·
ĠÑģ Ð¼ÐµÑĢ
ĠÐ¸Ð¼Ðµ ÐµÑĤ
r y
f f
Ð°ÑĤ Ñĭ
ĠÑĤ Ð²Ð¾
Ð´ Ð¶
Ð¼Ð¾ÑĤÑĢÐµ ÑĤÑĮ
ÑģÐº ÑĥÑİ
Ð½Ð¸ ÑĨÑĭ
ĠÐŁ ÐµÑĢ
Ð¶ Ð´Ð°
ĠÐ¿ Ð¸Ñģ
Ð¾Ðº Ð¾
ĠÐ½ÐµÐºÐ¾ ÑĤÐ¾ÑĢÑĭ
Ð¨ ÐĲ
ĠÐ· Ð´Ð¾ÑĢ
ĠÐ¿ÑĢÐ¸ Ð¼ÐµÑĢ
ĠÐ³ ÑĢÐ°Ð¶
ĠÐ¾Ð¿ ÐµÑĢÐ°
Ġc an
ĠÐ² ÑĤÐ¾ÑĢ
ĠÐºÐ¾ÑĤÐ¾ ÑĢÐ¾Ð¼
ĠÐ¼Ðµ ÑģÑĤÐ°
ĠÐ¼Ð¸ ÑĢ
Ð½Ð° Ð¼Ð¸
ĠÐ´Ðµ ÑıÑĤÐµÐ»ÑĮ
Ð¶ ÐµÐ½
Ð°Ð¼ Ð°
ĠÑģÐ¾Ð² ÑĢÐµÐ¼ÐµÐ½
Ġal l
ĠÐ² ÑĢÐµÐ¼ÐµÐ½
Ñī Ð¸ÑĤ
ĠÑįÑĤÐ¸ Ð¼
ou s
ÑĩÐµÑģÐº Ð¸Ð¹
in d
ĠÑĢÐ°Ð· Ð»Ð¸Ñĩ
on e
ĠÐ¸ Ð´
ĠÐ´ Ð²Ð¸Ð¶
ĠÑģÑĥ ÑīÐµ
ĠÐ¿Ð¾ Ñı
ÑĢÐ¸ Ð½
Ð¾Ð¶ ÐµÑĤ
ĠÐºÐ¾Ð¼ Ð°Ð½
Ġ1 7
ĠÐ¾Ð±ÑĢÐ°Ð· Ð¾Ð¼
ĠÐ¡ ÐµÑĢ
Ð» Ð¾Ð½
ĠÑĤ ÑĢÐ°Ð½
ĠÐ½Ð° Ð·Ð°Ð´
i p
Ġ1 6
ÑĢÐ° Ð¼
ĠÑģÑĥ Ð¼
Ð² ÑĪÐ¸ÑģÑĮ
ĠÑģÐ²Ð¾ Ðµ
Ð¾Ðº Ð¾Ð¹
ic e
om e
Ġthe y
Ġh t
ĠÐºÐ° Ð¶Ð´ÑĭÐ¹
Ð¼Ð¸ Ð½Ð¸
ĠÑĩÐ° ÑģÑĤÑĮ
Ð¶ Ð¸Ð¼
ÑĪ ÐºÐ¾Ð¼
ĠÐ·Ð° Ð½Ð¸Ð¼Ð°
ÑĢÐ°Ð· Ð´
ĠÐ¼Ð¾Ð¼ ÐµÐ½ÑĤ
ĠÐł Ð°
ĠÐ¿Ð¾Ð² ÐµÑĢ
b er
ĠÐ¾Ð¿ÑĢÐµÐ´ ÐµÐ»
ĠÐ¿ÑĢÐ¸ ÑħÐ¾Ð´
ĠÐ´ Ð¾Ð³
ÑģÑĤ ÑĢÐ°Ð½
ĠÐŁ Ð¾ÑĤ
ĠÐ¼Ð¾Ð³ Ñĥ
ĠÑĢÐ°Ð· Ð³
Ñģ Ð¸Ñħ
ĠÐºÐ¾Ð¼ Ð½Ð°
Ð³Ð¾Ð´ Ð°ÑĢ
ĠÐ¿ÑĢÐ¸ Ð·Ð½Ð°
ĠÐ± ÐµÑģ
ĠÐļ Ð¾Ð½
Ð¿ ÐµÑĢÐ°
ĠÐ²Ð° ÑĪ
Ġht tp
Ð´ÐµÐ» Ð¸
Ð¾Ð· Ð½Ð°
Ð½Ðµ Ð²
Ñī ÐµÐ½
ÑĪ ÐºÐ¸
ÑģÐ» Ð¾
ĠÑģÐ¿Ðµ ÑĨÐ¸Ð°Ð»ÑĮ
ot her
ĠÑģÐ¾ÑĤ ÑĢÑĥÐ´
Ð¸ Ð³
Ñı ÐµÑĤ
ĠÐ¿Ð¾ ÑģÑĤÐ¾ÑıÐ½
Ð½Ð¾ Ñģ
ac t
ĠÐ·Ð° Ð¼Ðµ
ĠÐŁ Ð¾Ð»
Ð°Ðº Ñģ
ĠÑĥ Ð»Ñĭ
Ð¾Ð»ÑĮ Ð½Ð¾
ac e
ÑĢÐ¸ ÑĤÑĮ
ĠÐµ Ð´Ð¸Ð½
ĠÐ¿ Ð¾Ð¹
ÐĹ Ð°
ĠÐº ÑĢÐ¾Ð²
Ð¾Ð½Ðµ ÑĨ
ĠÐº ÑĥÐ»ÑĮ
ÑĩÐ° ÐµÑĤ
. ,
Ġa r
ĠÑģ Ð°Ð¼Ð¸
a v
ĠÐŁ Ñĥ
ÑĤ ÐµÐ½
)) ))
ĠÑģÐ²Ð¾ Ð¸Ð¼
ĠÑģÐ»ÐµÐ´ ÑĥÑİÑī
Ġ \
d er
Ġwh ich
Ð¶ ÐµÑĤÑģÑı
ĠÐ¡ Ð¾Ð²
ĠÑĤ ÐµÐº
as s
ĠÑį ÑĦÑĦÐµÐº
ÐµÑĤ Ð¸
! <|
Ð»Ð° Ð´Ð¸
Ð¾Ð³ Ðµ
Ġn e
ÑĢ Ð¾Ð·
ĠÐĴ Ð°
ÑĢÐµ Ð·
Ð»Ð° Ð³Ð°
ĠÐ´ÑĢÑĥÐ³ Ð¸Ðµ
ĠÐ±ÑĥÐ´ Ñĥ
ĠÑĥ ÐºÑĢÐ°
ĠÐ½ Ð¾Ñģ
ĠÐº ÑĥÐ´Ð°
Ð¾Ð¶ Ð½Ð¾
ĠÑĢÑĥ ÐºÐ¸
5 0
ĠÐ¾Ð´ Ð½Ð¾
ĠÐŀÐ´ Ð½Ð°ÐºÐ¾
ĠÐļ Ð¾Ð¼
ĠS t
ÑĪÐµ Ðµ
Ð²Ð¸ Ð»Ð°
ĠÐ¾Ð´ Ð½Ð¾Ð³Ð¾
Ġ3 0
ĠÑħ Ð¾Ð·Ñı
Ġ19 9
ĠÐ¼Ð°Ð» ÐµÐ½ÑĮ
ĠÐŀ Ñģ
Ð»Ñİ Ñĩ
ĠÐ´ ÑĥÑħ
ÑģÑĤ ÑĢÐ¸
ÐŃ ÑĤÐ¾
Ð±Ðµ Ð¶
a il
Ð¿ Ð»Ð°
ÑĢ Ñİ
-- --
ĠÑģÑĤ Ð°Ð½Ð¾Ð²
ĠÑĤ Ð¾Ð¼Ñĥ
s o
Ġm e
ĠÐºÐ²Ð°ÑĢ ÑĤÐ¸
ÑıÑĤ Ð½Ð¾
Ġ ÑĢÐµÐ´
ÑĦ Ð¾Ð½
ĠÑĤÑĭÑģÑı Ñĩ
Ġ1 4
ĠÐ² Ð¿Ðµ
Ð²Ñĭ Ð¹
ĠÑģ Ð¾Ð¿
ĠÐ¡ Ð¨ÐĲ
Ġthe ir
ĠÑįÐ»ÐµÐº ÑĤ
ar y
ĠÐŁÐ¾Ñģ Ð»Ðµ
Ġwe re
ĠÐ¸ ÑĤ
ĠÐ¼ Ð°ÑĤ
108 6
Ð´ ÑĮ
ĠÐ¿ÑĢ Ð¾Ð¼
ĠÐ¿Ð¾ ÑĢÑıÐ´
ĠÑĢÐ° Ð´Ð¸
ĠÐ¿ÑĢÐ¸ Ð½
Ð¾Ð³ÑĢÐ° ÑĦÐ¸
ĠÐ¿ÑĢÐ¸ Ð¼ÐµÐ½
ĠÐ²Ð¾Ð· Ð´Ñĥ
p t
ĠÐ³ Ð°Ð·
ĠÑĦ ÑĥÐ½
ĠÑĥ Ð·
ÐºÐ¸ Ð¼
ĠÐ½Ð° Ð·ÑĭÐ²Ð°
ĠÐ¸Ð· Ð¼ÐµÐ½
Ð¸ ÑģÐ°
Ñĩ Ð½ÑĭÐµ
i te
ÑģÐ¸ Ñı
Ð¾Ð²Ñĭ Ð¼
ÑģÑĤÐ°Ð²Ð»Ñı ÐµÑĤ
ĠÐ´ Ð°Ð»Ðµ
* *
ĠÐ°Ð²ÑĤÐ¾Ð¼ Ð¾Ð±
ÐµÐ» ÐµÐ¼
ĠÑĩ Ð¸ÑĤ
ĠÐºÑĢÐ° ÑģÐ¸
Ñĥ ÑĤÑĮ
ĠÐ³Ð» ÑĥÐ±
Ġd o
Ð²Ð¸ Ð»Ð¸
ĠÐ´ÐµÐ½ÑĮ Ð³Ð¸
ĠÐ¿ÑĢÐ¾Ð² ÐµÐ´
Ñĳ Ð»
Ġa d
Ð½ Ð°Ð»Ð¸
Ġw ill
ĠÐ¼Ð¾Ð¶ ÐµÑĤÐµ
Ð¸Ð»Ð¸ ÑģÑĮ
Ġh ad
ĠÐº ÑĢÑĥÐ¿
ĠÐµ Ð²
ĠÑĤÐ°Ðº Ð¸Ñħ
Ñĩ ÑĤÐ¾
ÑĢÐµ Ð¿
ĠÑĢÐ° ÑģÑĤ
ĠÐŁ ÐµÑĤ
ĠÐ¸ Ñİ
ĠÐ¸ÑģÐ¿ Ð¾Ð»
im e
Ġc l
ĠÐº Ð¾Ð³Ð¾
ĠÐºÐ°Ðº Ð¸Ðµ
Ġwh o
Ð ¦
Ð¾Ð¿ Ð°Ñģ
3 0
Ñĳ ÑĢ
Ð¼Ð¾Ð¶ Ð½Ð¾
ĠÑĥÑģÐ»Ð¾Ð² Ð¸Ñı
ĠÑģÐ¿Ðµ ÑĨÐ¸Ð°Ð»Ð¸
Ġ1 1
en ce
Ð²Ð¸ Ð³Ð°
ĠÐ¿Ð¾Ð¼ Ðµ
ĠÐ¼ ÐµÑĢ
Ð³ Ð»Ð¸
ĠÑĩÐ° ÑģÑĤÐ¾
ĠÐ¿ Ð»
Ġ out
Ñĩ Ð½ÑĭÑħ
ÑĨ Ð¾Ð²
ÑĩÐ¸ Ðµ
ÐĿ Ð¾
e p
ĠÐº ÑĢÑĭ
Ð² Ð¸Ð½
Ð¸Ð¼Ð¾ ÑģÑĤÐ¸
Ġ en
ÑĨ Ð°ÑĤÑĮ
ĠÑģ Ð¼Ñĭ
ÑĪ Ð»Ð¾
ĠÑĢÑĭ Ð½
ĠÑĩÐ° ÑģÑĤ
Ġ ?
ĠÑģÐ¾Ð¾ÑĤÐ²ÐµÑĤ ÑģÑĤÐ²
ÐµÐ¼ Ð°
Ðº Ð¾Ð½
ĠÐº Ð¾Ñģ
ĠÐ¿ Ð°Ð¼
Ð½Ñı ÑĤÑĮ
Ð¾Ð» ÐµÑĤ
Ġcom p
Ġsa id
ÑĤ ÐµÐ»Ñı
ĠÑĥÐ»Ñĭ Ð±
ĠÐ·Ð½Ð° ÐºÐ¾Ð¼
Ð¡ Ð¡
ÐĴ Ñĭ
ÐµÐ½ Ð½Ð¾Ð³Ð¾
ĠÐ·Ð° Ð²Ð¸Ñģ
ĠÐ´Ð¾ ÑģÑĤÐ¸
Ð´ ÐµÐ¼
Ð¾Ð» Ñı
ĠÑĦ Ð¾ÑĤ
ĠÐľ Ð°ÑĢ
ĠÐº Ð°Ð½
ĠÐł Ð¤
ĠÐ¾Ð³ ÑĢÐ¾Ð¼
ÑĤÐ° Ð¼Ð¸
Ð²Ð° ÑİÑĤÑģÑı
ĠÑį Ð½ÐµÑĢ
ĠÑĥÑĩÐ° ÑģÑĤÐ¸
ĠÑģÐºÐ¾ ÑĢÐ¾
ĠÐ¿ÑĢÐ°Ð² Ð¸Ð»ÑĮ
Ð¸ ÐºÐ°
Ñģ ÐµÑĢ
Ð° Ð½Ð°
Ñĩ Ð½Ð¾Ð³Ð¾
ĠÑĤÑı Ð¶
ĠÐ¾ Ð¶Ð¸
ÑĢÐ° Ð¼Ð¸
Ð ¬
ĠÑĢÐ°Ð±Ð¾ÑĤ Ñĥ
ĠÑģÐ°Ð¼ Ð¾Ð¼
Ñĥ ÑīÐµÑģÑĤÐ²
ĠÐ²Ð° ÑĢÐ¸
ĠÐ¸ÑģÑĤÐ¾ ÑĢÐ¸
c l
ĠÐ¼Ð¸ Ð½Ð¸
ĠÐ½ÐµÐ¼ Ð½Ð¾Ð³Ð¾
ÐŁ Ð¾
Ġ up
Ð¿ Ð¸Ñģ
o v
ĠÐ¸Ð½ ÑģÑĤ
ÑĤÐ¸ Ð»
ĠÑģÑĤÐ° ÑĢ
ĠÐ¿Ð»Ð¾ ÑīÐ°
i an
Ð·Ñĭ Ð²Ð°ÐµÑĤ
ĠÐ°Ðº ÑĤÐ¸Ð²
Ð´ÐµÑĢ Ð¶Ð¸
1 8
ĠÐ¶ Ð¸
ÑĩÐ¸ Ðº
Ñĭ Ð¼Ð¸
ĠÑĥ Ð²ÐµÑĢ
ÑĤÐ¸ Ðµ
ĠÐ²Ð¾Ð·Ð¼Ð¾Ð¶ Ð½Ð¾
ĠÐ½Ð°ÑĪ ÐµÐ¹
ĠÑģÑĤ Ð°Ð»Ð¸
ĠÐĲÐ»ÐµÐºÑģ Ð°Ð½Ð´
Ð» ÐµÐ½Ð¸Ð¸
ÑģÑĤÐ° Ð²Ð¸ÑĤÑĮ
ĠÑĤÑĢÐµ Ð±
ĠÐ¿Ð¾Ðº ÑĥÐ¿
Ð½Ð¸ ÑĨ
Ð «
ĠÐ¾Ð±ÑĬ ÐµÐº
Ð´Ð° Ð½Ð¸Ñı
t o
ig n
ĠÐĽ Ð¸
ĠÑĩ ÐµÑĤÑĭ
ĠÐºÐ¾Ð½ ÑĨÐµ
u e
Ð°Ð½ Ðº
ÐµÐ»ÑĮ Ð·Ñı
ĠÐ°Ð² ÑĤÐ¾
ĠÑģÐ¾Ð± Ð¸ÑĢÐ°
Ġ [
ĠÐºÐ¾Ð½ ÑĤÑĢ
Ð¾ ÑĢÐ¸
e ct
ĠÐ²Ð¾Ð·Ð¼Ð¾Ð¶ Ð½Ð¾ÑģÑĤÑĮ
Ð½Ð¸ ÐºÐ¾Ð¼
Ð´ Ð¾Ð¼
Ġon e
ÑģÑĤÐ² Ð¸Ñı
ÑĢÐ¾Ð²Ð° Ð½Ð¸Ñı
ĠÐºÐ¾ÑĤÐ¾ ÑĢÐ¾Ðµ
Ð¾Ð» Ð¾Ð¶
Ð½Ñı Ñı
ĠÐ¿ ÑĢÐ°Ð·Ð´
ÑĢÑĥ ÑĪ
ĠÐľ Ð¸
Ð´Ð° ÑĢ
ÑģÐº Ðµ
l l
Ð¾Ð» Ð¾Ð²
Ñģ Ð½Ð¾
Ð³ Ð¸Ð½
o ok
ĠÐ¼Ðµ ÑģÑĤÐµ
ÑģÑĤÐ¾ ÑıÑĤÐµÐ»ÑĮ
ÐŁ ÑĢÐ¸
ÑİÑī ÐµÐ¹
ul t
ĠÐ¼Ð° Ð³Ð°
ĠÐ´ÐµÐ» Ðµ
ĠÐ·Ð½Ð° Ñĩ
ĠÐ¾Ðº Ð¾Ð»Ð¾
ĠÑģÑĤÑĢÐ¾ Ð¸ÑĤÐµÐ»ÑĮ
ĠÑģÐµÑĢ Ð´
ÑĢÑĥ Ð·
i b
Ð²ÑĪ Ð¸Ñħ
ÑĤ Ð¾Ð±
Ð²Ñĭ Ñħ
ĠÐ¡ Ð°Ð¼
ÑĤÐ¸ Ð¸
ÑĦ ÐµÑĢ
ÑģÐ¸ Ð»Ð¸
ĠÐ¿ÐµÑĢÐ²Ñĭ Ð¹
Ġm ore
Ġ X
ÑģÑĤÐ²ÐµÐ½ Ð½Ð¾Ð³Ð¾
ĠÐ·Ð° Ð²
Ð¼ Ð¾Ð½
ĠÐĿ Ð¸
ic al
ĠÐ·Ð½Ð° ÑĩÐ¸ÑĤ
Ð°Ð»ÑĮ Ð½Ð¾Ðµ
ĠÐ¿ Ð»Ðµ
ĠÐ¿ ÑģÐ¸Ñħ
Ñģ Ð¾Ð½
ĠÐĴ Ð°Ñģ
ĠÐ½Ð¸Ðº ÑĤÐ¾
ĠÐ·Ð° Ð³
ĠÐ¾ Ð½Ð¾
Ðķ ÑģÐ»Ð¸
ĠÐ·Ð° Ð±Ñĭ
__ __
ĠÐ²Ð¾Ð· ÑĢÐ°
ĠÐ¿ÑĢÐµÐ´ Ð¾
Ð½Ñĥ Ð»Ð°ÑģÑĮ
Ð´ Ñı
ĠÑģÐ¾ ÑģÑĤÐ°Ð²
ĠÑĤÐµ Ð¿
ĠÐĵ Ð¾Ñģ
Ð°Ð»Ñĥ Ð¹
ĠÑĢÑıÐ´ Ð¾Ð¼
y s
or d
ĠÑģ Ð»Ð°
ĠÐ¸Ñģ ÑģÐ»ÐµÐ´
Ġg o
ĠÐ´ Ð²ÐµÑĢ
ĠÐ¼Ð¸ ÑĢÐ°
ĠÐ² Ð¾Ðº
ĠÑĢÑĥÐ± Ð»ÐµÐ¹
Ġ1 3
ĠÑĤ ÑĢ
Ġ im
ĠÐ´Ð¾ÑģÑĤÐ° ÑĤÐ¾ÑĩÐ½Ð¾
ĠÐ¾Ð±ÑĬ ÑıÑģ
ĠÐ¾ÑĢÐ³Ð°Ð½Ð¸ Ð·Ð°
ĠÐ² ÐµÑĤ
ĠÐ½Ðµ Ð´
ĠÐ¸ÑģÐ¿Ð¾Ð»ÑĮÐ· Ñĥ
ĠÐ± Ð¸Ð·
ÑĪ Ñĥ
Ð·Ð¸ Ð´
ÑĥÐ¶ Ð´
Ð» ÑĥÐ±
ÑĦ Ðµ
ĠÑģÐ² Ð¾Ð±Ð¾Ð´
Ð¸Ð½ Ð¾Ð¹
ĠÑĦ Ð¸Ð·
ĠÐ¿ ÐµÑģ
ĠÑģÑĢÐµÐ´ Ð¸
ÐµÑĢ Ð¾Ð²
ĠÑģÐ¾ ÑĨÐ¸Ð°Ð»ÑĮ
ĠÐ¼Ð¸Ð» Ð»Ð¸
ĠC h
Ð²ÐµÑĢ Ñħ
ĠÐ½ Ð¾Ð¼
oug h
ĠÐ¡ ÑĤÐ°
Ð¼Ð¸Ð½Ð¸ ÑģÑĤÑĢÐ°
ĠÐ¾ÑĤ Ð´ÐµÐ»
or m
ĠÐ¾ ÐºÐ°
i re
ĠN o
ĠÐ¼Ñĥ Ð·Ñĭ
ÑģÐº Ð¾Ð²
Ð¾ ÑĢÐ°
Ð¼Ð¾ÑĤ ÑĢÐ¸
ĠÑĥ Ð·Ð½Ð°
i ke
Ð´Ð¾ Ñħ
ĠT h
ĠÐ²Ñģ Ñİ
Ð Ļ
Ð½Ð° ÑĢÐ¾Ð´
ĠÑģÐµÐ¼ ÑĮ
ĠÐ·Ð°Ðº ÑĢÑĭ
ÑģÐ¸ Ð±Ð¾
ĠÐ¿Ð¾ ÑıÐ²
ĠÐ¾ ÑģÑĤÐ°Ð²
ÑĤ ÑĢÐµÐ½
ĠÐ¼ ÐµÐ½ÑĮ
ĠÐ¼ÐµÐ½ ÐµÐµ
ĠÐ½ÐµÐ¾Ð±ÑħÐ¾Ð´ Ð¸Ð¼
Ñģ Ñģ
ĠÐ¼ Ñı
ĠÐ¼Ð° ÑĪ
ÑģÑĤÐ²ÐµÐ½ Ð½ÑĭÑħ
Ð¾ Ð½Ð¸
ÑģÑĤÐ²ÐµÐ½ Ð½ÑĭÐ¹
ĠÐ¿Ð¾ÑĤ ÑĢÐµÐ±
ÑĢÐ¸ Ð¼ÐµÑĢ
ĠÐ° Ð³
1 5
Ð°Ð»Ð¸ Ð·
ĠÐ´Ð¾Ð» Ð³Ð¾
w w
ĠÑģÐ¾Ð³ Ð»Ð°Ñģ
Ð¶ Ð´Ðµ
Ð°Ñģ Ð°
ĠÑģÑĤ Ð°Ð»Ð¾
ĠÐ»Ð¸ Ð±Ð¾
ĠÑģÑĤÑĢÐ° Ð½Ñĭ
Ð²Ð° Ñİ
ÑĩÐµ ÑģÑĤÐ²Ð°
Ð¼ÐµÑĢÐ¸ ÐºÐ°Ð½
ĠÐ¾ÑĢÐ³Ð°Ð½Ð¸ Ð·
Ġre s
ÐĿ Ñĥ
ĠÐ²Ñĭ Ð¿Ñĥ
)) )
ĠÐ¿ÐµÑĢÐ¸ Ð¾Ð´
Ð¸Ð¼Ð¾ ÑģÑĤÑĮ
ĠÐ¿Ð¾ Ð¸
ĠÐł Ðµ
ĠÐ´ Ð½ÐµÐ¹
Ñĩ Ð°Ð»
ĠÐ¾ Ñī
Ð»ÐµÐ½ Ñĭ
1 6
ĠÐ¾ÑģÐ¾Ð± ÐµÐ½Ð½Ð¾
ÑĢÐ¸ Ð»
Ð¾Ð¶ Ð°
ÑģÑĤÑĥ Ð¿Ð°
ĠÐĴ Ð°Ð¼
ÑĢÑĥ ÐµÑĤ
ÐµÑĢ Ðº
ĠÐ½Ð°Ð¿ ÑĢÐ¸Ð¼ÐµÑĢ
ĠÑģ Ð¸Ð¼
ĠÐ¿Ð° ÑĢÐ°
ĠÑħ Ð²Ð°
Ð± Ð»Ð¸
ÑĤÐ° Ñħ
Ðº Ð°Ðº
ÑĢÐµ Ðµ
ĠÐ½Ð° Ð¹ÑĤÐ¸
ÐµÑĢ Ð¶Ð°
ÑĢÑĥ Ð¶Ð¸
ĠÐķ Ð³Ð¾
ĠÐ´ ÐµÐ½Ðµ
Ñĩ ÐºÑĥ
ĠÐ¿ Ð¾Ð²Ñĭ
Ð°Ð»ÑĮ Ð½Ð°Ñı
Ñı Ð±ÑĢÑı
ĠÑĤÐµÑħ Ð½
c o
ation s
ĠÐ½Ð¾ÑĢ Ð¼
p er
ĠÐºÐ¾ÑĤÐ¾ ÑĢÑĥÑİ
ĠÑģÐ»Ð¸ ÑĪÐºÐ¾Ð¼
ÑĦ Ð°
Ð¾Ð¶Ð´ ÐµÐ½Ð¸Ñı
ĠÐĴ Ð»Ð°Ð´Ð¸
ĠÐľ Ð½Ðµ
ÑģÐ¿ ÐµÐº
ĠÑĨ ÐµÐ½
Ġa c
Ð°Ðº Ð°
ĠÐ¾Ðº Ð¾Ð½
ĠÑģÐ²Ñı Ð·Ð¸
ÑĤÐ¾ Ð½
Ðµ ÑģÑĤÐ¸
en s
ÐµÐ´ ÑĮ
ĠÐ¶ ÑĥÑĢ
ĠÑģÐ¸ÑģÑĤÐµÐ¼ Ñĭ
ĠÑĩ ÐµÑĤ
ĠÐ²Ð¾Ñģ Ð¿
ĠÐºÐ° Ð·
ĠÐ²Ð½Ð¸Ð¼Ð° Ð½Ð¸Ðµ
ĠÐ¾ Ð´Ðµ
Ð¾Ð»Ð¾Ð³Ð¸ Ð¸
ĠÐ´ Ð¾Ð¿Ð¾Ð»
ĠÐ¿Ð¾Ð» Ð¸
ÑĤÐ° Ð¼
Ġs p
Ð¸Ð½Ð° Ð½
ĠÐ±ÐµÐ· Ð¾Ð¿Ð°Ñģ
ÐµÐ½ ÐµÑĢÐ°
Ð¾ÑĤ Ðµ
ĠÐ¿Ð¾ ÑĤÐµÑĢ
ÑĤ Ð¾Ð¹
ĠÐŁÐ¾ ÑįÑĤÐ¾Ð¼Ñĥ
ĠÑħ Ð¾Ð»Ð¾Ð´
ĠÑģÐº Ð¾Ð»ÑĮÐºÐ¾
ĠÐ½Ðµ Ð´Ð¾
ĠÐ¾ÑģÑĤ Ð°Ð½Ð¾Ð²
ĠÑģÐ» ÑĭÑĪ
Ġcon t
ÑģÑĭ Ð»
Ð² Ñĥ
ĠÐ´ÑĢÑĥ Ð·
ĠÐ¿ ÑıÑĤÑĮ
ĠÐ° Ð±
ĠÑĢÐ°Ð· Ð¼Ðµ
ĠÑĢÐ° ÑģÐº
ĠÐ¿ÑĢ Ð¾Ðº
ĠÐ¡ Ðµ
ĠÑĥ Ð»
ĠÑģ ÑĢÐ¾Ðº
Ġ Y
ab le
Ð° Ð³Ð°
ct ion
ĠÐ² ÐºÑĥ
Ġa g
ĠÐ½ Ð°Ð»
ĠÐ²Ð´ ÑĢÑĥÐ³
Ð¸Ð½ Ð¾Ð²
ĠÐ¶ÐµÐ½ Ñī
ĠÑģ Ð¾Ð±Ñĭ
ĠÑħ ÑĥÐ´
Ð¼Ð° ÑĤÑĢÐ¸
ĠÐ¾Ñģ ÑĥÑīÐµÑģÑĤÐ²
ĠÑģ Ð²Ð¸
ĠÑĥÐ´Ð¸ Ð²
Ġbe en
ÑĢÑĥ Ñģ
Ġ $
ĠÐ° Ð»
ÑģÑĤÐ¸ ÑĤÑĮ
Ñĥ Ð»
ĠÐ³ ÑĥÐ±
Ġ1 00
Ñĥ Ð·
ĠÑģ Ñİ
ÑĪ ÐºÐ°
ĠÐ± Ð¾Ð³
ĠÐ½Ð° ÑĪÐ¸
m er
Ð»Ð¸ Ðº
os e
ĠÑħÐ¾ ÑĤÑĮ
ÑĢÐµ Ð¶Ð´
Ð¾ÑĤ Ñĭ
ĠÐ¾Ð¿ Ð°Ñģ
ĠÑĢÐ° Ð²
ĠÑģÐ¿ Ð¾ÑĢ
i le
ĠÐ¿Ð¾Ð´ Ð´ÐµÑĢÐ¶
ĠÐ½ ÑĢÐ°Ð²
ĠÑģÐ¼ Ð¾Ð³
ĠÑĥ Ð½Ð¸
Ġm an
Ðŀ Ð½
ĠÐ¿Ð¾Ð´ Ð³Ð¾ÑĤÐ¾Ð²
ĠÑģÐµÑĢ ÑĮ
ĠÐ½Ð°Ð± Ð»Ñİ
Ð¾Ðº ÑĢÐ°
Ð¾Ð² Ð°Ð½
ĠÐ¾Ð± Ðµ
Ġab out
Ð¾Ð²Ð° ÑĤÑĮÑģÑı
ĠÐ»ÑİÐ± Ð¾Ð²
ĠÐ±Ð»Ð¸ Ð·
Ð°ÐºÑģ Ð¸Ð¼
Ð° ÑĢÐ°
a ke
ĠÐŁ ÑĢÐ°Ð²
ĠÑģÐ¾Ð²ÐµÑĢÑĪ ÐµÐ½Ð½Ð¾
Ð½Ð¸ ÑĤÐµ
ĠÑĤÐ°Ðº Ð¾Ð³Ð¾
ÑĩÐµ ÑĢÐ°
Ð»ÐµÐ½ Ð°
ĠÑģÑĥ ÑīÐµÑģÑĤÐ²
ĠÑĤÐ¾ Ð½
Ġt r
ĠÐ¿ÑĢÑı Ð¼Ð¾
107 7
Ð»Ð¸ Ð²Ð¾
k s
ÑĪÐ¸ Ð±
re e
ĠÑĥ Ð²ÐµÐ»Ð¸
ĠÐ½ÐµÐ± Ð¾Ð»ÑĮÑĪ
ÐºÑĥ Ð´Ð°
ÐºÐ¾ Ðµ
Ð² Ð°Ð»ÑģÑı
a re
ĠÐ²Ð½Ðµ ÑĪ
ĠÑĢÐ° Ð²Ð½Ð¾
ĠÐ²Ð¾Ð» Ð¾Ñģ
ĠÑģÐ¾Ð± ÑĢÐ°
ĠÑĤÐ°Ðº Ð¸Ð¼
ÐºÑĥ ÑĢ
ÑĢÐ¾Ð´ Ðµ
ĠÐŁ ÑĢÐµÐ´
ĠÐ³Ð¾Ð»Ð¾Ð² Ñĥ
res s
ĠÐ¾ÑĤÐ½Ð¾ ÑĪ
ĠA n
Ġ op
ĠÐ¼Ð¸ ÑĢÐµ
ĠÐ½ ÐµÐ»ÑĮÐ·Ñı
ÐµÐ½ ÑĤÑĭ
Ð²ÑĪ Ð¸Ðµ
Ð¾Ð² Ð°Ð»Ð¸
ĠÐ½Ð°Ñĩ Ð°Ð»Ð°
ĠÑĢÐ°Ð· ÑĢÐ°Ð±Ð¾ÑĤ
ÑĤÐ¾ ÑĢÐ¾Ð²
ĠÐ´Ð°Ð»ÑĮ ÑĪÐµ
ĠÐ½Ð°Ñģ ÐµÐ»
ĠÑģÐ¾Ð¾Ð± Ñī
ĠÐ¼ Ð°Ð»Ð¾
ĠÐ´Ð° Ð²Ð½Ð¾
Ð³Ð¸ Ð¸
ÑĩÐ¸ÑĤ Ñĭ
u c
ĠÐ² ÑħÐ¾Ð´
ĠÐ¾Ð± Ð½Ð°
ÑĩÐµ Ðº
ĠÑĤÐ¾ ÑĩÐ½Ð¾
ĠÐ¿Ð¾Ð¼Ð¾Ñī ÑĮÑİ
Ġ +
ÑĢ ÐµÐ½Ð¸Ñı
ÑīÐ° ÐµÑĤ
ĠÐ½Ð° Ð³
Ð°Ð¹ ÑĤÐµ
Ġp er
ĠÐ´Ð¾Ð»Ð¶ Ð½Ð°
ĠÐĶ Ð¾
ĠÐ·Ð°ÑĤ ÐµÐ¼
Ġof f
Ġw ould
ĠÐ¿Ð¾Ðº Ð°Ð·
ĠÐ´ÑĢÑĥ Ð³Ð°
Ð²Ð° Ð¹
Ñħ Ð¾Ð²
Ġ2 5
ĠÐĳ Ñĭ
ĠÐ¿Ð¾Ð´ Ð½Ñı
ÑİÑī Ð¸Ð¼
on d
ĠÐºÑĢÐ° Ð¹
ĠÐ²Ðµ ÑĩÐµÑĢ
Ġ201 5
ĠÑħÐ¾Ñĩ Ñĥ
1 7
is h
Ñı Ð¼Ð¸
. "
ĠÑĩÐµÑĤÑĭ ÑĢÐµ
ĠÐ¼ Ð¾Ðµ
ĠÐĴ Ð¾Ð·
ĠÐ²Ð½Ñĥ ÑĤÑĢÐµÐ½
ĠÐ¢ Ð¾Ð»ÑĮÐºÐ¾
ÑĤÐ¾ ÑĢÐ¾Ð¼
ĠÐ²Ð¾Ð· Ð²ÑĢÐ°
ĠÐ¾ÑĤ Ð¿ÑĢÐ°Ð²
ĠÑĪÐº Ð¾Ð»
ĠÑģÐ»ÐµÐ´ ÑĥÐµÑĤ
Ġa pp
ĠÑĥ Ð´Ð¾Ð²
ĠÐ¿ÑĢ Ð¾Ð³
ĠÐĽ Ðµ
ĠÐ´ ÐµÐ¼
ĠÑĩ ÑĥÑĤÑĮ
ĠÑĥÐ´ Ð¾Ð±
Ð²ÐµÑĢ Ñģ
ĠÑĦÑĥÐ½ Ðº
Ðŀ ÑĤ
? <|
ĠÐ¿Ð¸ ÑģÑĮ
Ð¾ Ð½Ñĭ
ÑĢÐµÐ´ Ð¸
Ġal so
ĠÐ·Ð´Ð¾ÑĢ Ð¾Ð²
ĠÑĪÐ¸ ÑĢÐ¾Ðº
ĠÐ¿Ð¾Ð± ÐµÐ´
ĠÑĩÑĥÐ² ÑģÑĤÐ²
ĠÐ²Ð¾Ð´ Ñĭ
ÐµÐ»Ð¾ ÑģÑĮ
ĠÐ±Ð»Ð° Ð³Ð¾Ð´Ð°ÑĢ
ÑģÑĤ Ð°Ð»
ĠÑĦ Ð¸Ð½Ð°Ð½
an ce
ver y
ĠÐ¿Ð»Ð° Ð½
... <|
ĠÐ½Ð° ÑĥÑĩ
ÑĤÐ°Ðº Ð¸
ĠÐ¼Ð° ÑĪÐ¸
Ġy ear
Ð´Ð° Ð½Ð¸Ðµ
ĠÐ¸Ð· Ð¾Ð±
ÑĤÑĥ ÑĢÐ°
ÑĢÐµ Ð»
ĠÐ»ÑİÐ± Ð¸Ð¼
ĠÐķÐ² ÑĢÐ¾Ð¿
ĠÑĦ Ð¾ÑĤÐ¾
ĠÐ¶Ð¸Ð² Ð¾ÑĤ
Ð¶ ÐµÐ½Ð¸Ñı
ĠÐĿ ÐµÑĤ
ÑĢÐ¾Ð²Ð° Ð½Ð¸Ðµ
ac h
ĠÐ¿ÑĢÐ¾ÑĦÐµÑģ ÑģÐ¸Ð¾Ð½
ÑĩÐ° ÐµÑĤÑģÑı
ĠÑĥ Ñģ
ĠÑįÑĤÐ¾Ð¼ Ñĥ
ĠÑģÑĤ Ð°Ð»Ð°
Ñĩ ÐµÐ¹
ĠÐ¸ÑģÐº ÑĥÑģ
ĠÐ» Ð¸ÑĤ
ĠÐ½ Ñĥ
ÑĩÐ¸ Ð½Ñĭ
1 4
ĠÐ½Ðµ Ð¿ÑĢÐ¸
Ð¢ Ð°Ðº
ĠÐ¿Ð¾Ð´ ÑħÐ¾Ð´
ĠÑģÐºÐ°Ð· Ð°Ð»Ð°
ĠÐ²Ñĭ Ð³Ð»Ñı
Ġe v
ĠÐ¿Ð¾ ÑģÑĤÑĥÐ¿
ĠÐŁ ÑĢÐµ
Ð³Ð¾ÑĢ Ð¾Ð´
Ġt e
ĠÐ³ÑĢÐ°Ð¶ Ð´Ð°Ð½
Ð¾Ð½Ðµ ÑĩÐ½Ð¾
Ġit s
ĠÐ¼ Ð»
= =
ĠÐ¼ÐµÐ´ Ð¸
ĠÑĢÐ°ÑģÐ¿ Ð¾Ð»Ð¾Ð¶
Ð¿Ð¾Ð» Ð½Ðµ
ĠÐľ Ðµ
107 2
. )
ĠÐ´ÐµÐ¹ÑģÑĤÐ² Ð¸ÑĤÐµÐ»ÑĮÐ½Ð¾
Ð¼Ð¾ÑĤ ÑĢÑı
ÑĤÑĭ Ð¹
ĠÐ¾ÑĤ Ð´ÐµÐ»ÑĮ
ĠÐ´ Ð¾Ð¿
ĠÐ¾ Ð³ÑĢÐ°
ÑģÑĤÐ° ÑĤÐ¸
ĠÐ´Ð¾Ð»Ð¶ Ð½Ð¾
ÑģÑĤ Ð¾Ð¼
ĠÐ° Ð¼ÐµÑĢÐ¸ÐºÐ°Ð½
ĠÑģÑĤÐ¾ÑĢÐ¾ Ð½Ñĥ
ÑģÐ» Ð¾Ð²
Ð½Ð¸ ÑĨÑĥ
Ð¶ Ð¸ÑĤÐµ
Ð½Ð° Ð¼
ol d
ĠÑģÐ°Ð¼ Ð¾Ðµ
ĠH e
ĠÑĤÐ°Ðº Ð°Ñı
ÑĢ Ð¾Ð´Ð°
ĠÐ¿Ð¾ ÑģÑĤÐ°Ð²
ĠÐ¿ÑĢÐ¸ Ð¾Ð±
Ġp art
ĠÐ¤ ÐµÐ´ÐµÑĢÐ°
ĠÐ¿ Ð°Ð»ÑĮ
ÑĢÐ¸ Ðº
ÑĮ ÑĤÐµ
ÑĦÐ¸ ÐºÐ°
Ð¾Ð²Ð° ÑĤÐµÐ»ÑĮ
ĠÐ½Ð° Ð²ÐµÑĢ
Ñī ÐµÐ¹
ĠÐ¼Ðµ Ñĩ
ĠÐ¿Ð¾Ð¼ Ð¾Ð³
ĠÐ¿ÑĢÐ° Ð²Ð°
ĠÑı Ð½
ĠÐ½ Ð°Ð»Ð¸
an g
ĠÐ±ÑĥÐ´ ÑĤÐ¾
ĠÐ¿Ð¾Ð» Ð½Ð¾ÑģÑĤÑĮÑİ
ĠÐ±Ð¾Ð»ÑĮÑĪ Ð¾Ð¹
Ġd is
ĠÐ¿ÑĢÐµÐ´ Ð»Ð°Ð³Ð°
ĠÑĢÐ°Ð·Ð²Ð¸ÑĤ Ð¸Ñı
ĠÐ± Ð°Ð»
ĠÑģ ÑĩÐµÑĤ
Ð»Ðµ Ð³
ÑĢÑĭ Ð¹
ĠÐ¿ ÑıÑĤ
ĠÑĩÐ¸ ÑģÐ»Ðµ
ĠÐĲ Ð²
ĠÐ¸ÑģÑĤÐ¾ ÑĢÐ¸Ð¸
ĠÐ²Ð¾Ð¹ Ð½Ñĭ
ĠÑģ Ð¼Ð¾Ð¶
ÑĨÐ¸ Ð¿
ĠÐ¼ÐµÑĤ Ð¾Ð´
ĠÐ¿ÑĢÐ¸ Ð´
Ġs o
ĠÑı ÑĢ
Ð¾ÑĢ Ñı
ay s
ĠÐ¿ÑĢÐ¾ ÑħÐ¾Ð´
Ð½Ð¸ ÐºÑĥ
ÑģÑĤ Ð¾Ðº
ĠÐ¿ÑĢÐ° Ð²Ð¾
ĠÑģÐ°Ð¼ Ð¾Ð³Ð¾
ĠÐ¿ÑĢÐ¸ Ð½Ð¸Ð¼Ð°
ĠÐ²Ñģ ÐµÐ¹
I I
Ð»ÐµÐ½ Ð½Ð¾
ĠÐºÐ¾Ð»Ð¸ ÑĩÐµÑģÑĤÐ²Ð¾
ĠI t
Ð½ ÐµÐ½Ð¸Ðµ
ĠÐ·Ð° ÑīÐ¸ÑĤ
Ġ other
ĠÐºÐ°ÑĩÐµ ÑģÑĤÐ²Ðµ
Ð» ÐµÐ½Ð¸ÐµÐ¼
Ġ19 4
as e
ÑģÐºÐ¾Ð»ÑĮ ÐºÑĥ
Ñģ Ð¾Ð¼
ĠÑĤÑĢÐµ Ð±Ñĥ
ĠÐ¼ Ð¾Ð½
ĠÐĴÐ»Ð°Ð´Ð¸ Ð¼Ð¸
ĠÑģÐ°Ð¼ ÑĭÑħ
Ġ qu
Ð¾Ð· Ð°
ĠÐº ÑĢÑĥ
ve l
ĠÐº Ð¾Ð¿
ĠÐ²Ð»Ð° ÑģÑĤÐ¸
ĠÐ¾ÑĤÐ½Ð¾ ÑĪÐµÐ½Ð¸Ñı
ĠÐ²Ñĭ ÑĪÐµ
Ð°Ð½ ÑĤÐ°
ĠÐ´ ÐµÑĢÐ¶
ĠÑĩÐ°Ñģ Ð¾Ð²
ĠÐļ Ð¾
ĠÐ· Ð°Ð»
in t
ĠÑĢÐ°Ñģ ÑģÐºÐ°Ð·
e c
ĠÐ»ÐµÐ³ ÐºÐ¾
ÑĨÐ° Ð¼Ð¸
ĠÐ½Ð°Ð¿ Ð¸Ñģ
ĠÐłÐ¾ÑģÑģÐ¸ Ð¹
ĠÐ¾ÑĤ Ð²Ðµ
Ð¢ Ðŀ
f ter
ĠÐ¼Ð½Ð¾Ð³ Ð¸Ðµ
ĠÑģÐ¾Ð³ Ð»Ð°
Ð½ Ðº
Ġ â
!! !
ĠÐ²ÑĤÐ¾ÑĢ Ð¾Ð¹
ir st
Ġhe r
ĠÑģÐ°Ð¹ ÑĤÐµ
ĠÑģ Ð²Ðµ
ÐµÐ» Ñİ
Ġn ew
ĠÑĤÐµÑĢÑĢÐ¸ÑĤÐ¾ ÑĢÐ¸Ð¸
w o
oun t
Ð¸Ð½ Ð³
1 10
ÐµÐ¼ ÑģÑı
ĠÑģ Ð½Ðµ
ĠÐ¿ÑĢÐ¸ Ð·
ĠÑģÐ»ÑĥÑĩÐ° Ð¹
Ð²Ð¸ Ñĩ
ĠÐ» ÐµÑģ
ĠÑĢÐ°Ð· Ð´ÐµÐ»
ĠÐ·Ð° Ð´
ÑĢÐ¸ ÑģÑĤÐ¸
ĠÑĤ Ð°Ð½
Ð½Ð° Ð²
ÑģÐº Ñĥ
ĠÐ¾ÑĤ Ð¼ÐµÑĤ
Ġ201 4
ĠÑģÐ¾ ÑħÑĢÐ°
Ġs c
ĠÐ¡ Ð¸
ĠÑĢÐ°Ð· ÑĢÐµ
ĠÐ¥ Ð¾ÑĤ
ĠÑĤ Ð²Ð¾ÑĢ
ĠÐ¿ÐµÑĢÐµ Ð´Ð°
ÑĥÑĪ ÐºÐ¸
ÑĮ Ð¼Ð¸
Ð»Ñı ÑĤÑĮ
Ð°Ð»ÑĮ Ð½ÑĭÐ¼
ĠÐºÐ° Ð¶ÐµÑĤÑģÑı
ÑģÐº Ð¾Ð¼Ñĥ
it ion
Ð½ ÐµÐ½
ĠÐ¿ÑĢÐ¸ ÑĪ
ĠÐ¶ Ð¸ÑĤÑĮ
ĠÐ»Ð¸ÑĨ Ð¾
ĠÐ¿Ð¾ Ð½
Ġ over
ĠÑĥÑĤ Ð²ÐµÑĢ
ÑĢÑĭ Ð²
ĠÐ´ ÑĥÑĪ
ĠÐ³Ð»Ð° Ð·
ĠÐ³ Ð¾ÑĤ
1 3
ĠÑģ ÑĬ
ĠÐºÐ° Ð±
ĠÐ¿Ð¾ ÑģÑĤ
ĠÐ± ÑĥÐº
ÑĪ Ð¸Ð¼
ĠÑĢÐ°Ð±Ð¾ÑĤ Ðµ
ĠÐ²Ð¾Ðº ÑĢÑĥÐ³
ĠÐ¿Ð¾Ð· Ð´
ÑĢÐµ ÑĤÐ°
ĠÐ½Ð¸ Ð¼Ð¸
Ðµ Ð¶
ĠÑģÐ¿ ÑĢÐ¾ÑģÐ¸Ð»
108 0
Ð¸ Ð»Ð°ÑģÑĮ
ĠÐ¿Ð¾Ð» Ð¾Ð²
ĠÐ²Ñĭ Ð±Ð¾ÑĢ
or y
Ð½ Ð°Ð»Ð°
Ð¾Ð²Ð° ÑĤ
Ġn o
Ġ5 0
ĠÐ³Ð¾Ð´ Ñĭ
ĠÐ´ÐµÑıÑĤÐµÐ»ÑĮ Ð½Ð¾ÑģÑĤÐ¸
ĠÐ²Ñĭ Ð±ÑĢÐ°
Ġp r
ĠÐ²Ñĭ ÑģÑĤÑĥÐ¿
Ð° ÑĤÐ°
ĠÑĢÑĥ ÐºÑĥ
Ð¼Ð¾ÑĤÑĢÐµ Ð»
ĠÑĢÐµ ÑĪÐ¸
ÐµÐ² ÐµÑĢ
ÑĨÐµ Ð¿
ĠÐ¿ÑĢÐ¸ Ð²Ñĭ
ĠÐº ÑĢÑĥÐ³
ÑģÑĤÐ²Ñĥ ÑİÑĤ
p ort
ĠÐĵ ÐµÑĢ
Ð¾Ð· Ð¸
ĠÐ¢ Ð¾
ĠÐ´Ð¾ÐºÑĥ Ð¼ÐµÐ½
ĠÐ² Ð¿Ð¾Ð»Ð½Ðµ
ĠÐ»ÑİÐ± Ð¾Ð¹
ĠÐ¿ÑĢÐ¾Ð² ÐµÑĢ
ĠÐ¿Ð¾Ð»ÑĥÑĩÐ¸ ÑĤÑĮ
Ñı Ð»Ð¸
ĠÑģ ÑĢÐ°Ð²
ĠÑģÑĤ ÑĥÐ´
ĠÐ²Ð¾Ð¿ÑĢÐ¾Ñģ Ñĭ
ĠÑģÐ¿ Ð¾ÐºÐ¾Ð¹
ÑİÑī Ð°Ñı
ÐµÑĢÐ± ÑĥÑĢ
ĠÐ¿Ð¾ÐºÐ° Ð·Ð°
ĠÐ¼ Ð½Ð¾Ð¹
Ð¿Ð° ÑĢÐ°
ĠÑĩ ÑĥÐ´
l ic
ĠÐ¾Ð´ Ð½Ð°ÐºÐ¾
Ġp e
ĠÐ¼ ÐµÐ»
ĠÐ´Ð¾Ð² Ð¾Ð»ÑĮÐ½Ð¾
ĠÐ½Ð° Ð¹
ĠÑģÐ»Ð¾Ð² Ð½Ð¾
Ġthe re
ĠÐ°ÑĢ Ð¼Ð¸
ĠÐ²ÑģÐ¿ Ð¾Ð¼
ĠÐ½Ð°Ñĩ Ð°Ð»
Ð²Ð° Ð¹ÑĤÐµ
ĠÐ´Ðµ ÑģÑı
ÑĥÐ¼ Ð°Ð»
ÑĩÐµÑģÐº Ð°Ñı
ÑĤ Ð²ÐµÑĢ
ĠÐ¾ ÑĪÐ¸Ð±
ĠÑģÐ°Ð¼ ÑĭÐ¹
ÑĩÐµ Ð±
Ġ =
ÑĢ Ð¾Ð¶
ĠÐ½Ð°ÑĪ Ð¸Ñħ
Ð¾ÑĢ Ð¾Ð¶
Ġ /
ĠÐĴ Ð°ÑĪ
ĠÐ½Ð°ÑħÐ¾Ð´ Ð¸ÑĤÑģÑı
ĠÐ²Ð·Ð³Ð»Ñı Ð´
ĠÐ¿Ð¾Ð» ÐµÐ·
Ð»Ð¸ Ð²
Ð¾ ÑĢÑĥÐ¶
ĠÑĤÐµ ÑĩÐµÐ½Ð¸Ðµ
Ð¿ Ð¾Ñĩ
Ð´ ÑĥÑĤ
Ð½Ð°Ñĩ Ð°Ð»Ð°
ĠÐļ Ð°ÑĢ
ĠÑĢÐ°Ð±Ð¾ÑĤ Ð°ÑĤÑĮ
ĠÐ´Ðµ ÐºÐ°
ĠÐ¿ÑĢÐµÐ´ ÑģÑĤÐ°Ð²Ð»Ñı
ĠÐ½Ð° Ð·Ð½Ð°
ĠÐĲÐ½ Ð´
ĠÑĥ Ðº
ÐºÐ¾Ð¼ ÐµÐ½
ar k
ÐºÐ° ÑĢ
Ð¸Ð± Ð¾Ð»ÐµÐµ
ĠÐ¾Ð±Ð¾ ÑĢÑĥÐ´
ĠÐ¼Ð¸ ÑĢÐ¾Ð²
ĠÑģÐ°Ð¼ Ð°
ĠÐ³Ð¾Ð²Ð¾ÑĢÐ¸ ÑĤÑĮ
ÑģÐµ Ð´Ð°
Ð½ Ð¾Ðº
ĠÐ¿Ð¾Ð¶ Ð°Ð»ÑĥÐ¹
Ñī Ð¸Ð¹
Ð²Ð»Ðµ ÐºÐ°
ĠÐ¸Ð½ÑĦÐ¾ÑĢÐ¼Ð° ÑĨÐ¸Ð¸
Ñĩ Ð½Ð°Ñı
ĠÐ½Ð° ÑĨÐ¸Ð¾Ð½
Ð¸ Ñİ
n e
Ð½Ð¸ ÑĨÐµ
ĠÐ¼Ð¾ ÐµÐ¹
Ð¾Ð» Ð¾ÑĤ
or s
ĠÐ¾ÑĢÐ³Ð°Ð½Ð¸ Ð·Ð°ÑĨÐ¸Ð¸
ĠÐ± Ñİ
te m
Ð½Ð¸ Ð½
Ð½ÑĮ ÑĪÐµ
ÑĩÐ° Ñı
ĠÐļ ÑĢÐ¾Ð¼Ðµ
Ð±Ð¾ ÑĢÐ°
ĠÑģÑĤÑĢÐ° ÑĪ
ĠÐ¿ ÑĭÑĤÐ°
ÑģÐ¸ ÑĤÑĮ
ĠÑįÑĦÑĦÐµÐº ÑĤÐ¸Ð²
ĠÐ¾ÑĤÐ½Ð¾ Ñģ
Ð¾Ð± ÑĢÐ°
ÑĤÐ¸ Ð¼
Ð¹ Ð½
ĠÐ°Ð´ Ð¼Ð¸Ð½Ð¸ÑģÑĤÑĢÐ°
ÑĥÐ»Ñı ÑĢ
ĠÐĺ Ð»Ð¸
Ð¸ Ð¿
ĠÐ¼ÐµÐ½ÑĮ ÑĪÐµ
Ð° ÑĤÐ¸
ĠÑĤÑĢÐ°Ð½ ÑģÐ¿
ĠÐ½ Ð¾Ð²ÑĭÐ¹
ĠÐº ÑĢÐ¾Ð¼Ðµ
ĠÐĴ ÐµÐ»Ð¸
Ġl ike
ĠÐ¼ Ð°Ð»ÑĮ
Ð¾ ÑĢÑĥ
ĠÐ½ Ð¾Ð²Ð¾
ĠÐ¿ÑĢÐ¸ Ð²
Ð¸ ÐµÐ¼
ÑĩÐ° Ð¹
ĠÐ·Ð½Ð° ÐµÑĤ
ĠÑĤÑĢÐ° Ð´Ð¸
ĠÐ¿ÑĢÐ¾Ð¸Ð· Ð¾
Ð´Ñĥ Ð¼
ĠÐ² Ð¾Ð²
ĠÑĨ ÐµÐ»ÑĮ
Ðµ Ð²Ð°
ÑĢÐ° ÑĪÐ¸
ol l
ĠÐ½Ðµ Ð²Ð¾Ð·
Ð ®
ĠÐ¾Ð¿ ÑıÑĤÑĮ
Ð¼ Ð¸ÑĤ
ĠÐ¢Ðµ Ð¿ÐµÑĢÑĮ
ĠÐ·Ð° Ð¿Ð¸
Ð¾Ð¹ ÑĤÐ¸
ĠÐ·Ð°Ðº Ð»Ñİ
ĠÑĢÐ° Ð½ÑĮÑĪÐµ
ÑĤ Ð¾Ðº
ĠÐ´ Ð»Ð¸
ÑĢÐ¾ ÑģÐ°
Ð» Ð¾Ð¿
f er
ĠÑĤÐµÐ»Ðµ ÑĦÐ¾Ð½
2 5
Ñģ Ð¾Ð»
ĠÑģÐ²Ð¾ Ð¸Ð¼Ð¸
Ð² ÑĪÐµÐ³Ð¾
ĠÐ·Ð°Ðº Ð°Ð·
ĠÐ½Ðµ Ð¸Ð·
ĠÐ½ Ð¾Ð²ÑĭÐµ
ĠÐ´Ð¾ÑĢ Ð¾Ð³
ĠÑģÐµÑĢÑĮ ÐµÐ·
ĠÑĢÐµÑĪ ÐµÐ½Ð¸Ðµ
ÑĥÑĪ ÐºÐ°
ĠÐĿ Ð¾Ð²
ÐµÐ½ ÑĤÐ¸
ÐµÐ´ Ñĥ
ÑĪ Ð°Ñı
ÑĢÐµÐ¼ÐµÐ½ Ð½Ð¾
ĠÐ¿ÑĢÐ¾Ð¸Ñģ ÑħÐ¾Ð´Ð¸ÑĤ
ÑģÑĤ Ð½Ð¾
ÑĢÐ¸ Ð³Ð¸Ð½
Ð·Ñĭ Ð²Ð°ÑĤÑĮ
ĠÐ»Ðµ Ð¶
ĠÐ¾ÑĤ ÑģÑĥÑĤ
Ġs ome
Ġwhe n
ĠÑĢÐ° Ð´Ð¾
ĠÑģÐ¸Ð»ÑĮ Ð½Ð¾
ĠÐ´ÐµÐ¹ÑģÑĤÐ² Ð¸Ñı
ĠÐľÐ¾ÑģÐº Ð²Ðµ
Ð³ Ð°Ð½
ÑĪÐ° ÐµÑĤ
Ġth an
ÑĩÐ¸ ÑģÐ»
Ð½ Ð¾Ð³
Ð·Ð¸ Ð¸
ĠÐ¿ÑĢÐ°Ð² Ð¸ÑĤÐµÐ»ÑĮ
ĠÐ¾ Ð·Ð½Ð°
Ð¶ ÐµÐ½Ð¸Ðµ
ĠÐ¿ÑĢÐ°Ðº ÑĤÐ¸ÑĩÐµÑģÐºÐ¸
ĠÐ»Ð¸ ÑĨÐ°
ĠÐ²Ð¾Ð· Ð½Ð¸Ðº
ĠÑģ Ð¾Ð¼
ĠÑħ ÑĢÐ°
Ġt ime
ĠÐ³ ÑĢÐµ
Ġthe m
er v
w e
Ð´ ÑĨÐ°ÑĤÑĮ
Ġ )
I n
Ġ Ñī
ĠÐ½ Ð¾Ð³
Ð¾Ð² Ð°Ð»Ð°
ent s
he d
p h
ĠÑĢÐµ ÐºÐ»Ð°
ĠÐºÐ° Ð¿Ð¸ÑĤ
ĠÑģÑĢÐµÐ´ ÑģÑĤÐ²Ð°
ĠÐ±Ð¾Ð»ÑĮÑĪ Ð¸Ð½
n i
ĠÑıÐ½ Ð²Ð°
ĠÐ¿Ð¾Ð» Ñĥ
Ð¡ Ð¢
ĠÐ¸Ð· Ð¼ÐµÐ½Ð¸
Ð°Ð½ Ð½ÑĭÐµ
ĠÐ¿Ð¾ ÑģÑĤÑĢÐ¾
ĠÑĤ Ð¾Ð¹
ĠÐ¿Ð¾Ð¿ ÑĭÑĤ
ter s
ÐŁ ÑĢÐ¾
ÐŁ Ð¾ÑĩÐµÐ¼Ñĥ
Ð°Ð» Ñĭ
ĠÐ´Ð¾ ÑģÑĤÑĥÐ¿
Ð½Ñĥ ÑĤ
ĠÑĢÐ°ÑģÐ¿ ÑĢÐ¾
109 0
ÐĴ Ð¾ÑĤ
ĠÐ¸ÑģÐ¿Ð¾Ð»ÑĮÐ· Ð¾Ð²Ð°ÑĤÑĮ
ĠÐ¿ÑĢÐµ Ð²ÑĢÐ°
Ð¾Ñĩ ÑĮ
Ġk n
Ð¾ ÑģÑĤÐ¸
ĠÑģ ÑĥÐ¿
Ġ2 2
ad e
ĠÐ¾Ð±Ñĭ ÑĩÐ½Ð¾
ate s
ĠÑĤ ÑĥÐ´Ð°
Ð¶ ÐµÑĤ
ĠÐ¢ Ð°Ð¼
Ð´Ð° ÑİÑĤ
Ñ ĸ
ĠÐ¸ÑģÑĤÐ¾ Ñĩ
Ð» ÐµÑĢ
op le
Ġl a
ter n
ĠÐ¾ÑĤ Ð´Ñĭ
Ð½Ð¸ÐºÐ° Ð¼Ð¸
a us
Ñı Ð²Ð»Ñı
ĠÑģÐ» ÑĥÑĪ
ÑģÑĤÐ²ÐµÐ½ Ð½ÑĭÐµ
ĠÐ½ Ð¸Ð·
Ð½Ñĥ ÑĤÑĮÑģÑı
Ð²Ð¸ Ð´Ñĥ
ĠÐºÐ¾ÑĤÐ¾ÑĢÑĭ Ð¼
Ñī Ð°Ñı
ÐµÐ½ Ð½ÑĭÐ¼
ĠÐ· Ð¸Ð¼
ĠÐ· ÑĥÐ±
Ð²Ñĭ Ð¼
Ġf irst
ĠÐ¿Ð¾Ð»Ð¸ÑĤ Ð¸ÑĩÐµÑģÐº
Ðł Ðŀ
ing s
ĠÐ² Ð¸Ð½
ic k
ĠÐ½Ð° ÑĪÐµÐ³Ð¾
ĠÐ¾Ðº ÑĢÑĥ
ÐĿ ÐµÑĤ
ĠÐ¾Ð´ Ð½Ð¸Ð¼
on s
Ðľ Ñĭ
Ð¿ÑĢÐ¸ Ð¼ÐµÑĢ
ĠÐ¼Ñĭ ÑģÐ»Ð¸
ĠÐ± ÑĥÐ¼Ð°
Ñı Ð»Ð°
Ð¡Ð¡ Ðł
ĠÐ´Ð¸ ÑĢÐµÐº
Ð¸ÑĤÐµ ÑģÑĮ
ĠÐĴ ÐµÐ´ÑĮ
Ġ19 8
ĠÐ¼ÐµÐ´Ð¸ ÑĨÐ¸
ÑĮ ÐµÑĢ
Ñĩ Ð½ÑĭÐ¼
ÑĢÐ¸ Ð·
ÑĦÐ¾ÑĢ Ð¼
ĠÐĴ ÐµÑĢ
ĠÐ¼Ð¾Ð³ Ð»Ð¸
Ġ ro
ĠÐ¾ÑĤ Ðº
ĠÐ¿Ð¾ÑģÑĤÐ¾ÑıÐ½ Ð½Ð¾
ĠÐ¼Ð¾ Ñī
Ġg r
ĠÑģÐ°Ð¼ Ð¾Ð¹
ĠÐ¼Ð¾ Ñı
am p
Ġin to
ĠÑģÐ²Ð¾ ÐµÐ¼
ÑĢÐµÐ´ Ð¸ÑĤ
ĠÑĥÐ½Ð¸ Ð²ÐµÑĢÑģ
ĠÐ¸ Ð´ÐµÑĤ
ver s
Ġ2 4
Ñĩ Ð½Ð¾Ðµ
Ð²Ð¾Ð» Ñİ
ĠÑģÐº ÑĢÑĭ
Ð½ Ð´
Ñģ Ð¾ÑĢ
108 5
ĠÐ½Ðµ Ð´ÐµÐ»
Ð¶ Ð½Ð¾
ÐĿ Ðĺ
ĠÑĥ ÑħÐ¾Ð´
f orm
Ñī Ð¸Ñħ
ĠÐ¾Ñģ Ð½Ð¾Ð²Ð°
Ð¢ Ñĭ
ĠÐ¿Ñĥ ÑĤÐ¸
Ð² Ð°Ð»Ð¸ÑģÑĮ
ĠÑĦ ÐµÐ²
ĠÐ´Ð¾Ð± Ð°
Ð· Ð¸Ð½
ĠÑģÑĤ ÐµÐ½
ĠÐ¿Ð¾ÑĢ ÑĤ
ÑĢ Ð¾Ð³
ĠÑį Ð»ÐµÐ¼
ĠĠ Ġ
ÑĪÐ¸ Ð¼Ð¸
ĠÐ¿Ð¾Ð´ ÑĤÐ²ÐµÑĢ
ĠÑģ Ð¾ÑĢ
ĠÑģ ÑĥÐ±
ĠÐ¿ÑĢÐµÐºÑĢÐ° Ñģ
Ðµ ÑģÑĤÑĮ
ĠÐ¿ÑĢÐ¾Ð±Ð»ÐµÐ¼ Ñĭ
Ñħ ÑĢÐ°Ð½
ĠÐ²Ñĭ Ð·
ĠÐ¿Ð¾Ð²ÐµÑĢ Ñħ
ÑīÐµ ÑģÑĤÐ²Ð°
ĠÑģÑĤ ÐµÐ¿
Ñİ ÑīÐµÐ³Ð¾
ĠÑĢÐµÐ±ÐµÐ½ ÐºÐ°
Ġ if
ĠÐ¿ÑĢÐµÐ´ Ð¿Ð¾Ð»
ĠÐ¿ Ð°ÑĤ
ĠÑĢÐ° Ð±
ÑģÑĤ Ð¸Ð½
ĠÑĢÐµÐ·ÑĥÐ»ÑĮÑĤÐ° ÑĤÐµ
ĠÑĩ Ð»ÐµÐ½
ĠÐ² Ð·Ð°
Ðµ Ð±
ĠÐ¼Ð¾ Ð¸
ÐµÐ² Ð¾Ð¹
ĠÐ¾Ð´ Ð½Ñĥ
ĠÐ´ ÑĢÐ°
2 00
ĠÐ´ÐµÐ½Ðµ Ð³
Ġwor k
ĠÑĢÐµ ÐºÐ¾Ð¼ÐµÐ½
ĠÑħÐ¾ÑĤ ÐµÐ»
Ð± Ð¾Ð¹
ĠÐºÐ¾Ð¼Ð¿ Ð»ÐµÐº
ĠÐºÐ¾Ð½ ÐºÑĥÑĢ
ĠÐ¿Ð¾Ð¼Ð¾ ÑīÐ¸
ĠÐ³Ð¾ÑĢÐ¾Ð´ Ðµ
ĠÐ¿ÑĢÐ¸ ÑĢÐ¾Ð´
ĠÑħÐ¾Ð·Ñı Ð¹
Ð¿ Ð¾Ð¼
ÑĩÐµÑģÐº Ð¸
Ð¾Ð½ ÑĮ
ÑĤÐ¸ Ðº
ĠÐ¸Ð½ Ð¾Ð³Ð´Ð°
ĠÐ½ Ð¾Ð²ÑĭÑħ
Ð¾Ð¿ ÑĢÐ¸Ñı
ĠÑģÐ¿ Ñĥ
Ð¼ Ð¾Ð²
ÑĤÐ¸ ÐºÐ¸
ÐŁ Ð¾Ñģ
ĠÐ± Ð¸
Ð°Ðº Ð¸
ĠÑĢÐ° Ð¼
ĠÐºÐ¾Ð¼Ð¿Ð° Ð½Ð¸Ñı
ĠÑģÐ°Ð¹ ÑĤÐ°
Ġ 00
ĠÑģÑĤ Ð¾Ð»Ð¸
ÐĿ Ðŀ
ĠÐ´ Ð²Ð¾
Ðµ Ð³
Ñģ Ñİ
ĠÐ² Ð»Ð¸Ñı
ĠÐºÐ¾Ð¼ Ð¼ÐµÐ½ÑĤÐ°
ÑĮ ÑİÑĤ
ĠÐ¾ÑĦÐ¸ ÑĨÐ¸Ð°Ð»ÑĮ
ĠÐ½Ðµ Ð·Ð°
ĠÐ¼Ð½Ð¾Ð³ Ð¸Ñħ
ĠÐ¡ Ð¿
Ð» ÐµÐ½Ð¸Ð¹
ĠÐ£ÐºÑĢÐ° Ð¸Ð½Ñĭ
ĠÐ´Ð° Ð²
ĠÐ´Ð²ÐµÑĢ ÑĮ
Ð± ÑĢÐµ
ĠÐºÐ¾ ÑĢÐ°Ð±
ĠÐļ ÑĢÐ°Ñģ
Ġre c
ĠÑģ ÐµÐ½ÑĤ
ĠÑĦ Ð¸
ĠÐľ Ð¸Ñħ
Ñİ Ð·
ĠÐ¸Ð¼ Ñı
Ðº Ð¾Ð²Ð°
Ð¿Ñĥ ÑĤÐ°
ĠÐºÐ° Ð¿
ĠÐ¶ÐµÐ» ÐµÐ·
Ð°Ð½ Ð½ÑĭÐ¹
ĠÐ´ÐµÑĤ Ð¸
Ð²Ð° ÑĢÐ¸
ĠÐ¶ÐµÐ½ÑīÐ¸ Ð½Ð°
) ;
ĠÐ¿Ð¾Ð¿ Ð°
Ġan y
ĠÐľ Ð¾Ð¶ÐµÑĤ
ÑĨ ÐµÐ¼
ĠÑģÐ» Ð¾Ð²Ð¾
ĠÐ¿ÑĢÐ¾ ÑĤÑı
ĠÑĥÐ¿ÑĢÐ°Ð² Ð»ÐµÐ½Ð¸Ñı
ĠÑĪ ÑĤÐ°
ÑĨ ÐµÐ½Ð¸
Ð´Ð¸ Ð½Ð°
ĠÐ³ ÐµÐ½ÐµÑĢÐ°
ĠÐ½ Ñĭ
ĠÐ¾Ð¿ ÑĭÑĤ
ĠÐ²Ñĭ Ð¿
ĠÐ¾ÑĤÐ²ÐµÑĤ Ð¸Ð»
ĠÑıÐ²Ð»Ñı ÑİÑĤÑģÑı
ĠÑĢÐµ Ð¶Ð¸Ð¼
ĠÐ¿ÑĢÐ°Ð² Ð´Ð°
ÐºÑĥ Ñİ
ĠÐļ ÑĤÐ¾
ĠÐ¾ Ð·
ĠÐ´Ðµ Ð²Ð¾
ĠÐŁ Ð¾Ð¼
ĠÐ½Ð°Ðº Ð¾Ð½ÐµÑĨ
ĠÐ±Ð¾Ð» ÐµÐ·
ĠÑĦ Ð¾Ð½
ĠÐ½Ð° ÑģÑĤ
ĠÐ¿Ð¾Ð½Ñı ÑĤÑĮ
Ġs he
ĠÐ¾Ð± Ñģ
ĠÐ½Ð°Ð¿ ÑĢÑı
Ð· Ð°Ð¼
Ð¾ÑĢ Ð¾Ð´
ÑģÐº Ð¸Ð¼Ð¸
ĠÑĥÑĩÐ°ÑģÑĤÐ¸ Ðµ
ĠÐ°ÑĢ Ñħ
ĠÐ¿Ð¾ ÑģÐºÐ¾Ð»ÑĮÐºÑĥ
ĠÐ¼ÐµÑĤ Ð°Ð»
on t
ĠÐ¡ Ð°
Ġt wo
ĠÐ± Ð°Ð·
ĠÐ¡ Ð¡Ð¡Ðł
Ġp re
ĠÑģÐ¾ ÑģÑĤÐ°
Ð¾Ð²Ð° ÑĢÐ¸
ĠÐ¼Ñĭ ÑģÐ»
ĠÑĢÐµ Ð¼Ð¾Ð½
ĠÑĢÐ°Ð· Ð½ÑĭÑħ
ÑģÐ° Ð´
ÐºÐ¸ Ð¼Ð¸
ĠÑĤ Ð¾Ð¿
ÑĢÐ° Ð¶Ð°
ĠÑģ ÑĦ
Ð¼Ð° Ñħ
ÑĢÐ°Ð¶ ÐµÐ½Ð¸Ðµ
ig h
ĠÐ¿Ð¾Ñı Ð²Ð¸
ĠÐ·Ð° Ð²ÐµÑĢ
ĠÐ½Ðµ Ð¼Ñĥ
ĠÐ± ÐµÐ´
ĠÐºÐ¾Ð» Ð»ÐµÐº
ĠÑĢÐ°Ð· Ð¼ÐµÑĢ
Ġ2 3
ĠÐ¿ÑĢÐµ Ð¶Ð´Ðµ
Ð¾Ð³ÑĢÐ° ÑĦ
ĠÑĤ Ð°Ð¹
Ñģ Ð»Ð°
ĠÐļ Ð¾ÑĢ
ÐµÐ½ Ð½Ð°Ñı
ĠÑĢÐµ Ð³Ñĥ
ĠÐ¾Ð´ Ð½Ð¾Ð¼
ĠÐ¿ÑĢÐµ Ð·Ð¸Ð´
ÑĩÐµÑģÐº Ð¾Ðµ
ĠÐ²Ð½Ñĥ ÑĤÑĢÐ¸
Ð´Ð° ÑĤ
ÑģÑĤÐ²ÐµÐ½ Ð½Ð¾Ðµ
ĠÐ¾ÑĤ Ð¿
ĠÐ¿Ð¾Ð· Ð¸
ĠÑĤÐµÑħ Ð½Ð¸
il d
ÑģÐ¸ Ð²
ĠÐº Ð¾ÑĤ
ÑĤ ÐµÐ¹
Ð´ Ð¸ÑĤ
Ð· ÑĮ
Ð½Ñĥ Ð²
Ð²Ð°Ñı ÑģÑĮ
4 0
ĠÐ½Ð°Ñĩ Ð°Ð»ÑĮ
ĠÐ²Ð¾Ð·Ð¼Ð¾Ð¶ Ð½Ð¾ÑģÑĤÐ¸
ĠÐ¿Ð¾Ð·Ð²Ð¾Ð» ÑıÐµÑĤ
ĠÐ³ÑĢÑĥÐ¿ Ð¿Ñĭ
Ð´ Ð°Ð»Ð¸
Ñĥ ÐºÐ°
m an
ÐµÐ½ Ð½Ð¾ÑģÑĤÐ¸
ĠÑĤÑĢÐµ ÑĤÑĮ
ĠÐ¿Ð¾Ð¿ ÑĥÐ»ÑıÑĢ
ĠÑģÐ¿ ÑĢÐ°Ð²
ÑĩÐ° ÑģÑĤÑĮ
? !
ĠÐ¿ÑĢÐ¾ Ñĩ
ĠÐľ Ð¾
ÑĤÑĭ Ðµ
ĠÐºÐ¾Ð¼ Ñĥ
ĠÑĤ ÑĢÐ°Ð²
ĠÑģ ÑģÑĭÐ»
ĠÐ¿Ð¸ ÑĪ
Ðļ Ð¾Ð³Ð´Ð°
ĠÐ¾ÑĩÐµÑĢÐµÐ´ ÑĮ
ĠÑĥ ÑĤÑĢÐ°
ĠÐ²Ñĭ Ð´ÐµÐ»
Ġy our
ĠÑģ Ð½Ð¸
Ð°Ðº Ð¾Ð²
Ġwh at
ĠÑĦÐµÐ² ÑĢÐ°
ĠÐ¸Ð½ÑĤÐµÑĢ Ð½ÐµÑĤ
Ġpe ople
ÐĴ ÑģÐµ
Ð» ÐµÐ½Ð¸Ñİ
ÐµÐ· Ð´Ð°
ÑĨ ÐµÐ½ÑĤ
ĠÐ½ÐµÐºÐ¾ÑĤÐ¾ÑĢÑĭ Ðµ
ĠÑģ ÑĥÐ´ÑĮ
Ġ201 3
ĠÐ¼ÐµÑĢ Ð¾Ð¿ÑĢÐ¸Ñı
ÐµÐ½ Ñı
ĠÑħÐ¾Ñĩ ÐµÑĤ
in k
ĠÑģÑĤÐ° ÑĢÐ°
ĠÐ´ÑĥÐ¼Ð° Ñİ
ĠÐ¾Ð±ÑıÐ·Ð° ÑĤÐµÐ»ÑĮÐ½Ð¾
ĠÐ¶ Ð°Ð»
ĠÐ¿ ÑĥÐ±Ð»Ð¸
ÑģÑĤ ÑĢ
ĠÑĤ Ð¸Ñħ
ĠÐ¼ÐµÐ¶Ð´Ñĥ Ð½Ð°ÑĢÐ¾Ð´
ĠÐ±ÐµÑģÐ¿ Ð»Ð°
ĠÐ¤ ÑĢÐ°Ð½
ĠÑĤÑĢÐµ Ñħ
Ð½Ð° ÑĩÐµ
Ġh im
Ġ ÑĢÐ¾Ð¼
ĠÐ· Ð½Ð°Ð»
ĠÑģÐ¾Ð´ ÐµÑĢÐ¶Ð°
ÑĤÐµ ÑĢÐ°
c ess
ĠÐ¾Ðº ÑĤÑı
ĠÐ¿ÑĢÐ¸ Ð±Ñĭ
ĠÐĹ Ð½Ð°
ĠÐ¶ÐµÐ½ÑīÐ¸ Ð½Ñĭ
ic t
ĠÐ±Ð»Ð° Ð³
ĠÐŁ Ð¾ÑĩÐµÐ¼Ñĥ
ĠÑģ ÐºÑĥ
ĠÐ½Ð° Ð¸Ð±Ð¾Ð»ÐµÐµ
Ġpl ay
ĠÐ¿ÑĢÐµ ÑģÑĤÑĥÐ¿
ÐŁ Ð¾Ð´
ĠÐ±Ð¸Ð· Ð½ÐµÑģ
ĠÑģ Ð±Ð¾ÑĢ
ĠÐµ Ð´
Ð¼Ð° ÑĢ
Ðº Ð¾ÑĢ
Ð½Ð°Ð² Ð»Ð¸
] .
ĠÑĥÑģÐ» Ñĥ
ĠÐºÑĥÐ¿ Ð¸ÑĤÑĮ
ĠÐ±Ð¾ÑĢ ÑĮ
ÑĤÐ¸ Ð»Ð¸
ĠÐº ÑĥÑħ
Ð»Ðµ Ð¶
ĠÑı Ð²
ĠÐ¿Ð»Ð° Ð½Ð¸
Ġ2 1
ĠÐ´ Ð»Ð¸Ð½
ĠÑģÐ¾Ð´ ÐµÑĢÐ¶
ĠÐºÐ°Ðº Ð°Ñı
ĠÐ¿Ð¾Ðº ÑĢÑĭ
ĠÐ¾ÐºÐ¾Ð½ ÑĩÐ°
ĠÐ²Ð¸ Ð´ÐµÐ»
ĠÐ¾Ð± Ð¾ÑĢÐ¾
Ñĩ ÐµÑĤÐ°
ur n
Ð½Ñİ Ñİ
ĠÐº Ð»ÑĥÐ±
ĠÑĢÐ°Ð±Ð¾ÑĤÐ° ÐµÑĤ
ÑĤÐ° Ñı
ÐµÐ½ Ð½Ð¾Ðµ
ĠÐ¾Ñī ÑĥÑī
ĠÐ´ Ð²Ð¸Ð³Ð°
ÑĢÐ¾Ð² Ð°Ð»
ĠÑģÐ¾Ð· Ð½Ð°
ĠÐ²Ðµ ÐºÐ°
ĠÐ½Ð° ÑģÑĤÑĢÐ¾
Ð»Ð° Ð³
ĠÐ¿Ð¾Ð´ Ð°
ĠÑĤÐ¸ Ð¿Ð°
ĠÑĤ ÐµÐ»
6 0
Ñı ÑĤÐ¸Ñı
ÑĭÑĪ Ð»ÐµÐ½
ĠÐ¸Ð½ Ð´Ð¸
ĠÐ¿ÑĢÐ¸ ÑģÑĥÑĤ
ĠÐºÐ¾Ð¼ Ð¼Ñĥ
ĠÑģÑĤ ÑĢÐµ
ĠÐ´ ÑĢÐµÐ²
re at
ĠĠĠĠ ĠĠĠĠ
ÑĤ Ð°Ð½
ĠÐ³ ÑĢÐ¾Ð¼
Ð»Ð¸ Ð±Ð¾
ĠÐ±Ð»Ð¸ Ð¶
ĠÐ¡ ÐµÐ¹ÑĩÐ°Ñģ
Ñī Ð¸Ðµ
Ð´Ð¸ Ð¸
Ðº ÐµÑĤ
ĠÐ´ÑĢÑĥÐ· ÑĮÑı
ĠÑģÑĢÐµÐ´ ÑģÑĤÐ²
ÑĢÐ¸ Ñİ
u g
ĠÑģÐ¸Ð» Ñĭ
is s
ĠÐ¼Ð½ Ð¾Ð¶Ðµ
Ð¾ ÑĦ
Ð¸ÑĤ Ð°Ð¹
2 2
ĠÑģÐ°Ð¼ ÑĭÐ¼
ĠÑĪ Ð°Ð³
ĠÑįÐºÐ¾Ð½Ð¾Ð¼ Ð¸ÑĩÐµÑģÐº
ĠÐ³ ÐµÑĢÐ¾
Ñı ÑİÑĤ
ĠÐ¸Ð¼Ðµ ÑİÑĤ
ĠÑģÑĤÑĢÐ° Ð½Ðµ
ĠÐ² Ð¸Ð·
ĠÐ¿Ð¾Ð´ ÑĢÐ¾Ð±
ĠÐ»Ð¸ ÑĪ
Ð½Ð¸ Ð»Ð¸
ĠÐ¿Ñĥ Ð½Ðº
ĠÑĢ Ð¾Ð·
Ð¾Ð¶ Ñĥ
Ñį Ðº
ĠÑģ Ð½Ð°
Ġa fter
ĠÐ± Ð»
Ġ4 0
ĠÐºÐ°Ð¶Ð´ Ð¾Ð³Ð¾
ĠÐ´ÑĥÑħ Ð¾Ð²
Ð½Ñĥ Ð»Ð¸
ĠÐ² Ð¿
ÑĢÐ°Ð¶ ÐµÐ½Ð¸Ñı
ĠÑĤÐµÐ¼ Ð¿ÐµÑĢÐ°
Ġs pe
ĠÐ¼ Ð°ÐºÑģÐ¸Ð¼
ĠÐ¿Ð° ÑĢÑĥ
Ð² ÑıÑī
ĠÐ´Ð¾Ð¿Ð¾Ð» Ð½Ð¸ÑĤÐµÐ»ÑĮ
ĠÐ¿Ð¾Ð´ Ð°ÑĢ
ĠÐ°Ð´ ÑĢÐµÑģ
Ġ #
ĠÐĳ Ð¾Ð³
ĠÐ·Ð½Ð° ÑĤÑĮ
ÑĤÐ¸ Ð½Ð°
ĠÑĥÑģÐ»Ð¾Ð²Ð¸Ñı Ñħ
ĠÑĥÐ´ Ð°Ð»Ð¾ÑģÑĮ
ĠÑħÐ°ÑĢÐ°Ðº ÑĤÐµÑĢ
ÑĢÐ¸ ÑģÑĤ
ĠÐ¸ÑģÐº Ð»ÑİÑĩ
ĠÑĥ ÑģÑĤÑĢÐ¾Ð¹
en c
ĠÑģÐ°Ð¼ ÑĭÐµ
ÑĥÐ² ÑģÑĤÐ²
ĠÐ³Ð¾Ð²Ð¾ÑĢ ÑıÑĤ
ĠÐ½Ðµ ÑģÐºÐ¾Ð»ÑĮ
Ġm y
ÐºÐ¸ Ð½
ĠÐ¥Ð¾ÑĤ Ñı
ĠÐ§ ÑĤÐ¾Ð±Ñĭ
Ð°Ñģ Ñģ
ĠÐ¼ Ð¾Ð·
ĠÑģÐ¿ Ð°
Ġj ust
Ðĺ Ð½
ĠÑĢÐ°Ð¹ Ð¾Ð½Ð°
i ous
ĠÐ° Ð»ÑĮ
ĠÐ»Ð¸ÑĤ ÐµÑĢÐ°
ĠÐ²Ð¾Ð·Ð´Ñĥ Ñħ
ĠÑıÐ½Ð²Ð° ÑĢÑı
Ð³ ÐµÐ¹
Ð½Ð¾Ð² ÑĮ
ÑĥÑİÑī Ð¸Ñħ
Ñĥ Ð¶Ðµ
ĠÐĺ Ð²Ð°
ĠÐ¶ Ð¸Ð»
ĠÐ½Ð¾ ÑĩÑĮ
ĠÐ¼ ÐµÑĢÐµ
ĠÑĦÐ¸Ð· Ð¸ÑĩÐµÑģÐº
ht tp
ĠÑģÐ¾Ñģ ÐµÐ´
Ð¿Ð° ÑģÐ¸Ð±Ð¾
ÑĪ ÐµÐ¼
ĠÐ¿Ð¾Ð½Ñı Ð»
ĠÐłÐ¾ÑģÑģÐ¸ Ñı
2 4
ÑĦÐ¾ÑĢ Ð¼Ð¸
ĠÐĹ Ð´ÐµÑģÑĮ
an c
ÑģÐ¾Ð» ÑİÑĤ
ĠÐĶÐ° Ð¶Ðµ
Ġ ÑĢÑı
ĠÑģÐ´ÐµÐ» Ð°
ĠÐ¼Ðµ ÑħÐ°
ĠÑĢÐµ Ñģ
ÐµÐ½Ð¸ Ð½
Ġcom m
ĠÑĢÐµÑĪ Ð¸Ð»
ĠÐ¿ÑĢÐ°Ð²Ð¸Ð»ÑĮ Ð½Ð¾
ĠÐ¾ÑĤ Ð»Ð¸Ñĩ
ĠÑģÐ¿ Ð°Ñģ
o y
ĠÐ² ÑĢÐ¾Ð´Ðµ
ĠÐ¾Ð¿ Ð»Ð°
ĠÑģÐ¿ ÑĢÐ¾ÑģÐ¸
ĠÐ¡Ðµ Ð³Ð¾Ð´Ð½Ñı
ĠÐ¿Ð¾Ð¼Ð¾Ñī ÑĮ
ĠÑģÑĤÐ°Ð½Ð¾Ð² Ð¸ÑĤÑģÑı
ĠÐºÐ¾ ÑĢÐ¾ÑĤ
ĠÐ¼Ð¾Ð³ Ð»Ð°
ĠÐ³Ð¾Ð²Ð¾ÑĢÐ¸ Ð»
ĠÐ¿ ÐµÐ½
ĠÑĩÐµÑĤ Ð²ÐµÑĢ
ĠÐ¿ÑĢÐ¾ÑģÑĤ ÑĢÐ°Ð½
ĠÑģÐ¼ÐµÑĢ ÑĤÐ¸
ro w
Ð¿ ÑĢÐµ
Ð´ ÑĢÐ°Ð²
ĠÐ°Ð½ ÑĤÐ¸
ÑĤÐ¸ ÑĤÑĮÑģÑı
ÑĤÐ° ÑĢ
ĠÐ´Ð¾Ð» Ð»Ð°
ÑĤ ÐºÐ¸
ĠÐ¼ÑĥÐ¶ ÑĩÐ¸Ð½Ð°
Ġ201 6
ÐºÐ¾Ð¼ Ñĥ
ĠÐ±ÐµÐ·Ð¾Ð¿Ð°Ñģ Ð½Ð¾ÑģÑĤÐ¸
ĠÐ¿Ð¾ ÑģÑĤÐ°
ĠÑĢÐµÑĪ ÐµÐ½Ð¸Ñı
ĠÑģ Ð¾Ð¶
ÑĢÐµÐ¼ Ñı
ĠÐŁ ÐµÑĢÐµ
Ġ19 7
ĠÐĵ Ð»Ð°Ð²
Ðł ÐĲ
ĠÐ´Ð¾Ð» Ð³
Ð¾Ð¼ ÐµÑĤ
ÐµÐ¼ ÑĭÑħ
ĠÐ¿ÑĢÐ¸ Ð½Ð°Ð´
ĠÑĢÐ°Ð· Ð´
ĠÑģÑĤÐ° Ð²
ĠÑĥÐºÑĢÐ° Ð¸Ð½
ĠÑģÐ°Ð¹ ÑĤ
x d
ĠÐ¾Ð± ÑĥÑĩ
ĠÐĹ Ð°Ðº
ĠÐ²ÐµÑģÑĮ Ð¼Ð°
ĠÐ¼ Ð°Ð¼
ĠÐ¿ Ð¾Ð³Ð¸
ĠÐºÐ¾Ð½ ÑģÑĤÑĢÑĥÐº
Ġd es
ĠÐ¢Ð°Ðº Ð¶Ðµ
ÑīÐ° ÐµÑĤÑģÑı
Ġ201 2
ation al
Ð·Ð° ÑĨÐ¸Ñı
ĠW e
? )
ĠÐ½ Ð¾Ð³Ð¸
ÑĢÑĥ ÐµÑĤÑģÑı
ĠÐ°Ð¿ ÑĢÐµ
ĠÐ± Ð°Ð±
108 9
ĠÑģÐ¾Ð² Ð¼Ðµ
Ġb et
ĠÐ¿ Ð¸ÑĤÐ°
ĠÐ´Ð¾Ð¼ Ð¾Ð¹
ĠÐłÐ¾ÑģÑģÐ¸Ð¹ ÑģÐºÐ¾Ð¹
ĠÐ¢ ÐµÐ¼
o ve
Ġg et
ĠÐ¿ÑĢÐ¸Ð½ ÑĨÐ¸
ĠÐ·Ð°Ð± Ð¾Ð»Ðµ
Ðļ Ðŀ
ĠÐ¾ ÑĨÐµÐ½
ĠÐĴ Ñģ
ĠÑĢÐ°Ð·Ð»Ð¸Ñĩ Ð½ÑĭÑħ
Ð²ÑĪ ÐµÐ¹
ĠÑģÐºÐ¾ ÑĢÐµÐµ
ĠÑģÑĤÑĢÐ° Ñħ
Ð± Ð¸ÑĤ
ĠÐ¿ ÑĭÑĤ
ÑĢÐ¾ ÑģÐ»
ĠÐºÐ°Ðº Ð¾Ðµ
ÑĨ ÐµÐ¹
ĠÑĥ Ð¼Ðµ
Ð³Ð»Ð¸ Ð¹
ĠÐ³Ð¾Ð» Ð¾Ð²Ð¾Ð¹
Ð´Ð° ÐµÑĤÑģÑı
g r
ĠÐ¿ÑĢÐ¾Ð´ Ð¾Ð»
ĠÑħÐ¾Ñĩ ÐµÑĤÑģÑı
ÑĤÐµ Ð³Ð¾
Ð¾Ð² Ð¾Ð³Ð¾
ĠÐ¼ Ð°Ñı
ĠÐ·Ð°Ðº Ð°
Ð·ÑĭÐ²Ð° ÐµÑĤÑģÑı
! "
ĠÐ¼Ð°ÑĤÐµÑĢÐ¸Ð°Ð» Ð¾Ð²
ĠÐºÑĢÐµ Ð¿
ĠÐŁÐ¾ÑĤ Ð¾Ð¼
ĠÑĥ ÐºÐ°Ð·
ĠÑģÐ²Ð¸ Ð´ÐµÑĤ
ĠÐ¿Ð¾Ñģ ÐµÑĤ
ĠÐ°Ð² Ð³Ñĥ
ĠÑģÐ¸ÑĤÑĥÐ° ÑĨÐ¸Ð¸
ĠÐ¾Ð³ÑĢÐ° Ð½Ð¸
ÑĩÐ¸ ÐºÐ°
Ġon ly
Ñį Ð½
ĠÑģÐ¾Ð» Ð½
Ð¿ÑĢÐ¾ ÑĩÐµÐ¼
ĠÐ» Ð¾
Ð¾Ð¶Ð¸ Ð´Ð°Ð½
Ð½Ð¸ Ð»Ð°
Ðº Ð½ÑĥÐ»
Ð± ÐµÑĢ
ĠÐ³ Ð»Ñı
Ð¾Ð¼ Ð°
Ð³Ð¾ Ðµ
ĠÐ¾Ð±ÑĢÐ°Ð· Ð¾Ð²Ð°Ð½Ð¸Ñı
Ð³ Ð°Ð»
Ðļ ÐĲ
ÐµÐ¼ ÑĭÐµ
ÑĩÐµÑģÐº Ð¸Ð¼
ĠÐ¾ÑĤ Ð¼Ðµ
ĠÐ½Ð¾Ð² Ð¾Ð³Ð¾
ĠÐ² ÑĤÐ¾
ÑģÑĤÑı Ð¼Ð¸
Ð¸Ð½ ÑĤÐµÑĢÐµÑģ
ÑĤÑĭ Ñħ
ĠÐ¼Ð° ÑģÑĤÐµÑĢ
ĠÐ² Ð½Ð¾Ð²ÑĮ
ĠÐ´Ð¾Ð¼ Ðµ
ĠÐŃÑĤÐ¾ ÑĤ
Ð¿ÐµÑĢ Ð²ÑĭÐµ
ĠÑģÐ²Ñı Ð·Ð°Ð½
Ð¼Ð¸ Ð½
Ñĥ ÑĢÐ°
ĠÐ½Ðµ Ð¶
ĠÐ¿Ñĥ ÑĤÐµ
ĠÐ² ÐµÐº
r it
id ent
Ġ our
ÑĢÐ¸ Ð½Ð°
ĠÐĺ ÑģÐ¿
ĠÐ¿ ÑĥÑĤ
Ð²Ð¸ Ð·
Ð¼Ð¾ÑĤ ÑĢ
ĠÐ±ÑĥÐ´ ÑĥÑī
ĠÑģÐ´ÐµÐ» Ð°Ð»
ÑĤ Ð¾Ð³Ð¾
ĠÑģÐ¸ÑģÑĤÐµÐ¼ Ð°
ĠÐµ ÑģÑĤÐµ
ĠÑģÑĤ ÑĢÑĥÐº
ĠÐ¼ Ð°Ð½
Ð°Ð»ÑĮ Ð½ÑĥÑİ
ĠÑĦ ÑĢÐ°Ð½
ĠÐ±Ñĭ Ð²Ð°ÐµÑĤ
Ð¾Ð± Ð¾Ð¹
ĠÐ¿Ð¾Ð¶Ð°Ð»ÑĥÐ¹ ÑģÑĤÐ°
ĠÐ¾Ð±Ñī ÐµÐ¼
ĠÐķ ÑģÑĤÑĮ
ĠÑģÑĤ ÐµÐº
Ñĩ Ð¸Ð»
ĠÐ½Ð° Ð¼Ð¸
cl ud
ĠÐĲ Ð»
ĠÐ¿ÑĢÐµÐ´ Ð¼ÐµÑĤ
ĠÐł Ñĥ
ĠÐ¸Ð³ ÑĢÑĭ
ĠÐ¿ÑĢÐ¾ÑĪ Ð»
ĠÑĢÐ° Ð·Ð°
Ð¼ Ð¾Ñģ
ĠÑĩÐ¸ ÑģÑĤ
ĠÐ¼Ð¸ Ðº
s s
ĠÐ·Ð° Ð¿Ð°
ĠÐ¾ÑĤ Ð¿Ñĥ
ĠÐ¢ Ð¾Ð³Ð´Ð°
ĠÐ³Ð»Ð°Ð² Ð½Ð¾Ðµ
ĠÐ¿ÑĢÐ¸ Ð³Ð¾ÑĤÐ¾Ð²
ÑģÐ»ÑĥÐ¶ Ð¸
ĠÐ»ÑİÐ± Ð²Ð¸
Ð¾ÑĢ Ð¾Ð²
ĠÐĹ ÐµÐ¼
ÑģÐ° Ñħ
Ð½Ð¸ ÐºÐµ
ĠÐ²ÐºÑĥ Ñģ
Ð¿ Ð¾Ð½
Ġbe c
âĢ ľ
ĠÑģÐµÐ¼ ÐµÐ¹
ĠÐ¿Ñĥ ÑĤÑĮ
ĠÐ´ÐµÐ²ÑĥÑĪ ÐºÐ°
ĠÐ²ÐµÑĢ Ñħ
ĠÐ´ Ð¾ÐºÐ°
ĠÐ³ ÐµÑĢ
ĠÐľ Ð¸Ð½
ĠÐŁ Ð°
ĠÐ¿Ð°ÑĢ ÑĤ
ĠÑĥ ÑģÑĤÐ°
Ð¸ÑĤ ÐµÑĤÐ°
Ð¾Ð»ÑĮ ÑĪÐµ
Ñĥ Ð¼Ðµ
Ð»ÐµÐ½ Ð¾
ÑĢÑĥ ÑİÑĤ
ĠÐ½Ð¾Ð¼ ÐµÑĢ
ĠÑģÑĤÐ°Ð½ ÐµÑĤ
ĠÐ¿ÑĢÐ¸ ÐµÐ¼
ĠÑħ Ð¾ÑĢÐ¾
ĠÐ¾Ð±ÑĢÐ° Ñī
ĠÐ»ÑİÐ±Ð¾Ð² ÑĮ
Ð²Ð° ÑĤ
ĠÑĥÐ¶ Ð°Ñģ
ÑĢÐ°Ð± Ð°ÑĤÑĭ
Ð¾Ð³ÑĢÐ°ÑĦÐ¸ Ð¸
ĠÐº Ð°ÑĤ
ĠÐ½Ð° ÑĢÑĥ
ÑĤÐ¸ Ð»ÑģÑı
ĠÑģÐµÑĢÐ´ ÑĨÐµ
Ð»Ð¸ Ð½Ð°
ÑĢÐµ ÑĨ
ĠÐºÐ½Ð¸ Ð³Ð¸
Ð¾ÑĢ ÑĤÐ°
ĠÑĤÐµ Ð°ÑĤ
Ð¶ ÐµÐ¼
ĠÐ¼Ñı Ð³
ÑģÑĤÐ²ÐµÐ½ Ð½ÑĭÐ¼
Ñı ÑĤÑĮÑģÑı
ĠÐŀ ÑĢ
u al
Ðº ÑĢÐµÑĤ
ĠÐ¿Ð»Ð¾ÑīÐ° Ð´
ĠÐ´Ð¾ ÑħÐ¾Ð´
ĠÐ¸Ð¼ ÐµÑĤÑĮ
ĠÐ²Ð¿Ðµ ÑĩÐ°ÑĤ
Ð¿ Ð¾Ð´Ð°
ÑĩÐ¸ Ð²Ð¾
ĠÐ¸Ð·Ð²ÐµÑģÑĤ Ð½Ð¾
ĠÐ± Ð¾Ðº
ĠÑĤÑıÐ¶ ÐµÐ»
ĠÐ·Ð° ÑĩÐµÐ¼
Ġp ol
Ð½ Ð¾Ð¿
ĠÐ¾Ð±ÑıÐ·Ð° ÑĤÐµÐ»ÑĮ
ĠÐ±Ñİ Ð´Ð¶
ĠÑħÐ¾ÑĤ ÐµÐ»Ð¾ÑģÑĮ
Ð¿ Ð¾Ð²
ĠÐ²Ð°Ð¶ Ð½Ð¾
ĠÐ²Ð° Ð¼Ð¸
ĠÐ½Ð°ÑģÐµÐ» ÐµÐ½Ð¸Ñı
ĠÐ±ÑĥÐ´ ÐµÐ¼
ĠÐ´ÐµÐºÐ° Ð±ÑĢÑı
2 3
Ðĺ Ð·
ÑĤÐ¸ Ð²Ð°
Ð½Ð¸ÐºÐ° Ð¼
Ð½ Ð¾Ð´
aus e
ĠÑĤ ÐµÐ»Ð¾
ÑĤ Ð¾Ð¶
ĠÐ´Ð°Ð»Ðµ ÐºÐ¾
ĠÐ´Ð¾Ð± Ð°Ð²
Ð½ ÐµÐ¼Ñĥ
ĠÑĥ Ð¼ÐµÑĢ
ĠÐ½ÐµÐ´Ð¾ ÑģÑĤÐ°
ĠÐŁ Ðµ
ĠÐ° ÑĤ
Ð°Ñģ ÑģÐ°
ĠÑĨ Ð°ÑĢ
ĠÑĢÐ°Ð· Ð²Ð¸
Ð»Ñİ Ð±
Ñĩ Ð½Ð¾Ð¼
ĠÐºÐ°Ðº Ð¸Ð¼
ĠÐ¿Ð¾Ð· Ð½Ð°
ĠÐ³Ð¾ ÑģÑĤÐ¸
ĠÐ¸Ð½ÑĦÐ¾ÑĢÐ¼Ð° ÑĨÐ¸Ñİ
Ñĭ Ð»
ĠÑĥÐ´Ð¾Ð² Ð¾Ð»ÑĮ
ĠÐºÐ¾Ð½ ÑĨÐ°
ÑģÑĤÑı Ñħ
ĠÐ¿Ð¾Ð´ Ð¾
ĠÐ¸Ð¼ ÐµÐ½Ð¸
ĠÐ¸Ñģ ÑĩÐµ
Ġb l
ĠÐ¼ÐµÑģÑı ÑĨ
ĠÑģÑĤ ÑĢÐµÐ¼
ĠÐ¤ÐµÐ´ÐµÑĢÐ° ÑĨÐ¸Ð¸
ĠÑĢÐ° Ð±Ð¾
at h
ÑģÑĤÐ¾ Ð¸ÑĤ
Ð¸ÑĤ Ð¸
ĠÐķ ÑīÐµ
ĠÑĦ ÑĥÑĤ
o od
ĠÐ¿Ð¾Ð² ÑĤÐ¾
ĠÑĤ ÐµÐ»Ð°
ĠÐ²Ð¾ ÑģÐº
Ð¿ Ð°ÑĢ
ĠÑģÐ¸Ð» Ñĥ
ĠÐĳ Ð¾Ð»ÑĮÑĪ
ĠÐ²Ñĭ Ð´Ð°
ĠÑģÐ¸ Ð»Ð°
ĠÑģ Ð¸Ð½
ĠÐ¸ Ð½Ð¾
Ð¾Ð²Ð¾ ÑĢÐ°
ĠÑĥ Ð²Ð°
oc k
Ðľ Ðĺ
Ð¼ÐµÐ½ Ð°
ĠÐ³Ð¾ÑĢ Ñı
Ð¾Ð´ Ð°ÑĤÐµÐ»ÑĮ
ĠÐ¿ÑĢÐ¾Ð³ÑĢÐ°Ð¼ Ð¼Ñĭ
ĠÑĢÐµ Ð°Ð»Ð¸
ÑĨÐ¸Ð¾Ð½ Ð½ÑĭÑħ
ĠÑĦÐµÐ²ÑĢÐ° Ð»Ñı
ÐºÐ»Ð° Ð´Ñĭ
Ð¾Ð²Ð° Ð½Ð¸Ð¸
Ì ģ
ĠÐ» Ð¾Ð¶
ĠÑģ ÑĩÐ°ÑģÑĤ
ĠÐ¿ÐµÑĢ Ð²Ð¾Ð¹
ĠÑĥÑģÐ¿ ÐµÑĪ
ÐµÑĢ ÐºÐ¾Ð²
8 0
ĠÐ¿ÑĢÐ¾Ð¸Ñģ ÑħÐ¾Ð´
ĠÑĢ Ð¾Ð»ÑĮ
---- ----
ĠÐ¿ÐµÑĢÐµ ÑħÐ¾Ð´
ĠÑįÐ»ÐµÐºÑĤ ÑĢÐ¾Ð½
Ð»Ñı ÐµÑĤÑģÑı
ĠÐ¿ÑĢÐ¸ ÑıÑĤ
ĠÑģÐ» ÑĥÑĩ
Ġun der
ĠÐ²Ð·Ð° Ð¸Ð¼
ĠÐ¿Ð¾ Ñį
ĠÑģÑİ Ð´Ð°
Ġa m
ĠÑĩ ÑĥÐ¶
ĠÐ±Ð»Ð°Ð³Ð¾Ð´Ð°ÑĢ Ñı
ĠÑģÐ¾ ÑģÑĤÐ°Ð²Ð»Ñı
ĠÐ¿ÑĢÐ¸ Ð²Ð¾Ð´
Ð»Ð° Ð²Ð°
ĠÑĥÑģÐ» ÑĥÐ³
i ed
ĠÐ²Ðµ ÑīÐ¸
Ñı Ð»ÑģÑı
Ñĩ Ð½ÑĥÑİ
ĠÑĤ ÑĥÑĢ
ĠÐ½ ÐµÐ½Ð°
ĠÐºÐ°Ðº Ð¸Ñħ
ĠÐ½Ðµ Ð´Ð°
ĠÐ´Ð¸ Ð·Ð°
Ð°Ð»ÑĮ Ð½Ð¾Ð¼
i o
ĠÐŀ ÑĩÐµÐ½ÑĮ
ĠÐ¿ÑĢÐ¸ÑĪ Ð»Ð¾ÑģÑĮ
ĠÐ·Ð° Ð²Ð¾Ð´
ĠÐ± Ñĥ
Ñĩ Ð½Ð¾ÑģÑĤÐ¸
Ð¼Ðµ ÑĨ
ĠÐ¡ Ðº
' t
ÑĤ ÑģÑı
ĠÐºÐ¸ Ð½Ð¾
ÐµÑĤÐµ ÑģÑĮ
ĠÐº ÑĢÐµÐ´Ð¸ÑĤ
ĠÐºÐ° ÑĤÐµÐ³Ð¾
ĠÐ¿ÑĢÐ¸ Ñģ
ĠÐ½Ð°Ñĩ Ð°Ð»Ðµ
ĠÑĦ Ð¸ÑĢ
ĠÑĦÐ¾ÑĢ Ð¼Ð¸
ÑĥÑİÑī Ð¸Ðµ
ĠÑĥ ÑĩÐµÐ±
Ġcon s
ĠÐ¾ÑĤ ÐµÑĨ
Ġh ow
ÐŁ ÐµÑĤ
ri b
ĠÐ·Ð°Ð² ÑĤÑĢÐ°
ĠÑģ ÐµÐ»ÑĮ
ĠÐ°Ð± ÑģÐ¾Ð»ÑİÑĤ
Ġc ould
ÑĥÐ´ Ð¸
ĠÐ½ÑĢÐ°Ð² Ð¸ÑĤÑģÑı
ĠÐ¿Ð¾Ð»ÑĮÐ· Ñĥ
Ð³ Ð¾Ð²Ð¾ÑĢ
ĠÐ½Ðµ ÑĢ
ĠÑĢÐ° Ð½
ĠÐ° Ð²Ð¸
ĠÐ¿Ð¾Ð»ÑĥÑĩ Ð¸Ð»
ĠÑĩÐ°Ñģ Ð°
ĠÐ²Ð¼Ðµ ÑģÑĤÐ¾
Ġa ct
108 8
ÑĪ ÐºÑĥ
Ðŀ Ð½Ð°
Ġp o
ĠÑģ Ð²ÐµÑĢ
ÑģÐ» Ñĥ
Ð² Ð°Ð»Ð°ÑģÑĮ
ĠÐĵÐµÑĢ Ð¼Ð°
ĠÐ¿Ð¾Ð² ÐµÐ´
ĠÐ¿ÑĢÐ¸ Ð³Ð»Ð°
Ðŀ Ð±
Ð· Ðµ
ĠÐ·Ð°Ð¿ ÑĢÐµ
Ġ2 7
ĠÐ·Ð°Ð¼Ðµ ÑĩÐ°
ĠÐ¿ÐµÑĢÐ² Ð¾Ð³Ð¾
l es
ĠÐ¾ÑĤÐ²ÐµÑĤ ÑģÑĤÐ²ÐµÐ½
ĠÐļ Ð¾Ð½ÐµÑĩÐ½Ð¾
ĠÑģ Ð¸Ñħ
ÑĢÐ¾Ð¿ ÐµÐ¹
ic s
ĠÐ¿ÑĢÐ°Ðº ÑĤÐ¸
Ġin d
i k
ĠÐ¿Ñĥ ÑģÑĤÑĮ
ĠÐĶ Ð¸
Ġf e
ÐµÐ¼ ÑĮ
ĠÐ¡Ð¾Ð² ÐµÑĤ
ĠÐ¿Ð»Ð¾ ÑħÐ¾
Ð°ÑĤÐµÐ»ÑĮ Ð½Ð¾
ĠÐºÐ¾Ð½ ÑĦ
ĠÐ¸Ð½ ÑĦ
ĠÐ°Ð½ Ð°Ð»
Ð¸Ð± Ð»Ð¸
ĠÑĢÐµÑģ ÑĥÑĢ
ou p
ĠÐºÐ°ÑĩÐµ ÑģÑĤÐ²Ð°
ĠÐľ Ð¾Ð¶Ð½Ð¾
Ð°Ð½ ÑĮ
ĠÐ½Ðµ Ð¼ÐµÑĨ
2 7
ÑĩÐ¸ Ð»Ð¸
ĠÑĢÐ°Ð· Ð½Ð¾
ĠÐ¿ÑĢÐ¾Ð¸Ð· Ð²ÐµÐ´
ÑĳÑĤ ÑģÑı
ĠÐ¿ÑĢÐ¾ÑĨÐµÑģ Ñģ
ĠÐĶ Ð¾Ð±
Ġm ost
is e
ĠÐ´Ð²Ð¸Ð¶ ÐµÐ½Ð¸Ñı
ĠÐ¼Ð¾Ðµ Ð³Ð¾
ĠÐ² Ð½Ð¸Ð·
ĠÐ¾Ð¿ Ñĥ
n ing
ĠÐ²Ð¸Ð´Ðµ Ð¾
ĠÑĢÐ°Ð¼ ÐºÐ°Ñħ
Ð¾Ð± Ð¾ÑĢÐ¾
ĠÐ¿ÑĢÐ¸Ð¼ÐµÑĢ Ð½Ð¾
Ð°ÑĤ ÐµÐ»Ñı
Ñİ Ð±
ĠÐ¿Ð¾Ñı Ð²Ð»Ñı
ĠÐ´Ð°Ð½ Ð½ÑĭÑħ
ĠÐ¿Ð¾ ÑģÐµ
ÑĢÑĭ Ð¼
ĠÐ¿Ð¾Ð¼ Ð¾ÑĩÑĮ
. âĢĿ
ĠÐ±Ð»Ð¸Ð¶ Ð°Ð¹
h ing
ĠÐ¾ÐºÑĢÑĥ Ð¶Ð°
ĠÐº Ð°ÑģÐ°
ĠÐ³Ð¾ÑģÑĥÐ´Ð°ÑĢ ÑģÑĤÐ²Ð°
Ð¶ ÐµÐ¹
Ñħ Ñĥ
ĠÑĢÐµ Ð»Ð¸
ÑĦÐ¸ ÑĨÐ¸
ÑģÐ¸ Ñİ
ÑģÑĤÐ²ÐµÐ½ Ð½Ð°Ñı
ÑĢÐ¾ ÑĤÐ¸Ð²
ub lic
Ð°Ð½ Ð½ÑĭÑħ
3 3
ĠÑĤÐ¾ÑĢ Ð³Ð¾Ð²
Ġ '
ĠÐ¸ Ð½Ð°ÑĩÐµ
ĠÐ² Ð°Ð»
Ð¹ÑĤÐµ ÑģÑĮ
ĠÐ´Ð² Ð¾ÑĢ
Ð¾Ð²Ñĭ Ð¼Ð¸
ĠÑĦÐ¾ÑĢ Ð¼Ñĥ
ĠÐ³ ÑĢÑı
Ð´ ÑĢÐ°
Ð³Ð° Ð¼Ð¸
ÑĤ ÐµÐ»
Ð³Ð¾Ð´ Ð½Ð¾
ĠÐĲÐ»ÐµÐºÑģÐ°Ð½Ð´ ÑĢ
ĠÑĥÐ± Ð¸Ð¹
as ed
ĠÐľÐ¾ÑģÐº Ð²Ñĭ
ĠÑĥ Ð½Ð¸Ñĩ
ĠÐ¾Ð±ÑĬ ÑıÐ²
ĠÐ²Ð· ÑıÑĤÑĮ
Ð°Ð½ Ð½Ð¾Ð¹
ĠÐ¿Ð¾ÑģÐ»ÐµÐ´ Ð½Ð¸Ðµ
ĠÐºÐ¾Ð½ ÐºÑĢÐµÑĤ
ĠÑģÐ°Ð¼Ð¾ ÑģÑĤÐ¾ÑıÑĤÐµÐ»ÑĮ
en er
ĠÐ´Ð¾ ÑģÑĤÐ°Ð²
ÑĢ Ð´
ĠÐ½ÐµÐ²Ð¾Ð· Ð¼Ð¾Ð¶Ð½Ð¾
ĠÐ·Ð° Ñģ
ĠÐ§ Ð°
ĠÑģ ÐµÑĤ
ĠÐŀ Ð¿
ĠÐ¸Ð½Ð´Ð¸ Ð²Ð¸Ð´Ñĥ
ĠR e
Ð´Ð° Ð¼
ĠÑĢÐ°Ñģ ÑħÐ¾Ð´
ĠÐ·Ð°ÑıÐ² Ð¸Ð»
Ð± ÑĥÑĢ
ĠÑĥÐ·Ð½Ð° ÑĤÑĮ
ĠÐ¼ÐµÐ´Ð¸ÑĨÐ¸ Ð½
ÐµÐ· Ð´Ðµ
ĠÐ§ ÐµÑĢ
Ñĥ ÐºÐ¸
ĠÑģ ÐµÐ·
ĠÐ¼Ð°ÑĢ ÑĤÐ°
ÑĩÐµ ÑĪÑĮ
ĠÑĥÑģÐ» ÑĭÑĪ
ÑĩÐ¸ Ð¹
Ð³Ð¸ Ñı
2 6
ĠÑĪÐµ ÑģÑĤÑĮ
Ġ2 6
ĠÐ²Ð¾Ñģ Ð¿ÑĢÐ¸
Ð¾Ð» ÐµÐ²
m s
Ð¾ÑĤ ÑĢÐµÐ±
ĠÐºÐ¾Ð½ Ñģ
ĠÐ¿ÑĢ Ð¾Ð·
ĠÐ½Ðµ Ð¾Ð¶Ð¸Ð´Ð°Ð½
ĠÐ´Ð¾Ð¿ Ñĥ
ĠÑĢÑĥ Ðº
ĠÐ¿ÑĢÐ¾Ð¸Ð·Ð²Ð¾Ð´ ÑģÑĤÐ²Ð°
ĠÐ½Ð°ÑĪ ÐµÐ¼
Ġp os
Ð´Ð¸ ÑĤÑĮ
ĠÑģÐµÐ½ÑĤ ÑıÐ±ÑĢÑı
ÑĢÐµ Ð³Ð¸
ĠÑģÐ²Ñı Ð·Ð°
ÐµÐ½ Ð½Ð¾ÑģÑĤÑĮ
ĠÐ¿ÑĢÐ¾ÐµÐº ÑĤÐ°
ĠÑģÐµÐº ÑĥÐ½
ĠÑģ Ð½Ñı
ĠÐ´Ñĥ ÑĪÐµ
Ð¸ÑĤÐµÐ»ÑĮ Ð½ÑĭÐ¹
Ġ201 1
ĠÐ´Ð²Ðµ ÑĢÐ¸
ĠÐ³ ÑĢÐ¸
Ġ2 8
ĠÐ¿ÑĢÐ¸ Ñĩ
ĠÐ´Ð°Ð»ÑĮ Ð½ÐµÐ¹
ÐµÑĤ Ð¸ÑĩÐµÑģÐº
he n
ĠÑĥ ÑģÑĤÑĢÐ¾
ĠÐĺ Ð¼ÐµÐ½Ð½Ð¾
ĠÑĥ ÐºÐ°
ĠÐ²Ñĭ ÑģÑĤÐ°Ð²
ĠÐ½Ð¸ Ð¶Ðµ
ĠÑĦÐ¸Ð»ÑĮ Ð¼
ĠÐ´ÑĢÑĥÐ³ Ð¾Ð¼
ĠÐ¦ ÐµÐ½ÑĤ
ĠÐļ Ð¸
Ð² ÑģÐµ
ĠÐ¸Ð½ÑģÑĤ ÑĢÑĥ
ĠÐ³Ð° ÑĢÐ°Ð½
ĠÐ²Ð¾Ñģ ÑģÑĤÐ°Ð½Ð¾Ð²
Ð³Ð° ÑĤÑĮ
Ð¾Ð½ Ð´
ĠÐ¿ÑĢÐ¸ ÑĩÐ¸Ð½
ĠÑģ Ð±
ĠÑĢÐ°Ð· Ð½ÑĭÐµ
ĠÐ½Ð¾ Ñĩ
Ġag ain
ĠÑĢÐ°Ñģ ÑĪÐ¸
ĠÐ¶ÐµÐ½Ñī Ð¸Ð½
ĠÑģÑĤ Ð¾Ð»ÑĮÐºÐ¾
Ð·ÑĭÐ²Ð° ÑİÑĤ
Ð°Ð» Ð¾Ð²
Ġb ack
Ð¼Ð¸ ÑĢÐ°
Ð¶ Ð½Ð¾Ð¹
3 5
ĠÐ¿ÑĢÐ¾ ÑĤÐ¸
ÐµÑħ Ð°Ð»
ĠÐ¿ÑĢÐ¸Ð´ ÐµÑĤÑģÑı
ĠÐĴ Ð¾Ð»
ĠÑĥÑĢÐ¾Ð² ÐµÐ½ÑĮ
ĠÑģ Ð²Ð°
ĠÐº Ð¸Ð»
ĠÐ¿ÑĢÐ¾ÐµÐº ÑĤ
Ð¶ Ð°ÑĤÑĮ
Ð°Ð½ Ðµ
ÑĩÐ¸ ÐºÐ¾Ð²
t y
ĠÐ¿ÐµÑĢÐµ Ð²Ð¾Ð´
ÑĨÐ¸Ñı Ñħ
Ð½Ñĥ Ð»Ð¸ÑģÑĮ
ĠÐ¿ÑĢÐ¾Ð¼ ÑĭÑĪÐ»ÐµÐ½
ĠÐ¿ÐµÑĢÐ² ÑĥÑİ
a z
ĠÐ¶Ðµ ÑģÑĤ
ĠÑĨ ÐµÐ»Ð¸
ĠÐ´ÑĢÑĥÐ³ Ð¸Ð¼
Ð½Ð¾Ð² ÑĢÐµÐ¼ÐµÐ½Ð½Ð¾
Ð¾ÑĢ Ñĭ
Ð½Ð¾ ÑģÑĤÐµÐ¹
ĠÐ¿Ð»Ð° ÑĤ
ÑĩÐ¸ ÐºÐ¸
ĠÐ¼Ð» Ð½
ĠÐ¾ ÑħÑĢÐ°
Ð· ÐµÐ¼
Ð¾Ð»Ð¾Ð³ Ð¸Ñı
Ð»ÐµÐ½ Ð½ÑĭÑħ
Ð»ÐµÐ½ Ð½ÑĭÐµ
2 9
ĠÐ´Ð¾Ð¼ Ð°ÑĪ
ĠÐŀ Ðŀ
ĠÑĢÑĥ ÐºÐ°Ñħ
ĠÐ¸Ð½Ð¾ ÑģÑĤÑĢÐ°Ð½
ĠÐº Ð¼
ÑĢÐ°Ð· Ð´Ð¾
ĠÐ±Ð»Ð° Ð³Ð¾
ĠÑģÐ»Ð¾Ð² Ð°Ð¼
ĠÐ´Ð°Ð»Ðµ Ðµ
ĠÑģÑĤÐ°Ð½ Ð´Ð°ÑĢ
Ð¼ÐµÐ½ ÑĮ
ĠÐ¿ÑĢÐ¸ Ð±Ð»Ð¸
ĠÐ¼ Ð³
e x
el f
ĠÑĢÑĥ ÐºÐ°Ð¼Ð¸
Ð´ ÐµÐ¹
ÑĦÐµÑĢ ÐµÐ½
ĠÐ°Ð½ Ð³Ð»Ð¸Ð¹
ĠÐ´ÐµÐ»Ð° ÐµÑĤ
ĠÑĩ ÐµÑģÑĤ
Ð³ Ð¾Ð¼
a x
ĠÐ¼Ð¾ Ð½Ð°
ÐµÑģÐ¿ ÑĥÐ±Ð»Ð¸
ĠÑģ ÑĩÐ°ÑģÑĤÑĮ
ĠÐ²ÐµÑĢ Ð¾
3 9
ĠÐ»ÑİÐ´ ÑıÐ¼
ÑģÑĤ Ð¸Ð»
ĠÐ¿ÑĢÐ¾Ð´Ð¾Ð» Ð¶Ð°
ÑĨÐ¸Ð¾Ð½ Ð½Ð¾Ð¹
ĠÐ¿ÑĢÐ¾ ÑĤÐµ
ĠÑĢÐ°Ð± Ð¾Ñĩ
2 8
j ect
ĠÑį Ð¼Ð¾
ĠÐĽÑİ Ð±
ĠÑģ Ð¼Ð¾ÑĤÑĢÐµÑĤÑĮ
ĠÑĩ ÑĤÐ¾Ð±
Ñı ÐµÑĤÑģÑı
ĠÑģÐ¿ ÑĢÐ°ÑĪÐ¸
d ay
Ð²ÑĪ Ð°Ñı
Ð°ÑĤ ÐµÐ»ÐµÐ¹
ĠÐļ Ð¾Ð»
Ð± ÐµÐ»ÑĮ
ĠÐĺ Ð¼
ĠÐ¾ ÑħÐ¾ÑĤ
ĠÐ¾Ð¿ÑĢÐµÐ´ ÐµÐ»Ñı
ĠN ew
ĠÐ¿Ð¾Ð¼ Ð¾Ð³Ð°
d u
Ð² ÐµÐ»
ÐµÑĢ Ð½Ð°
ÑīÐ¸ Ð¼Ð¸
o ol
ÑĢÐ¾Ð² Ð°Ð»Ð¸
ÑģÑĤÐ² Ð¸Ð¸
ĠÐ¾ÐºÑĤÑı Ð±ÑĢÑı
Ð½Ð° ÑĤ
ĠÐ¿Ð¾Ð´ Ð´ÐµÑĢÐ¶Ð¸
ĠÑİ ÑĢÐ¸
Ð¸ÑĤÐµÐ»ÑĮ Ð½ÑĭÐµ
ĠÑĢÐµÐ´ Ð°Ðº
ĠÐ³ Ðµ
Ñį ÑĢ
Ġin clud
ĠÐ¡ ÑĤÐ¾
ĠÐ¶Ð¸Ð· Ð½
ĠÐ¾ÑĤ ÐºÐ°Ð·
ĠÑģ Ñħ
ĠÐ±Ð¾Ð³ Ð°ÑĤ
ĠÐ¾ÑĢ Ð³Ð°
Ð» Ð¾ÑĤ
ÑĤÑĥ ÑĢÐµ
ÐĿ ÐĲ
ĠÐ´Ðµ ÑģÑıÑĤ
ĠÐ» ÑĮ
Ġf l
ÑĨ Ð°Ð¼
ĠÐ½Ñĭ Ð½Ðµ
ĠÐ²ÑģÑĤÑĢÐµ ÑĩÐ°
Ġse c
f t
Ð´Ðµ ÑģÑıÑĤ
ĠÐ¼ÐµÑģÑı ÑĨÐµÐ²
ĠÑģ ÐµÑĤÐ¸
ĠÐ¿ÑĥÑĤÐµ ÑĪÐµ
ÑĢÑĭ Ðµ
ÑĤÐ¾ Ðµ
ĠÐ¸Ð´ ÑĤÐ¸
Ñģ Ð¾ÑĤ
ĠÐ¾ ÑĦÐ¾ÑĢÐ¼
ĠÐ³Ð»Ð°Ð·Ð° Ð¼Ð¸
Ð» Ð°Ðº
ĠÑĢÐ°Ð¹ Ð¾Ð½Ðµ
ĠÐ½ÐµÑģÐºÐ¾Ð»ÑĮ ÐºÐ¸Ñħ
ĠÑģÐ¾ÑģÑĤÐ¾Ñı Ð½Ð¸Ð¸
ĠÐ²Ð· ÑĢÐ¾ÑģÐ»
ĠÐ±ÑĢÐ° ÑĤÑĮ
ÐµÑĢ Ñĥ
ow s
Ð¾Ð²Ð° Ð½Ð¸Ð¹
ĠÐ¿Ð¾Ñģ Ð¼Ð¾ÑĤÑĢÐµÑĤÑĮ
Ġe m
Ð¸Ð¼ ÑģÑı
ĠÐ¾Ñģ Ð²
ĠÑĥÐ»Ð¸ ÑĨÐµ
ĠÐ± Ð¾Ð¹
ĠÑĦÐ¾ÑĢ Ð¼Ð°
ĠÐ´ÑĢÑĥ Ð³Ð¾Ðµ
ĠÐ·Ð°Ð²Ð¸Ñģ Ð¸ÑĤ
ĠÐ²Ñģ ÐµÐ¼Ñĥ
ĠÐ¾Ð±ÐµÑģÐ¿Ðµ ÑĩÐ¸
ĠÐ¾Ð±Ð½Ð° ÑĢÑĥÐ¶
Ð»Ñı ÑĢ
Ð´Ñĥ Ð¼Ð°
Ð³Ð¸ Ð¼Ð¸
ĠÐºÐ¾Ð¼Ð¿ ÑĮÑİÑĤ
Ð¶ ÐµÐ½Ð¸Ð¸
Ġin v
ĠÐ·Ð° ÑīÐ¸
ĠÑĥÑĩ ÑĢÐµÐ¶Ð´
ĠÑģ Ð½Ð°ÑĩÐ°Ð»Ð°
ĠÐ¿Ð¾Ð´ Ð¾Ð·
ÐĴ Ð¾
ĠÐ± Ð°ÑĢ
ĠÐĿÐ° Ð¿ÑĢÐ¸Ð¼ÐµÑĢ
Ð¾ÑĢÐ¾ÑĪ Ð¾
Ð¼ Ð¾Ð¹
Ġwhe re
ÑģÐº Ð°ÑĤÑĮ
?? ?
Ð¸ ÑĪÑĮ
Ð¾ ÑĢÐµ
ĠÐ½Ð¸ÐºÐ°Ðº Ð¸Ñħ
ĠÐ² ÐµÐ»
ĠÑĢÐ°Ð·Ð³ Ð¾Ð²Ð¾ÑĢ
f ore
Ð» ÐµÐ²
ÑĪ ÐµÐ´
ÑĪ ÑĤÐ°
ar g
ĠÐ²Ñĭ Ð±
ĠÐ¿ ÑĤÐ¸
ĠÐŁ Ð°Ð²
ĠÐľÐ¾ÑģÐº Ð¾Ð²
ĠÑħÐ°ÑĢÐ°Ðº ÑĤÐµÑĢÐ¸
ĠÐ´ Ð½Ð¸
Ð¾Ð¹ Ð´ÐµÑĤ
ĠÐ± Ð»Ð¾Ðº
ÑĨÑĥ Ð·
ĠÑģ ÑĨ
ĠÑģÐ²Ð¾ ÐµÐ¼Ñĥ
ĠÑĥÑĢÐ¾Ð² Ð½Ñı
ĠÐ½ Ð¾Ð²Ð¾Ð¹
Ġyear s
Ñİ ÑīÐµÐµ
ĠÐ½Ð°Ð²ÐµÑĢ Ð½Ð¾Ðµ
ĠÐ·Ð° Ð¿Ñĥ
ĠÐł ÐµÑģÐ¿ÑĥÐ±Ð»Ð¸
ÐºÐ° Ð´ÐµÐ¼
ĠÐ¸Ð· Ð³Ð¾ÑĤÐ¾Ð²
Ġre l
ĠÐ½ÐµÐºÐ¾ÑĤÐ¾ÑĢÑĭ Ñħ
ĠÐŁ Ð¾ÐºÐ°
Ð¾Ð¿ Ð°
ĠÑĢÐµ Ð¹
ĠÑĥÐ²Ð¸ Ð´ÐµÐ»
ĠÐ²Ð°ÑĢÐ¸ Ð°Ð½
Ð± Ð¾Ð»
ĠÑĤÑĭÑģÑı ÑĩÐ¸
ĠÐĲ Ð´
ÑĤ Ð°Ð»
ĠÐ¾ ÑĨÐµÐ½Ð¸
ĠÐ¾Ð±ÑĬ ÐµÐ¼
ĠÑıÐ·Ñĭ Ðº
us s
ĠÐ· ÑĢÐµÐ½Ð¸Ñı
ĠÑĩÐ° ÑīÐµ
ĠÑģÐµÐ¼ÑĮ Ð¸
ĠÑĢÐµÐ³Ð¸ ÑģÑĤÑĢÐ°
Ġhttp s
ĠÑĢÐµ ÑĩÑĮ
Ð¸Ð¼ Ñĥ
ĠÐ·ÐµÐ¼ Ð»Ð¸
ĠÐ¿ÑĢÐ°Ð² Ð¸Ð»Ð¾
ĠÑĨÐ²ÐµÑĤ Ð°
ĠÐ½Ð¾ ÑıÐ±ÑĢÑı
Ð¾Ñĩ ÐºÐ¸
ĠÐĳ Ð°
ĠÐ½Ðµ ÑĦ
ur ing
Ð² ÐµÐ¹
ĠÐ¿Ð¾ ÐµÐ·Ð´
ĠÐ¿ ÑıÑĤÐ¸
ĠÐ¾ÑģÐ½Ð¾Ð² Ðµ
ĠÐ½ÐµÐ´ÐµÐ» Ñİ
ĠÑĥÐ´ Ð°Ð»
Ð¾Ð´ Ñĭ
Ð¸ÑĤ ÐµÑĤ
ĠÐ³Ð¾Ð²Ð¾ÑĢ Ñı
ĠÑĤ ÑĢÐ¾
Ð² ÐµÐ½
Ġat t
Ð°Ð´ Ð½Ð¾
ĠÐ¸ÑĤ Ð¾Ð³Ðµ
Ð¾Ð¿ ÑĢÐ¾Ñģ
Ð¼ Ð¾Ð¼
)) <|
ÑıÑī Ð¸Ñħ
ĠÐ´ Ð°Ð»
od e
ÑģÑĤÐ² Ð¾Ð²Ð°ÑĤÑĮ
ĠÑĦ Ð¸Ð»
i ew
ĠÐ¼Ð°ÑĪÐ¸ Ð½Ñĭ
w ard
107 4
ĠÑģÑĤ Ð¾Ð»ÑĮ
ÑģÑĤÐµ Ð¿
Ð¸ÑĤ ÑĥÑĤ
ÑĥÑĤ ÑģÑı
ĠÑĤ Ð¾Ð±Ð¾Ð¹
ÑĢÐ¾Ð² ÐºÐ¸
ÑĤ Ð½ÑĭÐ¹
Ð· Ð°Ðº
Ñĩ ÐºÐµ
Ð¾ ÑģÑĤ
Ġ20 10
ÑĤÐ¸Ð² Ð½ÑĭÑħ
ĠÐºÐ¾Ð¼ Ð¸Ñģ
ĠÑĢÐ¸ Ñģ
ĠÑģÑĥÑīÐµ ÑģÑĤÐ²ÑĥÐµÑĤ
ĠÐº Ð»Ð°
ĠÐ½Ð° ÑģÑĤÑĥÐ¿
ĠÐº ÐµÐ¼
ot h
ĠÐ¼ÐµÑģÑı ÑĨÐ°
ÐĴ ÐĲ
ÑĤ ÑĢÐ°Ðº
ĠÐ¿Ð¾Ð» Ñı
Ð¾Ð²Ð° Ð½Ð¸ÐµÐ¼
ĠÐ¸Ð½ÑĤÐµÑĢÐµÑģ Ð½Ð¾
Ð°ÑĤ ÐµÐ¼
ĠÐ¿Ð¾Ñģ ÐµÐ»
ĠÐ´ ÑĢÑĥÐ¶
Ð½Ð° Ð·Ð½Ð°
ĠÑģÐ¾Ð¾ÑĤÐ²ÐµÑĤÑģÑĤÐ² Ð¸Ð¸
ĠÑĢÐ°ÑģÑģ Ð¼Ð°ÑĤÑĢÐ¸
r ough
ĠÐ·Ð° ÑħÐ²Ð°
ĠÐł Ð¾Ð´
l and
ĠÐ²Ð¸Ð´ Ð½Ð¾
ĠÑĤ Ð°Ð±
at ive
ĠÐ¡ÐµÑĢ Ð³ÐµÐ¹
Ñį ÑĤÐ¾
ĠÐ½Ðµ Ð²
ĠÑĥÐ½Ð¸Ñĩ ÑĤÐ¾Ð¶
Ñī Ñĥ
ĠÐ³Ð¾ ÑĢÐ°Ð·Ð´Ð¾
ĠÐºÐ¾ ÑĢÐ¸
ĠÐ¿ÑĢÐµÐ´ Ð¿Ð¾Ñĩ
ĠÑĩÐµÐ¼ Ð¿Ð¸
Ġre g
Ġp res
ĠÐ²Ð· ÑıÑĤ
3 7
ĠÑģ ÑĥÑĤ
ĠÐĶ Ð¼Ð¸ÑĤ
ÑĩÐµÑģÐº ÑĥÑİ
Ġ6 0
ĠÐ¿Ð¾Ð½Ð¸Ð¼Ð° Ñİ
4 5
ĠÐĳ ÐµÐ»
Ð½Ñı ÐµÑĤÑģÑı
u ch
Ġ19 6
ĠAn d
, "
ĠÑĥÐ» ÑĥÑĩ
ĠÑĥÐ²Ð¸ Ð´ÐµÑĤÑĮ
ĠÐºÐ»Ð°Ñģ ÑģÐ¸
il y
ĠÐ¼Ñĭ ÑĪ
ĠÐ»Ð¸ ÑĩÐ½Ð¾
ĠÑĤÑĢÑĥ Ð´Ð°
ĠÐ´ Ð°ÑĤÑĮ
ĠÐĳ ÑĥÐ´
ĠÐ° Ñģ
ĠÐ¶ ÐµÑĢÑĤ
Ñģ Ð¾Ð½Ð°
Ð´ ÐµÐ¹ÑģÑĤÐ²
m l
ÑĤÐµ Ñħ
Ġad d
ĠÐºÐ°Ðº ÑĥÑİ
Ð° Ð¿
ĠÐĴÐ»Ð°Ð´Ð¸Ð¼Ð¸ ÑĢ
ÑĤÑĥ ÑĢÑĥ
Ð¾Ð» Ð³Ð¾
er t
ĠÐ¾ÑĤ ÐºÐ°
Ġd id
Ð¸ÑĤÐµÐ»ÑĮ Ð½Ð¾Ð¹
ĠÐ»ÑİÐ± Ð»Ñİ
ĠÐ¿Ð»Ð¾ Ñħ
at ing
ĠÑħÐ¾ÑĤ Ð¸ÑĤÐµ
le ct
ĠÐ°Ð² ÑĤÐ¾ÑĢ
Ñī Ð°ÑĤÑĮ
ÂłÂł ÂłÂł
ol og
ĠÑĤÑĭ Ñģ
Ð¸ ÑĩÐ°
p r
ĠÐºÐ°Ð· Ð°Ð»Ð¾ÑģÑĮ
ow er
Ġ2 9
ĠÑĩ ÐµÐ¼Ñĥ
ĠÐ·Ð° ÑĢÐ°Ð±Ð¾ÑĤ
ĠÐ¼Ð¾ ÑĢÐµ
Ġ @
Ð¸Ñģ Ñĭ
ĠÐºÐ¾Ð¼ Ð°Ð½Ð´
ĠÑĤÐ°Ðº ÑĥÑİ
____ ____
ĠÐĳ ÐµÐ·
Ð¶ Ð°Ð»
ÑİÑī Ð¸Ð¼Ð¸
ĠÐ¿ÑĢÐ¸Ð½Ð°Ð´ Ð»ÐµÐ¶
Ð¶ Ð½ÑĭÑħ
ĠÐ²Ð¾Ð² ÑģÐµ
ĠÐ½Ð°Ð» Ð¾Ð³
ĠÐ´Ð°Ð½ Ð½ÑĭÐµ
ĠÐ¡ Ð»
4 9
Ð°Ðº Ñĥ
ĠÐ² Ð¾Ð´Ñĥ
ĠÐ²Ñĭ Ð±Ð¸ÑĢÐ°
108 3
ĠÑĢÑĥ ÐºÐ¾Ð¹
ĠÐ² Ð¿ÐµÑĢÐ²ÑĭÐµ
ÐµÐ¼ ÑĭÐ¹
ĠÑĤÐ¾ ÑĩÐºÐ¸
ĠÐ² ÑĩÐµÑĢÐ°
Ñĩ Ð°Ð»Ð¸
Ð»Ð° Ð´Ñĭ
ĠÑħ Ð»Ðµ
ĠÐ³ Ð°ÑĢ
ĠÑħ Ð¾Ð»
ĠÐ´ÑĢÑĥÐ³ Ð¾Ð³Ð¾
ÑĤÐµ ÑĢÐµ
ÐµÐ½ ÐºÐ¾
ĠÐ½Ðµ Ð¾Ð±Ñĭ
ĠÑĤÑĢÑĥÐ´ Ð½Ð¾
2 1
Ð¿ ÐµÑĤ
ĠÐ²Ñĭ ÑıÑģ
ĠÐĴ Ð¸
Ð¼ Ð¾ÑĢ
ĠÐ¾Ð¿ ÑĥÐ±Ð»Ð¸
ĠÐ¼ Ð°ÑĤÑĮ
t her
ment s
ĠÐº Ð½Ñı
ÑĨ ÐµÐ»
ĠÐĺÐ½ ÑĤÐµÑĢ
Ð½ Ð¾Ð·
ĠÐ°Ð¿ÑĢÐµ Ð»Ñı
a ter
or k
Ġp h
ĠA r
ÑĤÐµÐ»ÑĮ Ð½ÑĭÐ¹
ĠÐ¿ÑĢ ÑıÐ¼
ĠÑģÑĤÐ¾ÑĢÐ¾ Ð½
ĠÐ¼ÑĥÐ¶ ÑĩÐ¸Ð½
ĠÑĤÐ°Ðº Ð¾Ð¼
ĠÑĥ ÐºÐ°Ð·Ð°
ĠÐ·Ð° Ð¿Ð¾Ð»
ĠÐ²Ñĭ Ð²Ð¾Ð´
i x
ĠÑģÐ¾Ð¶ Ð°Ð»
ĠÑĢÐµ Ð²Ð¾Ð»Ñİ
Ñĩ Ð½Ð¾ÑģÑĤÑĮ
ĠÑĢÐµ Ð°Ðº
ĠD e
ÐŁÐµÑĤ ÐµÑĢÐ±ÑĥÑĢ
ĠÑĢÐµ ÑģÐ¿
ÑĤ Ð¸ÑĤ
Ð°Ð½Ðº ÑĤ
ĠÐ½Ð° ÑģÐ»ÐµÐ´
ĠÐ¿Ð¾Ð´ ÑĬ
ĠÐ¿ÑĢÐ° Ð²Ð¸Ð»Ð°
Ð¾Ð± Ð¸Ð»ÑĮ
mer ic
Ġthe se
ĠÐºÑĥÐ»ÑĮ ÑĤÑĥÑĢÑĭ
ĠÑĢÐµÐ·ÑĥÐ»ÑĮÑĤÐ° ÑĤ
Ġd if
Ð»Ñı ÐµÑĤ
ĠÐ½Ð°Ð· Ð²Ð°Ð½Ð¸Ðµ
ĠÐ²Ð½Ð¸Ð¼Ð° Ð½Ð¸Ñı
ĠÐĺ Ñħ
ĠÐº Ð¸Ð²
Ð»Ð¸ ÑĤ
ĠÐ¿Ð¾ÑĢÑıÐ´ ÐºÐµ
ĠÐºÐ°Ð± Ð¸Ð½
ĠÐ¿Ð¾Ð¿ ÑĢÐ¾Ð±
ĠÐ¾Ð±Ñı Ð·Ð°Ð½
ĠÐ·Ð°ÐºÐ¾Ð½ Ð¾Ð´Ð°ÑĤÐµÐ»ÑĮ
ÑģÑĤÑĢÐ° Ð¸
Ð»ÐµÐ½ Ð½ÑĭÐ¹
ĠÑģÐ¾Ð±Ñĭ ÑĤÐ¸Ñı
ĠÐĴ Ð¸Ðº
ys tem
Ð³ Ð°ÑĢ
ÐµÑĤ Ñĥ
Ġsu pp
f ul
ĠÐ¿ÑĢÐ¸ Ðº
ĠÐ² Ð»Ð°Ð´
Ġn ow
ÑĢÐ° ÑĤÑĮ
ar s
Ð¾Ð³ Ð»Ð°Ñģ
ĠÐ¸Ñİ Ð½Ñı
ĠÑĤÐ¾Ð²Ð° ÑĢÐ¸
ĠÐ²Ð¸ Ð´ÐµÑĤÑĮ
ĠTh is
ĠÐ¾ÐºÐ°Ð· Ð°Ð»ÑģÑı
, âĢĿ
ĠÐ´Ñĥ ÑĪÐ¸
ĠÐ¾Ð±ÑīÐµ ÑģÑĤÐ²Ð°
ĠÐ²Ð°ÑĢÐ¸ Ð°Ð½ÑĤ
ĠÐľÐ¾ÑģÐº Ð²Ð°
0 2
ÑĨÐ¸ Ð°
)) )<|
0 5
t le
ĠÐĿÐ¸Ðº Ð¾Ð»
Ġthe n
ĠÐ¼ Ð°Ð¼Ð°
Ġre m
ĠÐ¸ÑģÑĤÐ¾ ÑĢÐ¸Ñı
ĠÐ¸ÑģÑĩÐµ Ð·
ĠÐµ Ð´Ð¸
ĠÐļ Ð¸Ðµ
Ð»Ñİ Ð´
Ð² Ð°Ð»Ð¾
t ing
ul ar
ĠU ni
Ð²Ð° Ð½Ð¸ÐµÐ¼
ĠÐ½ÐµÐ¿ Ð¾Ñģ
Ðķ Ðł
ĠÑĢÐ°Ð¹ Ð¾Ð½
ĠÐĶ Ðµ
ĠÐ½Ð° ÑĢ
ĠÑģ Ð¾Ðº
ĠÐµÐ² ÑĢÐ¾Ð¿ÐµÐ¹
ĠÑĢÑĭ Ð±
Ð´Ð° Ð¼Ð¸
ĠÐ· Ð¾Ð»Ð¾ÑĤ
ĠA l
Ðļ ÑĤÐ¾
ĠÐ¿Ð¾ ÑĢÐ°
ĠÑĢ Ð¾Ð¶Ð´ÐµÐ½Ð¸Ñı
ĠÑĤÐµÐ»Ðµ ÑĦ
ĠÐ½Ð°ÑģÑĤ Ð¾Ð»ÑĮÐºÐ¾
Ð¸ Ð³ÑĢÐ°
ĠÐ¸Ñİ Ð»Ñı
ĠÐ¸Ð·Ð¼ÐµÐ½ ÐµÐ½Ð¸Ñı
ĠÑĢÐ°ÑģÐ¿ÑĢÐ¾ ÑģÑĤÑĢÐ°Ð½
ĠÐ²Ð¾Ð· Ð½Ð¸ÐºÐ°
ĠÑģÐ¾ ÑģÑĤÐ°Ð²Ð»ÑıÐµÑĤ
ĠÑĥÑĢÐ¾Ð² Ð½Ðµ
ĠÐ¿Ð¾Ð³Ð¸ Ð±
ĠÑĪÐºÐ¾Ð» Ñĭ
if ic
Ð¾Ð¶Ð´ ÐµÐ½Ð¸Ðµ
ĠÐº Ð»Ñİ
ĠÐ¿ Ð»Ñİ
ĠÐ´Ðµ Ð¿ÑĥÑĤÐ°
Ð¸ Ð»Ñı
t he
Ñĩ ÐµÐ½Ð¸Ð¸
ĠÐ° Ñį
Ġ ob
ĠÐºÐ°ÑĢ ÑĤÐ¸Ð½
ĠÑĦÐ¸Ð½Ð°Ð½ Ñģ
ÑİÑī ÑĥÑİ
ÑĨÐ° ÑĤÐ¸
ĠÐ²Ð¾Ð»Ð¾Ñģ Ñĭ
ÑĢÐ° Ð¹
ĠÐºÐ¾Ð½ ÑĤÐ°Ðº
Ġ 000
Ð¸Ð¼ Ð°
al s
3 8
Ġac c
ÐµÑĢÐº Ð²Ð¸
ĠÐºÐ¾Ð½ ÑĨ
ĠÑĥ ÑģÐ¸Ð»Ð¸
ĠÐĿ ÐĲ
ĠÐ²ÑģÐµÐ¼ Ð¸
our n
ĠÐ´Ð¾Ð³ Ð¾Ð²Ð¾ÑĢ
ÑģÐ° Ð¼Ð¸
ÑĩÐµÐ½ Ð¾
ĠÐºÑĢÐ¾Ð² Ð¸
5 5
ĠÐºÐ°ÑĢ ÑĤÐ¸
ĠÑĤ Ñİ
Ð¿Ð° Ð½Ð¸Ñı
ÑĤÑĭ Ð¼
Ġde c
ĠÑĤÑĢÑĥ Ð±
as on
ĠÐ¿Ð¾Ð² Ð¾Ð´Ñĥ
Ð¿ Ð¾Ñģ
Ð´Ð° ÑĤÐµÐ»ÑĮ
ĠÐ± ÑĢÐ¾
in s
Ð·Ð° Ð¿
ĠÐ¿ÑĢÐµÐ´ Ð½Ð°Ð·Ð½Ð°
Ðł Ð°Ð·
ĠÑģÐ¾Ð²ÐµÑĢ ÑĪÐµÐ½
Ð°Ð½ Ñģ
ĠÐ°ÑĢÐ¼Ð¸ Ð¸
ĠÑĨÐµÐ» Ð¾Ð¼
ÐµÑĢ Ð¾Ð¼
ĠÐ¿Ð¾ÑģÐ»ÐµÐ´ Ð½Ð¸Ð¹
Ð° Ð³Ð¸
ÑĪ ÑĥÑİ
ĠÐ¸Ð· ÑĥÑĩ
ĠÐ¾ ÑĩÐ¸
ĠÑģÐ¼Ñĭ ÑģÐ»
Ġb r
ÑīÐ¸ Ðº
ĠÑģÐ²Ð¸Ð´ÐµÑĤ ÐµÐ»ÑĮ
Ð·Ð° Ñħ
ĠÑĥÑģÐ»Ñĥ Ð³Ð¸
Ð¾ÑĤ Ñĥ
ĠÑģÑĤÐµÐ¿ ÐµÐ½Ð¸
ĠÐ¿ÑĢÐ¾Ð¸Ð·Ð¾ ÑĪÐ»Ð¾
an k
ĠÐ» Ð¾Ð²
e k
Ñį Ð¹
ĠÐ½Ð°ÑģÑĤÐ¾Ñı ÑīÐµÐµ
ĠÐľ Ð°ÑĢÐ¸
ÐºÐ¾ ÑĤÐ¾ÑĢÑĭ
ĠÐ¼Ð³ Ð½Ð¾Ð²
it ies
ĠÐ´Ð² ÑĥÐ¼
ĠÐ¿ÐµÑĢ ÑģÐ¾Ð½
ĠÐµÐ´ Ð²Ð°
ĠÐ¿ÑĢÐµÐ´Ð¿ÑĢÐ¸ ÑıÑĤÐ¸
ĠÐ°Ð²Ð³Ñĥ ÑģÑĤÐ°
ĠÐ¾Ð´ Ð½Ð¾Ð²ÑĢÐµÐ¼ÐµÐ½Ð½Ð¾
ĠÐ½ Ð¾Ð¶
ĠÐ´Ð¾Ð»Ð»Ð° ÑĢÐ¾Ð²
Ġst ud
ĠÐĳ Ð»Ð°
ĠC om
ĠÐ³Ð» ÑĥÐ¿
ĠÐľ Ð°Ðº
ĠÐ·Ð° Ð¿Ð°Ð´
ĠÐĵ Ð¾ÑĢ
ĠÐ¼ÐµÑĤ ÑĢÐ¾Ð²
ĠÐ¿ÑĢÐ¾ÑĤÐ¸ Ð²Ð¾
Ð¾ÑĤ Ð½Ð¾
Ð½Ð¸Ð¼ Ð°Ð»
ĠÑģÑĤÐ°ÑĤÑĮ Ð¸
ĠÐŁÑĢÐ¾ ÑģÑĤÐ¾
ĠÐ½ÐµÐ·Ð° Ð²Ð¸Ñģ
ĠÑģ Ð²ÐµÑĢÑħ
3 6
ĠÐŃ ÑĤÐ¸
Ð¸ÑĤ ÐµÐº
ĠÑĥ Ð±Ðµ
Ð¾Ð¿ ÑĭÑĤ
ĠÐ³ Ð¸
ww w
ĠÐ¿Ð¾Ñģ Ð²ÑıÑī
ĠÐ¾Ð± ÑģÐ»ÑĥÐ¶Ð¸
Ġ |
Ð¼ÐµÐ½ ÑĤÑĭ
Ð²Ð¸ Ð²
p os
ĠÐľÐµ Ð¶Ð´Ñĥ
ÑĤÐ¸ Ð»Ð°
ĠÑģÐ¾Ð¾Ð± ÑīÐ°ÐµÑĤ
ĠÑģ Ð¼Ð¾ÑĤ
ĠÑģÐ² ÑıÑĤ
Ð¼Ð¾ÑĤÑĢÐµ Ð»Ð°
ĠÑĥ Ð½Ð¸Ðº
ĠÐŁÐ¾ÑĤ Ð¾Ð¼Ñĥ
3 4
Ġth rough
Ġm od
ĠÐ´ÑĢÑĥ Ð³Ð¸Ð¼Ð¸
ÑĢÐµÐ´ ÐµÐ»
ĠÐ· Ð»
ĠÐ²Ð¸ Ð´Ñĥ
ÑģÐºÐ¾ ÑĢÐµ
ĠÐ³ÑĢÐ°Ð¶ Ð´Ð°
an ge
ÑİÑīÐ¸Ñħ ÑģÑı
ĠÑħÑĥÐ´ Ð¾Ð¶
ĠÐ²Ð¿Ðµ ÑĢÐµÐ´
ĠÐ¼ÑĥÐ¶ ÑĩÐ¸Ð½Ñĭ
ĠÑģÐ¾ÑģÑĤÐ¾Ñı Ð½Ð¸Ðµ
Ñĳ Ð·
Ð½Ðµ ÑģÑĤÐ¸
ĠÐ·Ð½Ð° ÐµÑĤÐµ
ĠÐ´ Ð¾Ð¶Ð´
ĠÐŀÑģ Ð¾Ð±
ĠÐ¾ÑĤ ÐºÑĥÐ´Ð°
ĠÐ¿ Ð°Ð»
ĠÐ½Ð°Ð¿ Ð¸ÑģÐ°
a h
Ðº Ñģ
ĠÐ²Ñĭ ÑĪÐµÐ»
ĠÐ¿Ð¾Ñĩ ÑĥÐ²ÑģÑĤÐ²
i el
ÑĢÐ¸ ÐºÐ°
Ðļ Ð°
Ġev en
ĠÐŃ ÑĤÐ°
ĠÑĨÐ¸ ÑĦ
ĠÐļ Ñĥ
ĠÐ¶ÑĥÑĢ Ð½Ð°Ð»Ð¸
Ñĩ Ð°Ð»Ð°
ĠÐ¼Ð½Ð¾Ð¶Ðµ ÑģÑĤÐ²Ð¾
ĠÐ³Ð¾Ð»Ð¾Ð² Ðµ
ĠÐ¿ÑĢÐµÐ´ ÑĥÑģ
ĠÐ± ÑĥÑĢ
Ð½Ñı ÐµÑĤ
Ðķ ÐĿ
Ġc all
ĠÐ·Ð° Ð²ÐµÐ´
Ð¸ÑĤ ÐµÐ»ÐµÐ¼
ĠÐ¿ÑĢÐ¸ ÐºÐ°Ð·
Ð¾Ñģ Ð¸
ĠÐ¶ Ð¸Ð»Ð¸
ĠÑĤÑĢÐµÐ± Ð¾Ð²Ð°Ð½Ð¸Ñı
ĠÐ¿Ð¾Ð´ Ð¿Ð¸Ñģ
Ð°ÑĢ Ð¾Ð²
v en
if e
ĠÐ¿ Ñĭ
ĠÐł ÑĥÑģ
Ð´Ñĥ Ð¼Ñĭ
Ð°Ð½ Ð½Ð°Ñı
Ġb u
ĠÐ¾ÑĤ ÑĨÐ°
ÐµÑħ Ð°ÑĤÑĮ
ĠÑģÐ°Ð¼ Ð¾Ð»
ÑĤÐµ Ð¿
ĠÐ´Ð°Ð½ Ð½ÑĭÐ¼
Ñĩ ÐµÐ½Ñĭ
ÐºÐ¾ ÑģÑĤÑĮ
ĠÐ¾ÑģÐ½Ð¾Ð² Ð½Ð¾Ð¼
Ġde f
ÑģÑĤÐ² Ð¸ÐµÐ¼
ĠÑĥ ÑĩÐ¸ÑĤ
ÑıÑī Ð¸Ðµ
Ð¾Ð´ Ð¸
ĠÐ± Ð»Ðµ
ĠÑĢÐ°Ð· Ð²Ðµ
ĠÐ¡ Ð¿Ð°ÑģÐ¸Ð±Ð¾
ÑĨ Ð¾
ĠÑĥÑģÐ¿ ÐµÑħ
ĠÑģÐ¾Ð¿ ÑĢÐ¾Ð²
T h
ĠÐ³Ð¾Ñģ Ð¿Ð¾Ð´
ĠÐ½Ð°Ñĩ Ð°Ð»Ð¸
b le
ĠÑĢÐ°Ð· Ð±
ÑĪ Ð¸ÑĤÑĮ
Ġre p
Ðľ Ð½Ðµ
Ġw ell
ĠÐ² ÑģÑĤÑĥÐ¿
Ð´ Ð°Ð»Ð°
ĠÐ²Ð¾ Ð¾ÑĢÑĥÐ¶
ĠÐ°Ð²ÑĤÐ¾Ð¼Ð¾Ð± Ð¸Ð»ÑĮ
ÑĤÐ¸Ð² Ð½Ð¾
0 4
ĠÐ·Ð² Ð¾Ð½
ĠÑĢÑĭÐ½ ÐºÐµ
ĠÐ´ Ð¾Ñģ
ĠÑĤ ÐºÐ°
ÑĤÐ° ÐµÑĤ
ĠÑĨÐµÐ½ÑĤ ÑĢÐµ
Ġas s
ĠÑĦÐ¾ÑĢ Ð¼Ðµ
ĠÑĩ Ð°Ð¹
Ð°ÑĤ Ñĥ
ĠÐ¿Ð¾Ñħ Ð¾Ð¶
ĠÐŁ Ð°ÑĢ
ĠÐ´Ð° ÐµÑĤ
ÑĤÐ¸ ÐºÐ°
ĠÐ¾Ð¿ÑĢÐµÐ´ ÐµÐ»ÐµÐ½
Ġbec ause
Ð¸ÑĤÐµÐ»ÑĮ Ð½ÑĭÑħ
ĠÑĦ ÐµÐ´ÐµÑĢÐ°
ĠÐºÐ¾Ð¼Ð°Ð½ Ð´Ð¸
ĠÑĢÐ° Ð½ÐµÐµ
ĠÑģ Ð¾ÐºÑĢÐ°
ÑĥÑİÑī Ð¸Ð¹
ĠÐ¼Ð°Ñģ Ñģ
ĠÐ¡ Ð²
ÑĢÐ° Ð²Ð¸ÑĤÑĮ
ÑīÐµ ÑģÑĤÐ²Ð¾
ĠÐ¼ Ð¼
ÑĥÐ»ÑĮ ÑĤ
ĠÐ·Ð°Ð¼ÐµÑĤ Ð¸Ð»
ĠÑĨÐµÐ»ÑĮ Ñİ
ĠÐ³ÑĢÑĥÐ¿ Ð¿Ð°
ĠÑĥ ÑģÑĤ
in ce
Ð¸ÑĤÐµÐ»Ñı Ð¼Ð¸
ĠÐĹ Ð°ÑĤÐµÐ¼
Ð½Ñĥ Ð¶Ð´
ÐµÐ½ Ð½ÑĥÑİ
Ġm ay
ĠÐºÐ¾Ð¼Ð¿ Ð»ÐµÐºÑģ
Ġman y
ĠÐ´ ÐµÑĢ
ĠÐ¿Ð¾Ð» Ðµ
ĠÐ´ ÑĢ
ÐµÐ´ Ð¶
ĠÐ³ ÑĢÑĥÐ´
ÑĢÐ¾ ÑģÑĤ
ĠÑĨÐµÐ½ÑĤ ÑĢ
Ð»Ñı Ð½
ĠÑģÐ¿Ð¾ÐºÐ¾Ð¹ Ð½Ð¾
ĠÐ½Ðµ Ð´ÐµÐ»Ð¸
Ġf in
over n
0 9
ÑĬ ÐµÐº
ĠÐ± ÑĥÑĤ
ĠÑı Ð²Ð½Ð¾
ÑĥÐ¼ Ð°Ð»Ð°
ĠÐ¡ Ð»ÐµÐ´
Ð»Ð¸ Ð¼
ĠÐ·Ð° Ñī
ĠÐºÐ°Ðº Ð¾Ð³Ð¾
ĠÐ½ÑĥÐ¶ ÐµÐ½
ĠÐ¾ÑĩÐµ Ð²Ð¸Ð´
Ġsu b
Ð³ Ð¾Ð½
it s
ĠÐ²Ð¾Ñģ ÐµÐ¼ÑĮ
ĠÐ¿ÐµÑĢÐµ Ð¶Ð¸
ÐµÑĪÑĮ ÑģÑı
ĠÑįÐºÑģÐ¿ Ð»Ñĥ
Ð¾ ÑģÑĤÑĮ
Ġbe ing
ĠÐ·Ð°Ð²Ð¸Ñģ Ð¸Ð¼Ð¾ÑģÑĤÐ¸
u te
Ġsu ch
ÑĢÐµÐ³Ð¸ ÑģÑĤÑĢÐ¸
Ġ i
ĠÐºÐ¾ ÑģÑĤ
ĠÑĢ Ð¾Ð´Ð°
ĠÐ¿Ð¾Ð· Ð²Ð¾
ÑĩÐ° Ð¼Ð¸
ÐµÐ¼ Ð¾Ð¹
ĠÐ¾Ð±ÑĬ ÐµÐ´Ð¸Ð½
ÑģÐºÐ° Ð¶Ð¸ÑĤÐµ
Ðķ Ð¢
ĠÐľÐ¸Ñħ Ð°
ĠÑĩÐµÐ»Ð¾Ð²ÐµÐº Ð¾Ð¼
ĠÑģÐ¼Ðµ ÑĪ
ĠÑĪÐº Ð¾Ð»ÑĮ
ht ml
ĠA meric
Ð½ Ð¾Ð²Ð°Ð½Ð¸Ñı
Ġin c
ĠÑĤ ÐµÐ¼Ñĥ
Ð¾Ð±Ð¾ÑĢÐ¾ ÑĤ
ĠÑģÐ»ÑĥÐ¶ Ð±Ñĭ
Ġne ed
g an
ĠÑģÑĤÐ¾ Ð¸Ð¼Ð¾ÑģÑĤÑĮ
ĠÐ¼Ð¾Ð´ ÐµÐ»Ð¸
ĠÑĢÐµÑģÐ¿ ÑĥÐ±Ð»Ð¸
ÑĨÐ¸Ð¾Ð½ Ð½ÑĭÐµ
ĠÑĢ Ð¾Ð»Ð¸
Ġ: )
ĠÐ¾ÑĤÐ½Ð¾ÑĪ ÐµÐ½Ð¸Ð¸
0 7
ÑģÐ¿ Ð¾ÑģÐ¾Ð±
! ..
a w
ĠÐ¾ ÑĦ
ĠÐ·ÐµÐ¼ Ð»Ðµ
ĠÐ¸Ñģ ÑħÐ¾Ð´
ĠÑĨ ÐµÐ½Ñĭ
ĠÐºÐ°Ð¶Ð´ Ð¾Ð¹
ĠÐŁ Ðŀ
ĠE n
ÑĤÐ¸ÑĩÐµÑģÐº Ð¸Ñħ
ĠÐ½Ðµ Ñĳ
ĠÐ½Ð° ÑĢÐ¾Ð´Ð°
ĠÑħÐ¾Ð´ Ðµ
ÑĥÑİ ÑīÐµÐ³Ð¾
ĠÑģÐ¿ Ð¸
ĠÐ²Ð° ÑĪÐµÐ¹
ĠÑĩÐµÐ»Ð¾Ð²ÐµÐº Ñĥ
Ð·Ñĭ Ð²Ð°Ð»
Ð¾Ð¿ ÑĢÐ¸
ĠÐ¼ÐµÐ´ Ð»ÐµÐ½Ð½Ð¾
we en
ĠÐĲ Ð»ÑĮ
Ð¾Ð² Ð°Ð»Ð¾
ĠÑģ Ð´Ð°
r ic
ĠL e
ÑĨÐ¸Ñı Ð¼Ð¸
ĠÐ¡ Ð¾Ð±
Ð½Ð¸ ÑĨÐ¸Ð¿
ul l
ÑıÑī Ð¸Ð¹
Ðµ Ð²Ð¸Ñĩ
ĠÐ¿ÑĢÐµÐ´ ÑĥÐ¿
Ð½Ð¾Ð³ Ð¸Ðµ
ĠÐ¡ Ð°Ð½ÐºÑĤ
ut ion
ĠÐ¿ÑĢÐ¸ Ð»Ð¾Ð¶
Ð¾Ð² Ð¸
m p
un d
ĠÑĤÐ¾ÑĢ Ð³
ĠÐ¸ Ð±Ð¾
ĠÐ²Ð¾Ð· Ð´ÐµÐ¹ÑģÑĤÐ²
or n
ĠÐ¿Ð°Ð¼ ÑıÑĤ
ĠÐ¸Ð½ÑĦÐ¾ÑĢÐ¼Ð° ÑĨÐ¸Ñı
Ð¾ Ñĥ
ĠÐµ Ð·
ĠÐ¿Ð¾Ð´ Ñģ
Ð²Ð¾Ð· ÑĮ
Ħ ĸ
Ġe very
ĠÑģÑĤÐ° ÑĤÑĥ
ĠÐ¡ Ð²ÐµÑĤ
ĠÐĵ Ð´Ðµ
ĠÐĴ Ðµ
Ð³ ÐµÐ½
ĠÐ·ÐµÐ¼ Ð»Ñİ
ĠÑĤÐµÑĢ Ð¿
ĠÐ·Ð½Ð° ÐµÑĪÑĮ
ĠÐ¡ Ð¾Ð»
t on
ĠÐ¿ Ð°Ð»Ð°
ĠÐ½Ð° ÑĪÐ°
ĠÑĢÐµ Ð¿
ĠÐ¾Ð± ÑģÑĤÐ¾ÑıÑĤÐµÐ»ÑĮ
0 6
ĠÐ» Ð¾Ð³Ð¸
ĠÐ²Ð· ÑıÐ»
ĠÐ¼Ð°ÑĤÐµÑĢÐ¸Ð°Ð» Ñĭ
Ð¾ Ñħ
Ð»Ð° Ð±
Ð¢ Ðµ
ĠÐ²Ð° ÑĪÐµÐ³Ð¾
Ðŀ Ð´
ĠÐ´ÐµÐ¼ Ð¾Ð½
ĠÑĦ ÑĢÐ¾Ð½
ÐµÐ½ Ð½ÑĭÐ¼Ð¸
ÐĲ Ðŀ
Ð³ÑĢÐ° Ð´
ĠÑĥÐ± ÐµÐ´
ĠÐ´Ð°Ð½ Ð½ÑĭÐ¹
ĠÐĽ Ð°
Ð¸ÑĤÐµÐ»Ñı Ð¼
ĠÐ¼Ð¾ Ð¸Ñħ
ĠÐ¿Ð¾ ÑıÑģ
ĠÑĩÑĥÐ² ÑģÑĤÐ²Ð°
ÑĢÐµ Ð»Ð¸
ÑĨÐ¸Ð¾Ð½ Ð½Ð¾Ð³Ð¾
ĠÑĥÑĤÐ²ÐµÑĢ Ð¶Ð´
ĠÐ¿Ð¾ ÑħÐ¾Ð´
Ð°ÑĢ ÑĮ
ĠÐ¾ÑĤ Ð²ÐµÑĢ
Ð¾ÑĢ ÑĤÐ¸
ĠÑįÐºÑģÐ¿ ÐµÑĢ
ĠÐ°Ð±ÑģÐ¾Ð»ÑİÑĤ Ð½Ð¾
Ð¼ Ñı
ĠÐ¿Ð¾Ð» Ð½Ð¾
ĠÐ³ Ð°Ð»
ĠÐ² ÑĢÐµÐ´
ĠÐ²Ð° ÑĪÐ¸
Ġ //
ĠÐ¼Ð°Ð³Ð° Ð·Ð¸
ĠÐ¿ÑĢÐ¾Ð²ÐµÐ´ ÐµÐ½Ð¸Ñı
i er
ĠÐ³ Ð¸Ð±
r en
ĠÐ»ÑİÐ´ ÑĮÐ¼Ð¸
ĠÐ¢ Ð°
Ġm ake
ĠÐ² Ð¾Ð´Ð°
Ð³ Ð°Ð½Ð¾Ð²
ĠÐ¾ÑģÑĤ Ð°Ð½
ĠÑĢÐ°Ð·Ð²Ð¸ÑĤ Ð¸Ðµ
ĠÑģÐ¾ÑĤÑĢÑĥÐ´ Ð½Ð¸
ĠÐ´ Ñĭ
ĠÑģ ÐºÐ¸
t s
ĠÐ½Ðµ Ð·Ð½Ð°
Ð¸ÑĤÐµÐ»ÑĮ Ð½Ð¾Ðµ
ĠÐĿÐ° Ð´Ð¾
ĠÐ¼Ð¾Ð¶ ÐµÐ¼
ÑĩÐ¸ ÑĤÑĮÑģÑı
ÑģÑĤÐ° Ñı
ÑĩÐµÑģÐº Ð¾Ð¼
0 3
ÑĤ Ð½Ð¾Ð¹
Ġst ate
ÑĤÐ° Ð¶
Ġ end
ĠÐ½Ð° ÑĪÐµ
ĠÐ½ÐµÑģ Ð¼Ð¾ÑĤÑĢÑı
ĠÐ¿ÑĢÐ¾Ð³ÑĢÐ°Ð¼ Ð¼
ĠÐ¿ÑĢÐ¾Ð¸Ð· Ð½ÐµÑģ
ĠÑĩÐ°ÑģÑĤ Ð½Ð¾ÑģÑĤÐ¸
Ðº Ð¾Ð³
ĠÐ¾Ð± Ð¸
ÐĽ ÐĲ
Ð² Ð°Ð»Ð¾ÑģÑĮ
ĠÐ±Ð¸Ð· Ð½Ðµ
ĠÐ¸Ð· Ð±Ð°
ÑĤÐ¸Ð² Ð½ÑĭÐµ
ĠÐ½ÐµÐ´Ð° Ð²Ð½Ð¾
im es
ĠÐºÐ¾ÑĤÐ¾ÑĢÐ¾Ð¼ Ñĥ
108 2
ĠÑĥÑĤ ÑĢÐ¾Ð¼
Ð³Ð° ÐµÑĤ
ĠW h
ĠÐ´Ð¸ ÑģÐº
ĠÑģÐµÐ³Ð¾Ð´Ð½Ñı ÑĪ
ĠÑĢÐµÐ³Ð¸ Ð¾Ð½
ĠÐ½ÑĥÐ¶ Ð½Ð°
ĠÐŀ Ð´Ð¸Ð½
Ġin ter
ĠÐ¾ ÐºÐ°Ð·Ð°
Ġ very
ÑģÑĤ Ð¾ÑĢ
Ð»Ð° Ð¹Ð½
ĠÐŃ Ðº
ĠÐ¾ÑģÑĤ ÑĢÐ¾Ð²
ĠÑĤ ÐµÐ½
ĠÐ¿ÑĢÐµÐ´Ð¾ ÑģÑĤÐ°Ð²
Ð¾Ñĩ ÐºÐ°
ĠÐ´ ÐµÐ¹
== ==
ĠÑĦÑĢÐ°Ð½ ÑĨÑĥÐ·
ĠÑģÑĥ Ñħ
he s
ÐµÑħ Ð°Ð»Ð¸
ĠÐ¿ÑĢÐµÐ´Ð¿ÑĢÐ¸ ÑıÑĤÐ¸Ñı
ĠÐ¿Ð¾Ð½ ÑĢÐ°Ð²
ĠÐºÐ¾Ð¼ ÑĦÐ¾ÑĢ
ĠÐ¸ÑģÐº Ð»Ñİ
ĠÐ½ÐµÐ¸Ð· Ð²ÐµÑģÑĤ
ÑĩÐ° ÑİÑĤ
ĠÐ¼Ð°ÑĢ ÑĪ
ĠÑĤ Ð²ÐµÑĢ
ĠÑĦÐ¾ÑĢ Ð¼Ñĭ
ĠÐ´ÐµÑģÑı ÑĤÑĮ
ĠÐ°Ð³ ÐµÐ½ÑĤ
ĠÐ½Ð° ÑĢÑĥÑĪ
ĠÐ¸Ð· Ð´ÐµÐ»
ĠÐ¡ Ñĥ
ĠÐ¸ÑģÐ¿Ð¾Ð»ÑĮÐ· Ð¾Ð²Ð°Ð½Ð¸Ñı
ĠÐ¼ Ð¸Ñģ
ĠÐº Ð»ÐµÑĤ
ĠÑĥ ÑĩÐµÐ½
ĠÑĦ Ð¾ÑĢÑĥ
Ð½Ñĥ Ð²ÑĪÐ¸ÑģÑĮ
ĠÑĨ ÐµÑĢÐºÐ¾Ð²
ÐĴ Ðŀ
ĠâĢ ¢
0 8
Ð± Ð¾Ð¼
Ġre t
ĠÐ± Ð¸Ð±Ð»Ð¸
a ir
ĠÐº Ð¾Ð»Ðµ
ĠÑģÑĤÐ¾ ÑıÐ»
ĠÐ¿ÐµÑĢÐ²Ñĭ Ðµ
ĠÐ¿ÑĢÐ¸ Ð²Ð»ÐµÐºÐ°
ak ing
ÑĢÐ¸ Ð¿
Ð´Ð° Ñħ
Ð¸ ÐºÐµ
ÑĢ ÐµÐ½Ð¸Ðµ
ib le
Ġm ade
ĠÐµ Ñħ
Ð´Ð° Ñı
Ð·Ñĭ Ð²Ð°Ð»Ð¸
ĠÐ§ ÐµÐ¼
Ñı Ð·
ÑĤÐ° ÑĤÑĮ
ĠÐ¼Ð½ ÐµÐ½Ð¸Ñİ
ĠÐ³ Ñĥ
ĠÐ¿Ð° ÑĨÐ¸
ĠÐ¿ÑĢÐµ ÑģÑģ
Ð´Ð¸ Ñı
ĠÐĽ Ñĥ
Ġs m
Ðĵ Ðŀ
ĠÐ¿ÑĢÐµÐ´ ÑģÐµÐ´Ð°
ĠÑĢÐµÑĪÐ¸ Ð»Ð¸
ĠÐ²Ðµ ÑģÑĤÐ¸
ÑĢÐ° ÑĩÐ¸
Ð¼Ñĭ ÑĪ
Ġs et
ĠÑħ Ð¸
4 4
ĠÐ¿ÑĢÐ¾Ð´ÑĥÐº ÑĨÐ¸Ð¸
ar ch
ÑĤÐ¸ Ð²Ð¸
ĠÑģÑĩÐ°ÑģÑĤ Ð»Ð¸
Ð°Ð»ÑĮ Ð½Ð¾ÑģÑĤÑĮ
ĠÐ¿ÑĢÐ¸Ð½Ñı ÑĤÑĮ
ĠÑĤÑĢÐ°Ð½ÑģÐ¿ Ð¾ÑĢÑĤ
ĠÐ·Ð½Ð° Ð¼ÐµÐ½Ð¸
ĠÐ¼ Ð»Ð°Ð´
Ñİ Ð·Ð°
ĠÐ¼ Ð°Ð¹
al e
ĠÐŀÑģ Ð½Ð¾Ð²
? "
ĠÐ¾Ð¿ Ð¸ÑģÐ°
ĠÐ¼ ÑĥÑģ
ÑĮ ÐµÐ²
Ñĭ ÑĤÑĭ
ĠÐ½ÐµÐ¿Ð¾Ñģ ÑĢÐµÐ´
ĠÑĤÐµÐ¿ Ð»
Ðº Ð½Ð¾Ð²
ĠÐ¾ÐºÐ°Ð· Ð°Ð»Ð¾ÑģÑĮ
ĠÐ´ ÑĥÐ¼Ð°Ð»
ĠÑĦÐ¸Ð» Ð¾Ñģ
ÑĨÐ¸Ð¾Ð½ Ð½ÑĭÐ¹
ĠÐ¼Ð°ÑĪ Ð¸Ð½
ĠÐ¿ÑĢ Ð¾Ð¶Ð¸
ĠÐ·Ð° Ñħ
Ġbet ween
ĠÐ· ÐµÐ»ÐµÐ½
ĠÐºÑĥÐ»ÑĮ ÑĤÑĥÑĢ
ĠÐ¿Ð»Ð° ÑĤÑĮ
Ġkn ow
ĠÐ¸ Ð¼Ñĥ
ĠÐ¿Ð°Ð¼ ÑıÑĤÐ¸
at a
ĠÐ´ÑĥÐ¼Ð° ÑĤÑĮ
ĠÐ³Ð»Ð°Ð·Ð° Ñħ
ĠÐ±Ð¾Ð»ÑĮÑĪ Ð¾Ðµ
ĠÐ²ÑĢÐµÐ¼ÐµÐ½ ÐµÐ¼
ĠÐºÐ°ÑģÐ° ÐµÑĤÑģÑı
ĠÐľ Ð°Ð¹
ĠS h
ÑĩÐµ ÑģÑĤÐ²Ðµ
ĠÐ¿ Ð°Ðº
ÑĢÐ¸Ð³Ð¸Ð½ Ð°Ð»
ĠÑįÐ»ÐµÐº ÑĤÑĢÐ¸
ĠÑģÐ¿ ÐµÐº
9 9
ĠÑĦÐ°Ðº ÑĤ
Ġe ff
Ġc o
Ġl ong
ĠÐ¿Ð¾Ðº Ð¾Ð»
ĠÐ² ÑģÐº
ĠÐ¾Ð±ÑĢÐ° ÑĤÐ½Ð¾
Ġn um
ĠÐ½Ð°Ð¹ Ð´
ĠÐ¿Ð¾Ð½Ñı ÑĤÐ½Ð¾
ĠÑĦÐ¸ Ð³Ñĥ
ĠÐ¸ Ð¼ÐµÐ½
ĠÑĢÐµ ÑģÑĤÐ¾
Ġd own
ĠÐ»Ð¾ ÑĪÐ°
ĠÐ¿ Ð°Ð½
Ġ Z
Ð½ ÐµÐ´
Ñī ÐµÐ½Ð¸Ð¸
Ġ200 9
ĠÑģÐ¼Ð¾Ð¶ ÐµÑĤ
ĠÐ¼ÑĭÑģÐ» ÑĮ
ĠÐĵ ÑĢÐ¸
ĠÑģÐ»ÐµÐ´ÑĥÑİÑī Ð¸Ð¹
Ġtr ans
ourn al
x b
ĠÐ²ÑĭÐ±ÑĢÐ° ÑĤÑĮ
Ġ own
ĠÐ¼Ð½ ÐµÐ½Ð¸Ðµ
ĠÑģÐ¾Ð¶Ð°Ð» ÐµÐ½Ð¸Ñİ
ĠÑĢÐ°Ð·Ð½Ð¾ Ð¾Ð±ÑĢÐ°Ð·
ĠÐ³Ð»ÑĥÐ± Ð¾Ðº
il ity
as h
ÑģÑĤÐ° Ð¼Ð¸
ĠÐľÐ¸ Ð½Ð¸
Â Ń
ĠÐ¿Ð»Ð° ÑģÑĤÐ¸
ĠÐ¾ÑģÑĤ Ð°Ð»Ð¾ÑģÑĮ
Ð³Ð»Ñı Ð´Ñĭ
Ð¿Ð¾ ÑĢÐ°
Ġl ook
ĠÑģ ÑħÐ¾Ð´
Ð°Ð»ÑĮ Ð½ÑĭÐ¼Ð¸
ĠÐ¿ÑĢÐ¸ ÑĩÐ¸Ð½Ð°
ÑĤ Ð°Ð»Ð¸
ĠÐ½Ð°ÑĩÐ¸Ð½Ð° ÐµÑĤ
ĠÐ¿ÑĢÐ¾ÑĪ Ð»Ð¾
ÑĤÐ¸Ð² Ð½Ð¾Ð¹
ÑĤÐ¾ ÑĢÐ¾Ðµ
ÑĢÑĥ Ð±
ĠÑĥ Ð¼ÐµÐ½ÑĮ
ÑĢÐ¸ Ñģ
ĠÐ´Ð¸Ð·Ð° Ð¹
ĠÐ²Ð»Ð° ÑģÑĤÑĮ
Ġw ay
ĠÐ¿ÐµÑĢÐ²Ñĭ Ñħ
ĠÐĲ Ð¼ÐµÑĢÐ¸
ĠÐ¶ÐµÐ»Ð° Ð½Ð¸Ðµ
ĠÑĤÐµÐ¼ Ð½Ð¾
ÐµÐ½Ð¸Ñı Ñħ
ĠÐ¿ÑĢÐµÐ´Ð¿ÑĢÐ¸ Ð½Ð¸Ð¼Ð°
ÑĢÐµ ÑģÑĤ
ĠÐ¢ ÑĥÑĤ
ĠÑĨÐµÐ½ÑĤ ÑĢÐ°
ÐĶ Ð»Ñı
Ġus e
ĠÑģÐ¸ Ð³
ĠÐ½ÑĥÐ¶ Ð½Ñĭ
Ð¾Ð» Ð¾Ñģ
Ð½Ð¸ Ð»ÑģÑı
ĠÐ¿Ð¾Ð»ÑĥÑĩÐ° ÐµÑĤÑģÑı
ĠÑģÐ¼ÐµÑĢ ÑĤÑĮ
ĠÐ½Ð°Ð·ÑĭÐ²Ð° ÐµÑĤÑģÑı
ÐĽ Ð¬
ÑĪ ÐµÐº
Ð¸Ð»ÑĮ Ð½Ð¾
ĠÐ½Ð¾Ñĩ ÑĮÑİ
ĠÐ±ÑĥÐº Ð²
ÑģÑĤÐ¾ Ñĩ
ĠÑģÐ¾Ð· Ð´Ð°ÑĤÑĮ
ĠÐ§ ÐµÑĢÐµÐ·
Ġc ol
ĠÑģ ÐµÐ»
ĠÐ¿ÑĢÐµÐ´ ÑģÑĤÐ°Ð²Ð»ÑıÐµÑĤ
ĠÐ¶ Ð¸Ð»ÑĮ
ĠÑĢÐµÐ±ÐµÐ½ Ð¾Ðº
ĠÐ¾ ÑĢÑĥÐ¶Ð¸
ĠÐł Ð°Ñģ
ĠÐ°Ð²ÑĤÐ¾Ð¼ Ð°
ĠÐºÐ°Ðº Ð¾Ð¼
ĠÐ½Ð° Ð¼ÐµÑĢ
ÐµÐ½Ð¸Ñı Ð¼Ð¸
ĠÐ° ÑĢÐµÐ½
Ġr ight
ÑĤ Ð½ÑĭÐµ
ĠÐ¼Ð°ÑĤÐµÑĢÐ¸ Ð°Ð»Ð°
Ġ ÑĢÐ¾Ð²
ĠÐ£ÐºÑĢÐ° Ð¸Ð½Ðµ
Ð¾ÑĢ Ð¾Ð¼
ĠÐ¾ÑĤ Ð´Ð°
ÑĢÐ¾Ð²Ð° ÑĤÑĮÑģÑı
Ġpro v
Ð¼Ð¾ÑĤÑĢÐ¸ ÑĤÐµ
ÑĢÐ¾Ð²Ð°Ð½ Ð½ÑĭÑħ
ĠÐ¿ÐµÑĢÐ²Ñĭ Ð¼
ĠÐ¿Ð¾Ð´ ÑĥÐ¼Ð°Ð»
ĠÐ± Ð¸Ð»
ĠÐľ Ð¾ÑĢ
ĠÑĩ Ðµ
ĠÑģÐ¾Ð·Ð´Ð° Ð½Ð¸Ñı
Ð°Ð» ÐµÐ½
ĠÑĤÐ¸Ñħ Ð¾
u res
ĠÑģ Ð»Ð°Ð²
Ð½ ÐµÐ½Ð¸Ñİ
ou se
ÑģÑĤ Ð½Ð¾Ð¹
ĠÑģ Ð¾Ð½
Ñī ÐµÐ¼
ĠÑģÐ¸ Ð´
ĠÐĺÐ²Ð° Ð½Ð¾Ð²
h ip
ĠÑĩÐ¸ÑĤ Ð°ÑĤÑĮ
ĠÐŁÑĢÐ°Ð² Ð´Ð°
ĠÐ±Ðµ ÑģÐº
ĠÐº ÑĢÐ¾Ð²Ð°
ĠÑĤÐµÐ¿ Ð»Ð¾
ĠÑĥ ÑĩÐµÑĤ
Ñı ÑĢ
Ġbe fore
Ð¸ÑĤÐµÐ»ÑĮ Ð½Ð¾Ð³Ð¾
ÑĦ Ñĭ
Ġs ur
ĠÐ¸Ð½ ÑĤÐµÐ»
ĠÑĢÐ°Ð· Ð²ÐµÐ´
Ġin s
Ðł Ðĺ
Ñģ Ð»Ñı
ĠÐ¿Ð¾Ð´ ÑĥÐ¼Ð°
ĠÐ½Ð°Ð»Ð¸ ÑĩÐ¸
ĠÐ¿ÑĢÐ¾Ð±Ð»ÐµÐ¼ Ð°
ĠÐ¸Ð¼ Ð¿
ĠÐ»ÑİÐ± Ð¾Ð¼
ĠÐ¿Ð¾Ð» Ð½Ð¾Ð¼
ĠÐ²ÐµÐ´ ÑĥÑī
ĠÐĲ Ðº
Ġ200 8
ĠÑģÐ² ÐµÐ´
ĠÐ°Ðº ÐºÑĥ
ÑĤÐ¾ Ð½Ð°
Ġ( "
ĠÐ´ÐµÐ»Ð° ÑİÑĤ
ĠÑĪÐº Ð¾Ð»Ðµ
ĠÑģÑĤÑĢÐ° ÑĤÐµ
Ð¸ ÑģÑĤ
ĠÐ´ÐµÐ²ÑĥÑĪ ÐºÐ¸
ĠÑħÐ¾ ÑĩÐµÑĪÑĮ
ĠÑĤÐµÐº ÑģÑĤ
ĠÐ¸ÑģÑĤÐ¾ÑĢÐ¸ Ñİ
ĠÐ¿Ð¾Ñģ Ð¼Ð¾ÑĤÑĢÐµÐ»
ĠÐ¼ Ð¸Ð¼Ð¾
ĠÐ± ÑĢÐ°ÑĤ
u es
) :
ÑĤÐµÐ»ÑĮ Ð½Ð¾Ð¹
ÑģÑĤÐ¸ ÐºÐ¸
ĠÐ¢Ð°Ðº Ð¸Ð¼
ĠÐ±Ð¾ ÐµÐ²
ĠÑģÑĭ Ð½
o x
Ñģ Ð°Ð¼
ĠÐºÐ° ÑĤÐ°
m in
Ġim p
ĠÐ¿ÑĢÐµÐºÑĢÐ° ÑģÐ½Ð¾
ÑģÑĤÐµÐ¿ ÐµÐ½Ð½Ð¾
ĠÑģÐ¸ÑģÑĤ ÐµÐ¼Ñĥ
ĠÐ¾Ðº Ð½Ð°
Ġbe l
ĠÐ²ÐµÑĩÐµÑĢ Ð¾Ð¼
ĠÐ½Ðµ Ð²ÐµÑĢ
ĠÐ¾ÑĤÐ´Ñĭ ÑħÐ°
Ð²ÐµÐ´ Ð¾Ð¼
ĠÑģÐ¿Ð° ÑģÐ¸Ð±Ð¾
ĠÐ¼Ð¾ Ñİ
ĠÐ°ÑĢÑħ Ð¸ÑĤÐµÐº
Ð½Ð¸ Ð½Ð°
Ġse e
Ð¾Ð² Ð°Ð»ÑģÑı
ĠÑħ ÑĢÐ¸ÑģÑĤÐ¸
Ġc ount
ĠÐ¿Ð¾Ñħ Ð¾Ð¶Ðµ
ĠÐ¿ÑĢÐ¸ÑħÐ¾Ð´ Ð¸ÑĤÑģÑı
ÑĩÐ¸ÑĤ Ð°ÑĤÑĮ
ÑİÑīÐ¸Ðµ ÑģÑı
ĠÐ²Ð· Ð´Ð¾Ñħ
ĠÐ¼Ñĥ Ð½Ð¸ÑĨÐ¸Ð¿
ĠÐŀ ÑĤÐµ
ĠÐ¸ÑģÐ¿ ÑĭÑĤÐ°
ĠÑģÐ²ÐµÑĤ Ð°
ÐµÐº Ñĥ
ĠÐ²Ð¾ ÑĢÐ¾
ĠÐ² Ð¸ÑĤ
Ġ19 5
ĠÑģÐ¿ÑĢÐ¾ÑģÐ¸ Ð»Ð°
ÐµÑĢÐ¸ ÑĤÑĮ
ĠÑģÐ¾ ÐµÐ´Ð¸Ð½
ĠÐ¢ ÑĥÑĢ
ĠÐº Ð¸ÑĤÐ°Ð¹
ĠÑĢÐ¾Ð´ Ð¸ÑĤÐµÐ»ÐµÐ¹
ĠÐ¾Ð± Ð²Ð¸Ð½
ĠÐ»ÑİÐ± Ð¸ÑĤ
ÑīÐ¸ ÐºÐ¾Ð²
w ay
ÑĢÐ° Ð²Ð¾
ĠÐ¿Ð°ÑĢ ÑĤÐ¸Ð¸
Ð¾Ñģ Ð»Ð°Ð²
ÑĤÐ¾ÑĢ Ð¾Ð¹
ĠÐ·Ð° Ð¹
Ð½Ð¸ Ð¼Ð¸
Ð½Ñı ÐºÐ°
ĠÐ²Ð¾Ð´ Ð¾Ð¹
ĠÐ´Ð¾ÑĢ Ð¾Ð³Ð¸
ĠÐ¾ÑģÑĤÐ° ÐµÑĤÑģÑı
ĠÐ¿ÐµÑĢ ÐµÐ½
ÐµÐ½ÑĮ Ðµ
ĠÐ¶ Ð¸ÑĤÐµÐ»ÐµÐ¹
Ðµ ÑħÐ°
Ð½Ð°Ð´ ÑĨÐ°ÑĤÑĮ
ÐĽ Ðŀ
ÐµÐº Ñģ
a ve
ĠÐ¿ÑĢÐ¾ÑĨ ÐµÐ´Ñĥ
ÑģÑĤ Ð¸ÑĤÑĥ
ĠÐ±ÐµÑĢÐµ Ð¼ÐµÐ½
ĠÐ¼Ð¾ÑĢ Ñı
ĠÐ¾Ð±ÑĢÐ° Ð±Ð¾ÑĤ
ÑĤÐ¸ÑĩÐµÑģÐº Ð¸Ðµ
ÑģÐº Ð¾ÑĢ
ÑģÑĤÑĥÐ¿Ð° ÐµÑĤ
ĠÐ¼Ð° Ð³Ð¸
ĠÐ·Ð° ÑĢ
Ġt ra
Ð³Ð° Ð´
Ġsh ould
ÑģÑİ Ð´Ð°
an y
ĠÐŁÐ¾Ñģ Ð»ÐµÐ´
ĠÑĥÑĩ ÐµÐ½Ð¸
ÑĢÐ°ÑĤ Ð½Ð¾
ĠÑĩÐ¸ ÑģÐ»Ð¾
ĠÐĳ ÐµÑĢ
ĠÐ·Ð½Ð° ÑĩÐµÐ½Ð¸Ðµ
ĠÑģÐ»ÑĥÑĩÐ° ÑıÑħ
Ġm uch
ĠÐ´Ð²Ð° Ð´ÑĨÐ°ÑĤÑĮ
Ġfor m
ĠÐ¾ÑĤÐ¿ ÑĢÐ°Ð²Ð¸
Ð°Ð»ÑĮ Ð½Ð¾ÑģÑĤÐ¸
ĠÐ¿Ð¾Ð¼ Ð¾Ð¶ÐµÑĤ
Ġ9 0
ĠÑĥ Ñħ
at ch
ĠÐ¿ÑĢÐ¸ ÑĪÐµÐ»
ĠÑįÐºÑģÐ¿Ð»Ñĥ Ð°ÑĤÐ°
ĠB ut
ĠÐ±ÑĥÐ´ ÐµÑĤÐµ
ĠÑĢÐ¾Ð¼ Ð°Ð½
ĠÐ¿ÑĢÐ¾ Ñħ
Ð½ ÐµÑĤÐµ
ĠÐ°Ð² ÑĤÐ¾Ð±
Ġte am
Ð´ Ð½Ð¾
Ð» ÑĥÑĪ
ent ly
ĠÑģÑĤ ÑĥÐ¿
ÑĢÑĭ Ñħ
t en
ĠÐ¾ÑĦÐ¸ ÑĨ
ĠÐ·Ð°Ðº Ð¾Ð½Ð°
ĠÐ½Ð° ÐºÐ°
10 0
ĠÑĢÐµÐ· ÐºÐ¾
ĠÐºÐ¾ ÑĦÐµ
ĠÐ´Ð¾ÑĢ Ð¾Ð¶
ĠÑģÐ¿ Ð¸Ñģ
ÑĤÐ¸ÑĩÐµÑģÐº Ð¾Ð¹
ĠÐ¸ÑģÑģÐ»ÐµÐ´ Ð¾Ð²Ð°Ð½Ð¸Ñı
ĠÐ²Ð¾Ð·ÑĢÐ° ÑģÑĤÐ°
ĠÑģÑĦ ÐµÑĢÐµ
ĠÐºÐ° Ð´
ĠÐ½ÐµÐ¾Ð±ÑħÐ¾Ð´Ð¸Ð¼Ð¾ ÑģÑĤÐ¸
ĠÑĤ Ð°Ð»
ĠÐ¸ÑģÐº Ð°ÑĤÑĮ
ĠÐºÐ¸ ÑģÐ»
Ġs im
ĠÑģÐµ ÑĢÐµÐ´
Ġth ose
Ġ ra
ĠÑĥÐ´Ð¾Ð² Ð»ÐµÑĤ
Ð¸Ð» ÐµÐ¹
108 4
ĠÐ³Ð¾Ð´ Ð¾Ð²
Ð°ÑģÑģÐ° Ð¶Ð¸
ĠÐ´Ð¾ÐºÑĥÐ¼ÐµÐ½ ÑĤÐ¾Ð²
Ð¾Ð¿ Ð¸
ĠÐ¾Ñģ Ð²Ðµ
Ġe ar
ĠÐ¾Ð± Ð½Ð¾Ð²
Ð¾Ð± Ðµ
ĠÐº Ð¾Ð»ÑĮ
! Â»
ĠÑģÐ¸Ð¼ Ð²Ð¾Ð»
Ñĥ ÑģÐ»Ð¾Ð²
ĠÐ±ÐµÑģ Ñģ
Ġâ Ħĸ
ĠÑģÐ»ÑĥÑĩ Ð¸Ð»Ð¾ÑģÑĮ
ĠÐ½Ð°Ð¿ Ð¾Ð¼Ð¸Ð½Ð°
ĠÑĦ Ð°Ð½ÑĤÐ°
ĠÐ¿Ð¾ ÑĢÑĥ
ĠÐ¸ Ð½Ð¸
Ð²Ñı Ð·
ĠÐ¼ ÑıÑģ
ĠÐĳ Ð°ÑĢ
Ð² Ð¾Ñģ
ĠÐ·Ð°ÑīÐ¸ÑĤ Ñĭ
ĠÑĦÐ¾ÑĤ Ð¾Ð³ÑĢÐ°ÑĦ
Ð¾Ð½ Ñĥ
Ġ7 0
ĠÐ±Ð¾Ð»ÑĮÑĪ Ð°Ñı
ĠÐ´Ð¾ÐºÑĥ Ð¼ÐµÐ½ÑĤÐ°
ĠÐº ÑĥÑģ
Ġs ystem
ÑĢÐµ ÑĤÑĮ
ĠÐ¸Ð³ ÑĢÐ¾Ðº
om et
ÐĴ ÐĶ
Ð±Ð¸ ÑĢ
ĠÐºÐ°ÑĩÐµ ÑģÑĤÐ²Ð¾
Ð¢ ÐĲ
Ð¼ ÐµÐ¹
Ġd on
Ð² Ð¾Ð»ÑĮ
ĠÑĪ ÑĤÑĥ
Ñī Ð¸Ð¼
ĠÐ¶ ÐµÐ½Ð°
ĠÐºÐ¾Ð½ÑĦ Ð»Ð¸Ðº
ĠÐ¿ÑĢÐ¸ Ð²ÐµÑĤ
ĠÐĲÐ½Ð´ ÑĢÐµÐ¹
ÑģÑĤÑĢÐµ Ðµ
ĠÐ¿ÑĢÐ¾Ð¿ Ñĥ
ĠÐº Ð¾Ð´
ÑĪÐ¸ Ð½Ð°
ĠÑĪ ÐµÐ»
ĠÐŁ Ð¾Ð·
ĠÐŀ Ðº
ĠÑģÐ¾Ð¾Ð±Ñī Ð¸Ð»
ĠÐ´ÐµÐ¹ÑģÑĤÐ² Ð¸Ð¹
Ð¾Ðº Ñĥ
ĠÑĢÐ°ÑģÐº ÑĢÑĭ
Ġl ast
ĠÐŀÐŀ Ðŀ
ÑĢÐµÑģ Ñģ
ĠÐ¸ Ð¼Ð¸
ĠÐ¿Ð¾ÑĤ ÐµÐ½
ĠÐ±Ð¾Ð»ÑĮÑĪÐ¸Ð½ ÑģÑĤÐ²Ð¾
ĠÐ¿Ð¾Ð´ Ð½Ð¸Ð¼Ð°
% .
ĠÐ½Ð°Ð¿ Ð¾Ð»
Ġsh ow
ĠÐ¿Ñĥ ÑģÑĤ
Ð¸Ð· Ð²Ð¾Ð´
ĠÐ´ÐµÑĢÐµÐ² ÑıÐ½
ĠÑģ Ð»Ð¾
Ð´ÑĢÐ°Ð² ÑģÑĤÐ²Ñĥ
ÑģÐº Ð¾Ð¿
ĠÐ¼Ð°ÑĪ Ð¸Ð½Ñĥ
Ð±Ð¾ÑĤ Ð°
ÑīÐ° ÑİÑĤ
ĠÑģÑĤ ÐµÐ½Ñĭ
ĠÑĥ ÑĢÐ¾Ðº
c ted
ĠC l
ĠÐ²Ñĭ ÑĢÐ°Ð¶
ÑĪ ÑĳÐ»
ĠÐ½Ðµ Ñĥ
ĠÐ´Ð¸ Ð°Ð³
ĠÐ¿ ÐµÑĤ
ĠÐ½Ð¾ ÑĩÐ¸
ĠÐ²Ð¸ Ð¶Ñĥ
ĠÐ¿ÐµÑĢÐ² Ð¾Ð¼
ÑĭÑħ Ð°
ĠÐ´Ð²ÑĥÐ¼ Ñı
ĠÐ¶ Ð´Ð°ÑĤÑĮ
ĠÐ´ÑĢÑĥÐ· ÐµÐ¹
ÑĨ Ð²ÐµÑĤ
ĠÐºÐ°Ð½ Ð´Ð¸
Ð¾Ð½ ÑĤ
am es
Ð·Ð° ÑĤÐµÐ»ÑĮ
ĠÑĥÐ²ÐµÑĢ ÐµÐ½
Ġm on
ĠÐ¸Ð³ ÑĢÑĥ
ÑĢÐµ ÑģÑĤÐ¸
ĠÐ´Ð¾ÑĢ Ð¾Ð³Ðµ
ĠÐ¸Ð½ Ð²ÐµÑģÑĤÐ¸
ĠÐ· Ð»Ð¾
ĠÑİÑĢÐ¸ Ð´Ð¸
; ;
Ġf ound
o te
ri v
ĠÐ¡ÐµÑĢ Ð³Ðµ
ĠÑģÐ¼Ñĭ ÑģÐ»Ðµ
ĠÐ¡ ÐµÐ²ÐµÑĢ
ĠÐ¡ ÐµÐ¼
ĠÐ¡ ÐľÐĺ
Ðµ ÑģÐ»Ð¸
oll ow
ĠÐ¿ Ð»ÐµÐ½
ĠÐ²Ñĭ Ð±Ð¾
e ver
ĠÐ´Ð¾ÐºÑĥÐ¼ÐµÐ½ ÑĤÑĭ
ĠÐ½Ð°Ð¿ Ð¾Ð¼
ĠÐĵÐ¾Ñģ Ð¿Ð¾Ð´
ĠÐ± ÑĢÐ¾ÑģÐ¸
ĠÐ¼Ð¸Ð»Ð»Ð¸ Ð¾Ð½Ð¾Ð²
ĠÑĢÐ°Ð· ÑĥÐ¼
ĠÐ»Ðµ ÑģÑĤ
ĠÐ¿ ÑĢÑĭ
ĠÐ¶ Ð°ÑĢ
ĠÑģ ÐµÐ²ÐµÑĢ
ĠÐĵÐµÑĢÐ¼Ð° Ð½Ð¸Ð¸
ĠÑģÐ°Ð¼ Ð°Ñı
Ð°Ð½ Ð½Ð¾Ðµ
Ġm in
Ð´ ÑĢÑĥÐ³
Ð¸Ð» Ðµ
ĠÑĢÐ¾ ÑģÑĤ
Ġ8 0
ĠÐ·Ð° ÑĢÐµÐ³Ð¸ÑģÑĤÑĢÐ¸
= "
ĠÑįÐ»ÐµÐºÑĤ ÑĢÐ¾
Ð»Ð¸ Ð·
ĠÑĩÑĥÐ² ÑģÑĤÐ²Ð¾
ĠÐ·Ð½Ð° ÑİÑĤ
ĠÐ´ÐµÑģÑı ÑĤÐ¸
ÐŁ Ð¾Ð¼
is m
ĠÐ¿Ð¾Ð· Ð°
Ġh igh
Ð³Ð° Ñħ
ĠÑģÐ¿ Ð°ÑĤÑĮ
o h
ĠÐ³ÑĢÑĥÐ¿ Ð¿
ĠÐ¼ ÑĥÐ´
ĠÑĨ ÐµÐ½Ð°
ÑĤÐ¸Ð² Ð½ÑĭÐ¹
ĠÐ¿Ð¾Ð´ ÑĩÐµÑĢ
ĠÐ· ÐµÑĢÐº
ĠÐ»Ð¸ Ð´ÐµÑĢ
Ð´Ð° Ð³
ĠÐ´ Ð¶
pe ct
ÐµÑĤ Ð¾Ð²
ĠÐ» Ð°Ð³
ĠÑħ ÑĥÐ¶Ðµ
ĠÑħÐ¾ÑĤ ÑıÑĤ
ĠÐ¾Ð±Ð¾ÑĢÑĥÐ´ Ð¾Ð²Ð°Ð½Ð¸Ñı
ĠÐ¿Ð¾ÑĤ Ð¾Ð»
ĠÐºÐ¾Ð¼Ð½Ð° ÑĤÑĥ
Ð¾Ð²Ð° Ð½Ð¸Ñİ
ĠÐ´ÐµÑıÑĤÐµÐ»ÑĮ Ð½Ð¾ÑģÑĤÑĮ
Ð½Ð¸ Ð»Ð¾ÑģÑĮ
Ð½Ð¸ ÐµÐ¹
ĠÐĴÐ¾Ð· Ð¼Ð¾Ð¶Ð½Ð¾
ĠÑģÐ¾Ð· Ð´Ð°Ð½
ĠÐ¿ÑĢÐµ Ð¿Ð¾Ð´Ð°
Ġ ke
3 2
ĠÐ´Ðµ ÑĪÐµ
ĠÑģ Ð°Ð´
ĠÐ¾Ð·Ð½Ð° ÑĩÐ°ÐµÑĤ
ÑĢÐ¸ ÑĤÐ°
Ð² Ð¸Ð½Ñĥ
ĠÑħ Ð¸Ð¼Ð¸
Ġs ay
ĠÐ²Ð¾Ð¿ ÑĢÐ¾ÑģÐ°
ĠÐ± Ð°ÑĪ
ĠÑĢÐ°Ñģ ÑģÑĤÐ¾Ñı
ÐµÐ¼ Ð¾Ð³Ð¾
ÐºÐ° ÑĤÐµÑĢÐ¸
ĠÐ¿Ð¾Ð´ Ð¿Ð¸
ĠÐ¿Ð°ÑĢ ÐµÐ½ÑĮ
Ð½Ð¸ÑĨ ÐµÐ¹
iel d
ÑĤ ÐµÐ»ÐµÐ¹
ĠÐ²Ð¾Ð· Ð»Ðµ
Ð°Ðº Ð°Ð½
Ġth ink
Ð¾Ð¿ ÑĢÐ¾
ĠÐ³Ð¾Ð» Ð¾Ð²Ñĭ
ĠÑĤÑĢ ÐµÐ½Ð¸
ĠÐĴ Ð¿ÑĢÐ¾ÑĩÐµÐ¼
ĠÐ¿Ð¾ ÑģÑĤÐ°Ð½Ð¾Ð²
ĠÐ½Ð¸ÐºÐ°Ðº Ð¾Ð³Ð¾
ĠÑģ Ð½Ð¸Ð¼Ð°
ĠÑĥÐ¿ Ð¾ÑĤÑĢÐµÐ±
ĠÑģ ÑħÐ²Ð°
in a
an n
Ð½ Ð¾Ð¶
ĠÐĳ Ð¾Ð³Ð°
Ġ5 00
Ð¿ Ð¾ÑĤ
ĠÐ¿ÑĢÐ¸ Ð²ÐµÐ´
Ð´Ð¸ ÑĪÑĮ
ist s
ĠÐ¿Ð¾Ð»Ð¾Ð¶ ÐµÐ½Ð¸Ðµ
ĠÑĢÐ¾Ð´ ÑģÑĤÐ²ÐµÐ½
Ð¾Ð´ ÐµÐ¹ÑģÑĤÐ²
ĠÐºÐ¾Ð¼Ð¿Ð° Ð½Ð¸Ð¹
c k
Ð¸ÑĤ Ñĭ
ĠÐ¾ÑĢ Ð³Ð°Ð½Ð¾Ð²
ĠÐ½Ð¾Ð² ÑĥÑİ
ĠÑģÐ»Ð¾Ð¶ Ð½Ð¾
ÑĪÐ° ÐµÑĤÑģÑı
ÐĽ Ðĺ
Ð¿ Ð»Ð¾Ð¼
ĠÑĤ Ñī
Ð²Ð° ÑĤÐµÐ»ÑĮ
ĠÐ¿ÐµÑĢ ÑģÐ¿ÐµÐº
ĠÑĪ ÑĥÐ¼
ĠÐºÐ¸Ð» Ð¾Ð¼ÐµÑĤ
ĠÐ½ÑĭÐ½Ðµ ÑĪ
c on
ĠÐº Ð¾Ð¶Ð¸
ĠÐ¼Ðµ ÑĪ
g et
ĠÐ¼Ð¸Ð½Ð¸ Ð¼Ñĥ
ĠÑĦ Ð¸Ð½
Ñı Ð»Ð°ÑģÑĮ
ĠÐĿ Ð¾Ð²Ð¾
ÑģÑĤ ÐµÑĢÐ°
Ñĭ Ð´Ñĥ
Ðł Ð°
Ġdif fer
ĠÐ¾Ðº ÑĢÑĥÐ¶
Ñĥ Ð¹
ĠÐ¿ÑĢÐ¾Ð² ÐµÑģÑĤÐ¸
ÑĤ Ð½ÑĭÑħ
ĠÑįÐ½ÐµÑĢ Ð³
Ð² Ð¾Ð³Ð¾
ĠÐķ Ðµ
ĠÐ¿Ð¸ÑĪ ÐµÑĤ
Ð¡ ÑĤ
ch ool
ĠÐ¼Ð¾Ð» ÑĩÐ°
ĠÐĲ ÑĦ
Ġwh ile
ĠÐ³Ð¾Ð» ÑĥÐ±
Ġth ree
ÑĤÐ¸Ð² Ð½Ð¾Ð³Ð¾
ĠI I
ĠÑĢÐµÐ³Ð¸ Ð¾Ð½Ð°
Ð»ÑĮ Ð½Ð¾Ð³Ð¾
ÐµÐ»Ð¾Ð² ÐµÐº
Ġm em
ÑĩÐ¸ÑĤ Ð°
ÑĨ Ð¾Ð¼
ĠÐ½Ð° Ð¾Ð±Ð¾ÑĢÐ¾ÑĤ
ĠÐ¾Ñģ Ð¾Ð·Ð½Ð°
ĠÐ½Ð° ÑģÐºÐ¾Ð»ÑĮÐºÐ¾
ĠÐ½ÐµÐ´ Ð²Ð¸Ð¶
ĠÐ¼ Ð¾Ð±Ð¸Ð»ÑĮ
Ġ Q
ĠÐ¿Ð¾ÑģÐ»ÐµÐ´ Ð½ÐµÐµ
Ġ !
ĠÐºÐ¾Ð¼Ð¿ÑĮÑİÑĤ ÐµÑĢ
ÑĢÐ¸ ÐºÐ¸
Ġg overn
ÐºÐ¾ÑĤÐ¾ÑĢÑĭ Ðµ
ĠÐ½Ð° ÑĩÐ°ÑĤÑĮ
ĠÐ²ÑĢÐµÐ¼ÐµÐ½ Ð°
ĠÐ¿ÑĢÐµÐ·Ð¸Ð´ ÐµÐ½ÑĤ
ĠÐ¿Ð°ÑĢÑĤ Ð½ÐµÑĢ
ĠÐ² Ð²ÐµÐ´
4 8
ĠÐ¾ ÑĢÐ¸Ð³Ð¸Ð½
ers on
ĠÐĵ ÐµÐ½
ĠÐ·Ð½Ð°Ñĩ Ð¸ÑĤÐµÐ»ÑĮÐ½Ð¾
Ð¶ Ð½ÑĭÐ¹
ĠÑĥÑĩÐ°ÑģÑĤ Ð½Ð¸ÐºÐ¾Ð²
Ð¶ Ð½ÑĭÐµ
ĠÑĢÑĥ ÐºÐ°
ĠB l
ĠÐ¾ÑĤÐ´Ñĭ Ñħ
ÑģÑĤÑĮ Ñı
Ð¼ÐµÐ½ Ñĭ
ĠÐ¿Ð¾Ð´ Ð²ÐµÑĢ
Ġl oc
ÑĪÐµ Ð±
ĠÐ¿Ð°Ð¼ ÑıÑĤÑĮ
Ð²ÑĪÐ¸Ð¹ ÑģÑı
ĠÑħÐ¾ÑĤ ÐµÐ»Ð°
ĠÑĥÐ³ Ð¾Ð»Ð¾Ð²
Ġst r
ĠÐ² Ð²ÐµÑĢÑħ
Ġus ed
ĠÐ¸ÑģÐ¿ ÑĭÑĤÑĭ
ĠÐ½ÐµÐ±Ð¾Ð»ÑĮÑĪ Ð¾Ð¹
ĠÐ¿ÐµÑĢÐµ Ð¼Ðµ
ĠÐ¿Ð¾Ð»ÑĮÐ· Ð¾Ð²Ð°ÑĤ
ĠÐ¿Ð¾Ð· Ð¶Ðµ
ÑģÑĤÑı Ð¼
Ð² ÐµÐ·
ĠÐ¿ÑĢÐ¸ ÑĩÐµÐ¼
ĠÐ§ Ð¸ÑĤ
ĠÐ»ÑİÐ± Ð¾Ð³Ð¾
Ð±ÑĢÐ° ÑĤÑĮ
Ġle ad
vel op
ÑģÐµ Ðº
ĠÐ» Ñĥ
Ġs ign
ĠÐ·Ð° Ð½Ð¸Ð¼
ĠÐ±Ð¾Ð»ÑĮÑĪ Ð¸Ð¼
at her
ĠÐ¼Ð¾Ð´ ÐµÐ»ÑĮ
ĠÑĥ ÑĩÐ¸ÑĤÑĭ
ĠÐ·Ð° Ð´ÑĥÐ¼
Ð¼ Ð¼
ĠÐºÐ»Ð°Ñģ Ñģ
ĠÐ»Ð¸ Ð½Ð¸Ð¸
Ð¾Ð³ Ð¾Ð´
201 5
ĠÐ³Ð¾ÑĤ Ð¾Ð²Ñĭ
ĠÐ·Ð° Ð´ÐµÑĢÐ¶
ĠÐ¿Ð¾Ð¼ Ð½Ñİ
ĠÑĥÐ³ ÑĢÐ¾Ð·
ĠÐºÐ²Ð°ÑĢÑĤÐ¸ ÑĢÑĭ
Ð¾Ð» Ñİ
Ð¾Ñĩ Ð½Ð¾
Ð°ÑĤ Ð°Ð»ÑĮ
ĠÑı ÑģÐ½Ð¾
l ed
ĠÐ¿Ð¸Ñģ Ð°ÑĤÑĮ
ĠÐ½Ð¸Ðº Ð¾Ð³Ð¾
Ñı Ð»Ð¸ÑģÑĮ
ĠÐ¡ ÐºÐ°
ĠÐ£ Ð¶Ðµ
ar i
Ġ3 1
ĠÐºÐ¾Ð¼Ð½Ð° ÑĤÐµ
ĠÑĢÐ°Ð·Ð»Ð¸Ñĩ Ð½ÑĭÐµ
ÐĿ Ð¸
ĠÐºÑĥÑĢ Ñģ
ĠÑģÐµÐ¼ ÑĮÐµ
ĠÐ²Ð¾Ñģ Ð¿Ð¸ÑĤ
Ð° Ð°
ÑĤ ÐµÐ»Ð¸
ĠÐĶ Ð¾Ð¼
ĠÑģ ÐµÑĢÐµ
re ad
Ð»Ð°Ñģ Ñģ
ĠÐ¿ÑĢÐµ Ð¸Ð¼Ñĥ
ĠÐ¼Ð°Ð³Ð° Ð·
ÑĢÐ¾Ð²Ð°Ð½ Ð½ÑĭÐµ
Ġin te
Ð´Ð¸ Ð½Ð¾
Ð¸ ÑģÐ¿
Ġagain st
Ġs er
Ñģ ÐµÐ½
ÑĢÐ° Ð½ÐµÐµ
Ð½ ÐµÐ½Ð¸Ð¹
ĠA s
ĠÐ´Ð¾ÑģÑĤÐ¸ Ð³
ÐµÑĢ ÑĮ
ĠÐĲ Ð»ÐµÐº
ĠÑĦ Ð°Ð¼Ð¸
c ial
Ð· ÐµÐ¹
ĠÑıÐ·Ñĭ ÐºÐ°
Ð¿ ÑıÑĤ
ĠÐ½Ðµ Ð±Ð¾
a j
Ð¸ÑĤÐµÐ»ÑĮ Ð½ÑĭÐ¼
Ð¸ÑĤÐµÐ»ÑĮ Ð½Ð¾ÑģÑĤÐ¸
ĠÐŁ Ð¾Ð¿
ÑĤÐ¸ ÑĢÐ¾Ð²Ð°ÑĤÑĮ
ĠÑģÐ¿ Ð¾ÑĢÑĤ
ĠÐ¾Ð±Ð»Ð° ÑģÑĤÑĮ
Ð¾ÑĢÑı Ð´
ĠÑħÐ²Ð° ÑĤÐ°ÐµÑĤ
ĠÐ¼Ð¾Ð¼ ÐµÐ½ÑĤÐ°
ĠÑģÐ»Ð¾Ð²Ð° Ð¼Ð¸
ĠÐ½Ð° ÑĥÑĩÐ¸
u ally
ÑĨ ÐµÑģ
ĠÐ¼Ð¸Ðº ÑĢÐ¾
ÑĨÐ¸ Ð¾Ð½Ð¸
ĠÑĢÐµ ÑĨÐµÐ¿
3 1
Ġ ed
ĠÑģÐ¾ ÑģÑĤÐ¾Ð¸ÑĤ
ÑĤÐµ Ðº
d e
Ð»ÑĮ Ñı
ĠÐ·Ð½Ð° Ð½Ð¸Ñı
Ñģ Ð¾Ðº
ĠÐ¡ ÑĤÑĢÐ°
ĠÑģÐ²Ð¾ Ñĳ
m e
Ð°Ð½ Ð½Ð¾Ð³Ð¾
ĠÐ²Ð¾Ð¿ÑĢÐ¾Ñģ Ð¾Ð²
ĠÐ¾ ÑĢÑĥÐ¶
d uc
4 7
ÑĢÑĥ ÑĤ
ĠÐ± Ð¾Ð¼
ĠÐ¾ ÑģÑĤÐ°Ð²Ð»Ñı
ĠÐ¾ÑĤ ÑĩÐµÑĤ
107 6
ĠÐ´Ð°Ð½ Ð½Ð¾Ð¹
ĠÑģÑĩÐ¸ÑĤÐ° ÐµÑĤ
ĠÐ³Ð¾Ð²Ð¾ÑĢ Ñİ
ĠÐ·Ð´Ð¾ÑĢÐ¾Ð² ÑĮÑı
ĠÐ¿Ð¾Ð·Ð½Ð° ÐºÐ¾Ð¼
ĠÐĵÐ¾Ñģ ÑĥÐ´Ð°ÑĢ
oug ht
ÑģÑĤÑĢÐµ Ð±
ĠÐļÐ° Ð¶Ð´ÑĭÐ¹
Ġe xt
ĠÐ½Ð¸ Ð¶
Ð´Ðµ Ð²
ĠÐĿÐ¸Ðº Ð¾Ð»Ð°
ĠÐ·Ð°Ð½Ð¸Ð¼Ð° ÑĤÑĮÑģÑı
Ġs erv
ĠÐ´Ð¾Ð± ÑĢÐ°
ĠÐºÐ¾ÑĤÐ¾ÑĢÑĭ Ð¼Ð¸
ĠÐ¿Ðµ Ñĩ
Ñĥ ÑİÑĤ
ĠÐ½Ð° Ñħ
al k
Ð¾Ð²Ð¾ÑĢÐ¸ ÑĤÑĮ
ÑģÑĭ Ð¿
ĠÐĿ ÐµÑģ
ĠÐ»Ð¸ ÑĨÐµ
Ð¸ ÑĪ
Ġwor ld
is ion
ĠÐ²ÐµÐ»Ð¸ Ðº
ĠÐ´ Ð¸Ñģ
ÑĩÐµÑģÐº Ð¸Ð¼Ð¸
Ġdo es
Ð´ÐµÑĢ Ð¶Ð°
ĠÐ·Ð°Ð¿ Ð»Ð°
ĠÐ¿Ð»Ð¾ÑīÐ° Ð´Ð¸
ÑĤÐ¸ Ð»Ð¸ÑģÑĮ
ĠÑģÑĥ Ð´Ð°
Ð°Ñı ÑģÑĮ
Ġ {
ĠÐ·Ð° Ð¸Ð½ÑĤÐµÑĢÐµÑģ
ĠÐ±Ð¾Ð»ÑĮÑĪ Ð¸Ðµ
ÐºÐ¾ ÑģÑĤÐ¸
ĠÐ½ÐµÐ¿ ÑĢÐ°Ð²
ĠÐ¼Ð°Ñģ ÑģÐ°
Ġt er
ĠÑĦÐ¾ÑĤ Ð¾Ð³ÑĢÐ°ÑĦÐ¸Ð¸
ĠÐºÐ¾ Ðµ
ĠÑģÐ¸ÑĤÑĥÐ° ÑĨÐ¸Ñı
ĠÐ¿ Ð°ÑģÑģÐ°Ð¶Ð¸
ĠÐ½Ð°Ñĩ Ð°Ð»Ð¾
ĠÐĴÑģ Ñĳ
ĠÐļ ÑģÑĤÐ°ÑĤÐ¸
ĠÐ¿ÑĢÐ¸ Ð²Ð»Ðµ
ĠÑģÐ¼Ð¾Ð¶ ÐµÑĤÐµ
Ġg ener
b r
W e
ĠÐ¼Ðµ Ð¶
ÐµÐ´ Ñĭ
ĠÐ½Ð¾Ð² Ð¾Ðµ
ĠÐ¸Ð¼ ÐµÐ»
ĠÐ¶Ð¸Ð²Ð¾ÑĤ Ð½ÑĭÑħ
y n
Ġ3 5
ĠÐļ ÑĥÑĢ
** **
ÑĤ Ð¾Ð»
ĠÐ¼Ð° Ð³
ĠÐ²Ñĭ Ð¿Ð»Ð°
ĠÐ±Ð¸Ð·Ð½Ðµ ÑģÐ°
Ñĩ Ð½ÑĭÐ¼Ð¸
ĠÐ»Ðµ ÐºÐ°ÑĢ
ĠÑģÐ¾Ð³Ð»Ð°Ñģ Ð½Ð¾
ĠÐ°Ð½ Ð³
ĠÐľ Ð°Ð»
ÑĢÑĥ Ð³Ð°
ĠÑĢÐ°ÑģÑģÐºÐ°Ð· Ð°Ð»
Ð¾Ð¹ Ð´
ĠÐ¼ ÐµÑĢÑĤ
Ð¾Ð²Ð° Ð½Ñĭ
ĠÐ·ÐµÐ¼ Ð»Ñı
ÐµÐ· Ð¶Ð°
ĠÐ½Ð°Ñĩ Ð¸Ð½
ÑĥÐ¼Ðµ ÐµÑĤÑģÑı
ĠÑĥÐº ÑĢÐµÐ¿
ĠÑģÐ¾Ð±Ñĭ ÑĤÐ¸Ð¹
ĠÐ¼ÐµÑħÐ° Ð½Ð¸Ð·
ĠÐĹ Ð°Ð¼
ĠÑģÐ¾ÑģÑĤÐ° Ð²Ðµ
ĠÐ¿Ð¾Ð»ÑĥÑĩ ÐµÐ½Ð¸Ñı
ĠÑĦÐ¾ÑĢ Ð¼
Ġd ist
ÑĤÑı Ð³Ð¸
ÐŁ ÐµÑĢ
ĠÐ¼Ð¾Ð»Ð¾Ð´ Ð¾Ð¹
ÑĨÐ° Ñħ
ĠÐ²Ñĭ Ð½ÑĥÐ¶Ð´
Ð±Ñı ÑĤÐ°
ĠÐ¾ÑĤÐ½Ð¾ÑĪ ÐµÐ½Ð¸Ð¹
ĠÐ´ Ð¾Ð±Ñĭ
ĠÑħÐ¾ÑĢÐ¾ÑĪ Ð¸Ð¹
ÑĢÑĭ Ð²Ð°
ĠÐ²Ð¸ Ð´Ð¾Ð²
ĠÐ¿ÑĢÐµÐ·Ð¸Ð´ ÐµÐ½ÑĤÐ°
ĠÑĤÑĢÐµ Ð²
ĠÐºÐ¾Ð¼Ð°Ð½ Ð´Ñĭ
ĠÐ¿Ð¾Ð´ ÐºÐ»Ñİ
ÑĤÐµÐ»ÑĮ Ð½Ð¾Ð³Ð¾
ĠÑģÑĤÑĢÐ¾Ð¸ÑĤÐµÐ»ÑĮ ÑģÑĤÐ²Ð°
ÑĩÐ¸ Ð»Ð°
ĠÑģ Ð¼Ð¾ÑĤÑĢÐµÐ»
ĠÑģÐ» ÐµÐ³
ĠÑģÐµÐ¼ ÑĮÑı
ĠÐ¸ÑģÐºÐ»ÑİÑĩ Ð¸ÑĤÐµÐ»ÑĮÐ½Ð¾
ĠÐ¿ÑĢÐ¾ÑĪ Ð»Ð¾Ð¼
m ail
Ð¸ÑĤ Ð¸ÑĩÐµÑģÐº
Ð¼Ñĭ ÑģÐ»
Ð¾Ð² Ð¾Ðµ
ĠÐ³ ÑĢÐ¾Ð·
ĠÐº Ð½Ð¾Ð¿
ĠÐ¿ÑĢÐ¾ÑĨÐµÑģ ÑģÐµ
Ñĩ ÑĳÑĤ
ĠÑģÐ¿Ð¸Ñģ Ð¾Ðº
Ġw ant
ĠÑĢÐµÐ³Ñĥ Ð»ÑıÑĢ
ÑĥÑħ Ð°
ĠÐ¿ÑĢÐµ Ð²Ñĭ
r on
ĠÐºÑĢÐ° Ñı
ur r
ĠÐĴ Ð¸Ð´
ĠÐ²Ñĭ ÑĢÐ°
ĠP ro
ĠÐ¿ÑĢ Ð¾Ð¶
ĠÐ¾ÑĤÐ½Ð¾ ÑĪÐµÐ½Ð¸Ðµ
Ġm et
Ðļ Ð¾Ð¼
ĠÑĦ Ð°
Ñī Ð°ÑĤÑĮÑģÑı
ĠÐ¾ ÑĢÐ¸
ÑĥÐ¶ Ð½Ð¾
ĠÑĢÐ¾ÑģÑģÐ¸Ð¹ ÑģÐºÐ¸Ñħ
ĠÐ» ÐµÐ²
ÑĦÐ¸ Ðº
ĠÑģÐ´ÐµÐ» Ð°Ð»Ð¸
ĠÐº ÑģÑĤÐ°ÑĤÐ¸
ĠÐºÐ½Ð¸ Ð³Ñĥ
ĠÑĤÐµÑħÐ½ Ð¾Ð»Ð¾Ð³Ð¸Ð¸
ĠÐ¶ Ð¸Ð´
ĠÐļ ÑĢÑĭ
ĠÐºÐ°ÑĢ ÑĤÐ¾
er n
ÐºÐ¾Ð² Ð¾Ð¹
ĠÐĶ Ð¾Ð½
ĠÐ°Ð²ÑĤÐ¾Ð¼Ð¾Ð± Ð¸Ð»Ñı
ĠÐ· Ð´Ð°Ð½Ð¸Ñı
Ð± ÑĢÑĮ
ĠÑĢÐµÐ»Ð¸ Ð³Ð¸
ĠÑĥ ÑĤÐ¾Ñĩ
ĠÐº Ð²Ð°
Ġf am
ĠÑĤÐµÑħ Ð½Ð¸ÐºÐ¸
ĠÐ¸ ÑģÑĤÐ¸Ð½
ĠÐ¾Ð¿ ÑĢÐ°Ð²
Ñī Ð°Ð»
ĠÐ¿ÑĢÐµ Ð·
ÑĢÐ°Ð· Ð´ÐµÐ»
Ð¼ÐµÐ½Ð¸ ÑĤÑĮ
ĠÐ¿ Ð¸ÑĤ
ĠÐ´Ð¾Ð¼ Ð¾Ð²
ĠÐ·Ð°Ð¼Ðµ ÑģÑĤ
Ġg u
ĠÐºÐ¾ÑĢ Ð¾Ð±
ĠÐ° ÑĥÐ´Ð¸
ĠÑĩÐµÐ¼Ð¿Ð¸ Ð¾Ð½Ð°
ĠÐ¿Ð¾Ð» Ð½Ð¾Ð¹
ĠÑģÐ»ÐµÐ³ ÐºÐ°
ÑĢÐ¾Ð²Ð° Ð½Ñĭ
Ð»ÐµÐ½ Ð½Ð¾Ð¹
" )
ĠÐ¸Ð³ÑĢÐ° ÑĤÑĮ
ĠÑĤ ÑĢÐµÐ½
ĠÐ¾Ñģ Ð¾Ð±Ñĭ
ĠÐ³Ð¾Ð» Ð¾Ð²Ð°
ĠÐ´ Ñı
ĠÐ¾ÑĤ ÑĢÐ¸
ĠÑģÐ²ÐµÑĤ Ðµ
Ð· Ð¼Ð°
ĠÐ¿Ð¸ÑģÑĮ Ð¼Ð¾
ĠÐ¼Ð¾Ð½Ð° ÑģÑĤÑĭ
ĠÑĢÐ° Ð´
ĠÑĤÑĢÐµÐ±Ñĥ ÐµÑĤ
ĠÐ¾Ð± Ð°
o ot
ĠÑĨÐµÐ½ÑĤ ÑĢÐ°Ð»ÑĮ
ĠÐ°Ð²Ð¸ Ð°
!! !!
ĠÐ¿Ð¾Ð´ ÐµÐ»
Ð¿ ÐµÑĢÐµ
Ðļ Ðĺ
ĠÐ²Ð¾Ð· Ð±
ĠÐ¼ÐµÑģÑĤÐ° Ñħ
Ð¼ Ð¾Ð»
ĠÐĽ ÑĥÑĩ
ĠÐļ Ð°Ð¼
? ..
in es
ĠÑĩ Ð¸Ñģ
ĠÑģÐ¾Ð»Ð½ ÑĨÐµ
7 7
Ð³ Ð¾ÑĤ
ÑģÐ¸ Ð»Ð¸Ñı
ĠÐ¢ Ð¾Ð¼
ĠÐ±Ð¾Ð»ÑĮÑĪ ÑĥÑİ
Ð» Ð»
ÑĤÐ¸ÑĩÐµÑģÐº Ð¾Ð³Ð¾
ĠÐ´Ð¸ Ð¿Ð»Ð¾Ð¼
Ð² Ð¾Ð´Ð°
Ġhe l
ĠÑģÑĩÐ¸ÑĤ Ð°ÑĤÑĮ
ĠÐ½ÐµÐ¿ Ð¾Ð´
ĠÑģÐ°Ð¼Ð¾ÑģÑĤÐ¾ÑıÑĤÐµÐ»ÑĮ Ð½Ð¾
ÑĢÐ¾Ð² Ð¾Ð´
Ġ201 7
ĠÐ¿Ð¾Ð»ÑĥÑĩÐ¸ Ð»Ð¸
ĠÐ´Ð¾Ð² ÐµÑĢ
ĠÐ·Ð° Ñı
ĠÐ·Ð°Ð¿ Ð°Ñģ
ĠÐ´Ð¸ÑĢÐµÐº ÑĤÐ¾ÑĢ
ĠÐĽ ÐµÐ½Ð¸Ð½
ĠÐ¾ÑĤ Ð·Ñĭ
ĠÐµ Ð¶
ÑĩÐ¸ Ð²Ð°ÐµÑĤÑģÑı
ĠÑĤÐ¾ Ñĩ
Ġs ame
ÑĤÐ¾ ÑĢÐ¸Ð¸
ĠÐºÐ¾Ð½ÑĤÑĢ Ð¾Ð»ÑĮ
ĠÐ· Ð¾Ð²
ĠÑĩ ÑĳÐ¼
Ð¶Ð´Ð° Ñı
ĠÐ²Ð»Ð°Ð´ ÐµÐ»ÑĮ
ĠÐ¿ÑĢÐ¸ Ð½ÐµÑģ
ĠÐ¾Ð±Ð½Ð° ÑĢÑĥÐ¶Ð¸
ĠÑģÑĭ Ð½Ð°
Ġgo od
ĠÑģÐ¾Ð¾Ð± ÑīÐ¸
Ð¾Ð¶ Ð´Ðµ
ÑĢÐ¾Ð² Ð¾Ð¹
ĠÑĥÐ´Ð° ÑĢ
ĠÐ¾ÑĤÐ½Ð¾Ñģ Ð¸ÑĤÐµÐ»ÑĮÐ½Ð¾
ĠÑĤÐ¾Ð²Ð° ÑĢÐ¾Ð²
ĠÐºÐ¾Ð½ ÑĨÐ¾Ð²
ĠÐº ÑĢÐ¾
Ñı Ñı
i ent
ĠÐ¾ÑĤÐ»Ð¸ ÑĩÐ¸Ðµ
ĠÐ³Ð¾Ð²Ð¾ÑĢÐ¸ Ð»Ð¸
ĠÑıÐ·Ñĭ ÐºÐµ
ĠÐ» Ð¾Ð´
ĠÐ·Ð° ÑĤÑĢÐ°
ÑĪ ÐµÐ¼Ñĥ
. -
ĠÐ± Ð¾Ðµ
Ð¸ ÐºÑĥ
ĠÐ²ÑĢÐ° Ñĩ
Ð°Ð»Ðµ Ðµ
Ð· Ñĥ
ĠÐķÐ²ÑĢÐ¾Ð¿ Ñĭ
ĠÐ¿Ð» Ð¾ÑĤ
ĠÐºÐ½Ð¸ Ð³
ĠÐ¿ÑĢÐµÐ´ ÑĭÐ´Ñĥ
Ð³ Ð´Ðµ
Ð» Ð»Ñİ
ĠÐ± Ð¸ÑĤ
ĠÐ±ÑİÐ´Ð¶ ÐµÑĤ
ĠÐ¼Ð°Ð³Ð° Ð·Ð¸Ð½
ĠÑĤÐ¾ÑĢ Ð¶Ðµ
ĠÐ½ÐµÐ¿ÑĢÐ¸ ÑıÑĤ
ĠÐĳ Ð¾ÑĢÐ¸
Ġgr oup
ĠÐ¾Ð±Ñģ ÑĥÐ¶Ð´
ĠÐ½Ð¾ÑĢÐ¼ Ð°Ð»ÑĮÐ½Ð¾
ĠÑģÐ¸ÑģÑĤÐµÐ¼ Ðµ
ĠÑĢÑĭÐ½ ÐºÐ°
ĠF r
ĠÐ²Ð° ÑĪÐµ
ĠÑĢÐ°Ð· Ð»Ð¸
ar ge
ĠÐ¿ÑĢ Ð¾Ð³Ñĥ
Ġ Â
ĠÐ´ÑĢÑĥÐ³ ÑĥÑİ
ĠÐ¿ÑĢÐµÐ´Ð¿Ð¾Ð» Ð¾Ð¶
ÑģÑĤÐ¸ Ð»Ð¸
Ñĥ ÑģÐ°
ce pt
Ġin t
ĠÐ´ÑĢÑĥÐ³ Ñĥ
ĠÐļ Ð°Ð·
ĠÐ¾Ð½ Ð»Ð°Ð¹Ð½
ÑĪÐ° ÑİÑĤ
ĠÐ²Ð¾ÑģÐ¿ Ð¾Ð»ÑĮÐ·
r al
et s
Ð½Ñı Ð»
ĠÐ¿Ð¾ ÑģÑĤÐµÐ¿ÐµÐ½Ð½Ð¾
Ð¾Ñĩ Ñĥ
ĠÐ¿ÑĢÐµÐ´ ÐµÐ»Ð°
ĠÐ²Ð¸ Ð´Ð°
I t
ĠÐº Ð³
ĠÐ³ÑĢÑĥ Ð´Ð¸
ĠÐłÐµÑģÐ¿ÑĥÐ±Ð»Ð¸ ÐºÐ¸
ĠÑĪ ÑĥÑĤ
ĠÐ»Ðµ ÑĩÐµÐ½Ð¸Ñı
ĠÑĢÐ¾Ð´ Ð¸ÑĤÐµÐ»Ð¸
ĠÑĩ Ð¸Ð½Ð¾Ð²
ĠÑĥÐ³ Ð¾Ð»
ĠÐ¶Ð¸ Ð²ÐµÑĤ
ĠÐ± Ð»Ñİ
ĠÐ´Ð°Ð½ Ð½Ð¾Ð¼
ÑģÑĤÐ¾ ÑĢÐ¾Ð½
ÐŁ Ð¾ÑĤ
Ð°Ð» Ð¾Ð¼
ĠÐ¿ÑĢÐ¸ Ð³
ÑĤÐ¸ Ð²Ñĭ
ĠÐ¿ÐµÑĢÐµ Ñģ
ĠÐ°Ð» ÐºÐ¾Ð³
ĠÐºÐ¾Ð½Ðµ ÑĨ
ĠÐ¾ Ð´Ð¸Ð½Ð°
ÐµÑĢÐµ Ð¹
Ġf il
ÑĤÐ¾ ÑĢÐ¸
ĠÐ´Ð²Ð¸Ð¶ ÐµÐ½Ð¸Ðµ
ĠÐŁ Ð»Ð°
ĠÐ° ÐºÐ°Ð´ÐµÐ¼
ĠÐ³ Ð¾Ð½
Ġpo int
ĠÑģÐ¿Ðµ ÑĨ
ĠÐ½Ð°ÑĪ Ñĥ
ĠÐ±Ñĭ ÑģÑĤÑĢÐµÐµ
ĠÐ¸Ð½ Ð¶ÐµÐ½
Ñį ÑĤ
Ð°Ð½ Ð³
Ð·Ð¸ Ð´ÐµÐ½
Ġd uring
ĠÐ¿Ð¾ÑĢÑıÐ´ Ð¾Ðº
ĠÐ´ Ð°Ð¼
ĠÐ½Ðµ Ð´Ð¾Ð²
Ð¡ Ð°Ð¼
ĠU S
ÑįÐº Ð¾Ð½Ð¾Ð¼
ĠÐ¼Ð¾ ÑģÐºÐ¾Ð²
Ðľ Ð¾
ÑģÑĤ Ð°Ð»Ð°
ĠÐ¿Ð¸ÑĤÐ° Ð½Ð¸Ñı
ÑĢÐ¾ ÑĢ
ĠÐł Ð¾Ð¼
ĠÐ¿ÑĢÐµÐ´ Ð²Ð°ÑĢÐ¸
ĠÐ¾ÑģÐ¾Ð± Ð¾
ĠÑģÐ¿ÐµÑĨÐ¸Ð°Ð»ÑĮ Ð½Ð¾
ĠÐ¿ÑĢÐ¾ ÑıÐ²
Ġ200 7
ĠÐķ ÐºÐ°ÑĤÐµÑĢÐ¸
ĠÑĪ Ð¾Ðº
ÐµÐ½ÑĮ Ñİ
ĠÑģÐº Ð²Ð¾Ð·ÑĮ
ĠÐ°Ðº ÑĤÑĥ
ĠÐ±ÐµÑģÐ¿Ð»Ð° ÑĤÐ½Ð¾
ÑīÐ¸ Ð½Ð°
ÐĲ Ð½
ĠÐ¸Ð¼ Ð¿ÐµÑĢÐ°
Ġm ed
Ð¿Ð° ÑĢÐ°ÑĤ
Ð½ ÐµÐ½Ð¸Ð¸
ĠÐºÐ»Ð¸ ÐµÐ½ÑĤÐ°
Ð¾Ð³Ð»Ð°Ñģ Ð½Ð¾
Ð¸ÑĤÐµÐ»ÑĮ Ð½Ð¾ÑģÑĤÑĮ
6 6
ÑĤÐ¸ Ñİ
ĠÐ¿ Ð»Ñı
ÑĤÐ¸ Ð»Ð°ÑģÑĮ
ÑĢÐ¸ÑĤ Ð°Ð½
en e
ĠÐ½Ðµ Ð·Ð°Ð¼
ĠÑĦ Ð°Ð¹
ÑĥÑİ ÑīÐµÐµ
ĠÑģÑĤÐ¾ÑĢÐ¾ Ð½Ðµ
ĠÐŀ Ð»ÑĮ
ĠÐ·Ð°ÑĢ Ð¿Ð»Ð°
Ð± Ð¸Ð½
ĠÐķ Ð¼Ñĥ
ĠÐ¿ÑĢÐµ Ð¿Ð°ÑĢÐ°
Ð²Ñĭ Ð¼Ð¸
ÑĢÐ¾Ð²Ð°Ð½ Ð½ÑĭÐ¹
ĠÐ±Ð°Ð½ ÐºÐ¾Ð²
Ð°ÑĤ ÐµÐ»Ð¸
oc i
ĠÐ°ÑĤ Ð¼Ð¾Ñģ
iz e
ÑģÑĤÐ²ÐµÐ½ Ð½ÑĥÑİ
Ñģ Ð»Ð°Ð²
ĠÑħ Ð»Ð¾Ð¿
ĠÑĢÐµÑĪÐ¸ Ð»Ð°
ĠÐ°Ð¿ Ð¿Ð°ÑĢÐ°
ĠÐŁ Ð¾Ð²
ĠÐ· Ð°Ð»Ð¸
ĠÐ¢ Ñĥ
Ð¼ÐµÐ½ ÑĤÐ¾Ð²
Ðľ ÐĲ
Ð¾Ð¼ Ð¾
ĠÑģÑĤ Ñĭ
ĠÑĥÐ¿ÑĢÐ°Ð² Ð»Ñı
Ð²Ð¾ ÑĢÐ¸
ĠÑĥ Ð²Ð¸Ð´
ĠÐ´ Ð°ÑĢ
Ð¶ Ð¸Ñģ
ÑģÑĤÐ¾ Ð¸Ð½
ĠÐ¿Ð¾Ð¼Ð¾Ð³Ð° ÐµÑĤ
ĠÐ½Ð°Ð³ ÑĢÑĥÐ·
ĠÐ°Ð½ Ð°Ð»Ð¸
ĠÑįÐ½ÐµÑĢ Ð³Ð¸Ð¸
ÐŁÐ¾Ñģ Ð»Ðµ
4 3
ĠÐ¿Ð¾ ÑĪÐµÐ»
Ñħ Ð¾Ð¼
ĠÐ¿ÑĢÐµ Ð¶
ĠÐ±Ñĭ ÑģÑĤ
ÐµÐº Ð¾Ð¼
ÑĪÑĮ ÑģÑı
ĠÐºÐ° Ð¶Ð´Ñĭ
Ġst ill
Ġb oth
ĠÐŁÑĥ ÑģÑĤÑĮ
ĠÐ² ÑģÑĤÐ°
ĠÐ¿ÑĢ Ð¾Ð¹ÑĤÐ¸
ĠÐľ Ð½Ð¾Ð³Ð¸Ðµ
ĠÐ²Ð½Ðµ Ð·Ð°Ð¿
ĠÐ¼ÑĥÐ¶ Ð°
Ð´Ð° Ð½Ð¸Ð¹
ĠÐ²ÑģÑĤÑĢÐµ ÑĩÐ¸
ĠÐ·Ð°Ðº Ð»ÑİÑĩ
ĠÐŁÐµ ÑĢÐµÐ´
ĠÐ¿Ð¾Ð²ÐµÑĢÑħ Ð½Ð¾ÑģÑĤÐ¸
ĠÐ¾Ð¿ÐµÑĢÐ° ÑĨÐ¸Ð¸
Ð²ÑĪ Ð¸Ð¼
Ġp ar
ĠÑĢÐ°Ð±Ð¾ÑĤÐ° ÑİÑĤ
ĠÑĩ Ð¸ÑĤÐ°
ĠÑĤÐ¾Ð²Ð° ÑĢ
5 7
ĠÐ¸ÑĤ Ð¾Ð³
ĠÐ¼Ð¸ÑĢÐ¾Ð² Ð¾Ð¹
Ġg ame
ÑĥÐ¶ ÐµÐ»Ð¸
ĠÐ¿Ð¾Ð¼Ðµ ÑīÐµÐ½Ð¸Ñı
Ð¼Ð° Ð½Ð°
Ð¾Ð³ Ð¸ÑĤÐµ
ĠÐ¿ÑĢÐµ Ð¼Ð¸
ĠÐ¾Ñī Ñĥ
ĠÐ½Ð°ÑĪ Ð»Ð¸
ĠÐ²Ð¸Ð´ Ð¸Ð¼Ð¾
ĠÐ¼ÐµÑĢÐ¾Ð¿ÑĢÐ¸Ñı ÑĤÐ¸Ñı
ĠÐ²ÐµÑĢ Ð½ÑĥÐ»ÑģÑı
Ð¾Ð¶ Ð´Ð°
ĠÐºÐ»Ð°Ñģ ÑģÐ°
ĠÐ¼Ð¾Ð¶ ÐµÑĪÑĮ
Ð»ÐµÐº ÑĤ
E R
ĠÐ´Ð¾ ÑģÑĤÐ¾Ð¹
Ġ3 00
ĠÑĥÑģÐ¿ ÐµÐ»
ĠÐ¼Ð» ÑĢÐ´
s h
Ð²ÑĪ ÑĥÑİ
ĠÐĵ Ð°
ĠÐ¿ÑĢÐ¾ ÑıÐ²Ð»Ñı
ĠÐ²Ð¾Ð·ÑĢÐ° ÑģÑĤÐµ
Ð² Ð¾Ð²
ĠÑģÐ¾ ÑİÐ·
ĠÐľ ÐµÐ½Ñı
Ñĩ ÐµÐ½Ð°
ĠÐ·Ð°Ð¿Ð¸ ÑģÐ¸
Ġp ublic
ĠÑĥÑģÑĤÐ° Ð½Ð°Ð²Ð»Ð¸
ĠÑĩ ÑĢÐµÐ·
ĠÐŀ ÑģÑĤ
ĠÐ· Ð½Ð°Ð»Ð°
Ðľ Ðŀ
Ð´ÑĢÐ°Ð²ÑģÑĤÐ²Ñĥ Ð¹ÑĤÐµ
ĠÐºÐ°Ð¶Ð´ Ð¾Ð¼
ĠÑįÐº ÑģÐº
ĠÐ¿ Ð¸ÑĤÑĮ
ĠÐ·Ð° Ð±Ð¾ÑĤ
ÑĢÐ° Ð²Ð°
Ð· Ð¾ÑĢ
ĠÑģÐ¾ ÑħÑĢÐ°Ð½
ĠÑĢÐµÐºÐ¾Ð¼ÐµÐ½ Ð´Ñĥ
ĠÐ¾ÑĤ Ðµ
ĠÐ¾ÑģÑĤ Ð°Ð»ÑĮÐ½ÑĭÐµ
ĠÐ¿Ð¾Ð¶ Ð°Ð»
ĠÑģÑĥÐ´ ÐµÐ±
ĠÑįÐºÑģÐ¿ ÐµÑĢÐ¸
ĠÑĢÐ°Ð· Ð¾Ð±ÑĢÐ°
ĠÐĺ Ð³Ð¾ÑĢ
ĠÐĶ ÐµÐ½ÑĮ
Ð±ÐµÐ¶ Ð°ÑĤÑĮ
ĠÐ½Ð°Ð· Ð²Ð°ÑĤÑĮ
ĠÐ¿Ð¾Ð½Ñı Ð»Ð°
iv es
ĠÑģÐ¾ÑĤÑĢÑĥÐ´ Ð½Ð¸ÐºÐ¾Ð²
ÑģÑĤ ÑĢÑĥ
Ð¾Ñĩ ÐºÑĥ
ill ion
iz ed
is hed
ĠÑĨ ÐµÐ¿
ÑĦ Ñĥ
ĠÐ¿ÑĢÐµÐ´ ÑģÑĤÐ°Ð²Ð¸ÑĤÑĮ
Ð¾Ð¿Ð¾Ð» Ð¾Ð¶
ĠÐºÑĢÐ°Ð¹ Ð½ÐµÐ¹
ÑģÐºÐ° Ñħ
ĠÑģÐ¾ ÑĩÐµÑĤÐ°
ĠÐ¿ÑĢÐ¾ ÑħÐ¾Ð´Ð¸ÑĤ
ĠÐĺ Ð²Ð°Ð½
ĠÐºÑĢÐ¾Ð² ÑĮ
Ð²Ð¸ Ð³
ĠÐ¼Ð½Ð¾Ð³Ð¾ ÑĩÐ¸ÑģÐ»
A n
ĠÐ· ÐµÐ»
Ð¶ ÐºÐ¸
Ð°ÑĢ Ð¾Ð´
Ġoff ic
ĠÐ±ÐµÑĢÐµ Ð³Ñĥ
ĠÑĢÐµÐ¼Ð¾Ð½ ÑĤ
8 2
Ġ %
ĠÐ¿ÑĢÐµÐ´Ð¿Ð¾Ð» Ð°Ð³Ð°
ÐĹ Ð½Ð°
b e
Ð¾Ð»Ð¾Ð³ Ð¸Ð¹
ĠÐ½Ð°ÑħÐ¾Ð´ ÑıÑĤÑģÑı
ĠÐ¿Ð¾ÑĤ Ð¾Ðº
ĠÑĩ ÐµÑģÑĤÑĮ
ĠÑĢÐ¾ ÑģÑĤÐ°
Ñĩ ÐµÐ½Ð¸Ñİ
Ġc ar
ĠÑħ Ð²Ð¾
Ñı ÑīÐµÐ³Ð¾
ĠÐ¿ÐµÑĢ Ð²Ð¾Ðµ
ĠÐºÐ¾Ð½ ÑĦÐµÑĢÐµÐ½
Ġc ap
ĠÐ¿ÑĢÐ¸Ð¾Ð± ÑĢÐµÑĤ
v ed
ĠÐ» ÐµÐ´
Ðľ Ð¾Ð¶Ð½Ð¾
ĠÐľ ÐµÐ´
ÐµÐ½ Ð½Ð¾Ð¼
ĠÐ³ÑĢÑĥ Ð·
ĠÐ½ÐµÐ¿ Ð»Ð¾
ĠÐ²Ð·Ð³Ð»Ñı Ð´Ð¾Ð¼
ĠÐºÐ²Ð°ÑĢÑĤÐ¸ ÑĢÑĥ
ĠÐ·Ð° ÑħÐ¾ÑĤ
ĠÐłÐ¾ÑģÑģÐ¸ Ñİ
ĠÐºÐ¾Ð¼Ð½Ð° ÑĤÑĭ
ĠÑĢÐµÐ·ÑĥÐ»ÑĮÑĤÐ° ÑĤÑĭ
ĠÐ¿Ð¾Ð» Ð°Ð³Ð°
ĠÑĢÑĥÑģ ÑģÐºÐ¸Ñħ
Ð¸ÑĤÐµÐ»ÑĮ Ð½Ð°Ñı
ĠÐ¾ÑĤ ÑĢÐ°
ĠÐ²Ñĭ ÑĢÐ°Ð·
ĠÑĢÐ°Ð±Ð¾ÑĤ Ð°Ð»
ĠÐŀÐ´ Ð½Ð°
ĠÑĢÐµÐ³Ð¸ÑģÑĤÑĢÐ° ÑĨÐ¸Ð¸
ĠÐ¾Ð³ Ð¾Ð½ÑĮ
ÑĢÐ° Ð»
ĠÐ¶ ÐµÐ½Ð¸
Ðŀ Ð½Ð¸
ÑĤÐ¾ ÑĢÑĥ
Ġr un
ĠÑģÐ» ÐµÐ·
ĠÑģÑĤÐ° Ð±
ĠÐ¿ÑĢÐ¾Ð³ÑĢÐ°Ð¼ Ð¼Ð°
ĠÐ½Ð¾Ð²Ð¾ ÑģÑĤÐ¸
Ñĩ Ð¾
ĠÑĢÐ°Ð´Ð¸ Ð¾
ĠÐ¿ÑĢÐ¾ ÑģÑĮ
ĠÐ° Ð¼
ĠÐº Ð¸Ð½
ĠÐ¿Ð¾ ÑģÐ¿
ĠÐºÑĢÐ°Ð¹ Ð½Ðµ
Ð· Ð¼
ĠÐ¼ÑĥÐ·Ñĭ Ðº
ĠÐ¿ÑĢÐ¸Ð¼ÐµÑĢ Ñĥ
ĠÐ¿Ð¸Ñģ Ð°Ð»
n er
ĠÐ¿ÑĢÐµÐ´Ð»Ð°Ð³Ð° ÐµÑĤ
ÑĢÐ¾ ÑĩÐ½Ð¾
ĠÐ± Ð¾Ð»Ð¸
ĠÑģ Ð°Ð»
ĠÐ¿Ð¾ÑıÐ² Ð¸Ð»ÑģÑı
Ðº Ð»
ĠÑĢÐµ ÐºÐ¸
Ġhel p
Ġin f
re t
ĠÑĤ Ð²Ð¾Ð¹
ĠÐ¿Ð¾Ð» Ð¾Ñģ
ÑĩÐ° ÑİÑĤÑģÑı
ĠÐ¾ÐºÐ°Ð· Ð°Ð»Ð°ÑģÑĮ
ĠÐ¿Ð¾Ð²ÑĤÐ¾ ÑĢÑı
ÐµÐ»Ñı Ñħ
ĠÐ¿ÑĢÐ¸ ÑĪÐ»Ð°
ĠÑģÑĩÐ¸ÑĤÐ° ÑİÑĤ
ĠÐ¾Ð¿ÑĥÐ±Ð»Ð¸ ÐºÐ¾Ð²
ĠÐ²ÑĭÐ¿Ñĥ ÑģÐº
ĠÐ´Ð¾ÑĢ Ð¾Ð³Ñĥ
ĠI s
ĠÐĳ Ð¾Ð»ÐµÐµ
ut h
ĠÐ½ÐµÐ¿ Ð¾Ð½
Ð²Ð¸ ÑĤÑĮÑģÑı
ĠÑħÐ¾ÑĤ ÐµÐ»Ð¸
ĠÑĥ Ð¼Ð°
ĠÐ°Ð´Ð¼Ð¸Ð½Ð¸ÑģÑĤÑĢÐ° ÑĨÐ¸Ð¸
ĠÐĴ Ð°Ð»
Ð¾Ñģ Ð½Ð¾Ð²
ĠÐºÐ»Ð¸ ÐµÐ½ÑĤÐ¾Ð²
Ð´Ð¾ÑĢ Ð¾Ð²
ĠÑĢÐµ Ð°Ð»Ð¸Ð·
ĠÑĨ ÐµÑĢÐºÐ²Ð¸
ÑģÑĤ Ð½ÑĭÑħ
ĠÐ¿ÑĢÐ¸ ÑĪÐ»Ð¸
Ð¾Ð» Ñĭ
Ġd ire
ĠÐ¿ÑĢÐ°Ð²Ð¸ÑĤÐµÐ»ÑĮ ÑģÑĤÐ²Ð°
Ð²ÐµÑĢ Ð½Ð¾Ðµ
ĠÐĴ Ð¼Ðµ
Ð½ ÐµÑĤÑģÑı
re st
109 1
ĠÐ¾ÐºÐ°Ð· Ð°Ð»Ð¸ÑģÑĮ
ĠÐ±Ð»Ð¸ Ð¶Ðµ
9 0
Ñİ ÑĢ
ĠÑį ÐºÑĢÐ°
Ð°Ð» Ð¸Ð½
Ð¿ Ð°Ð½
ĠÑĢÐµÐ°Ð»Ð¸ Ð·Ð°ÑĨÐ¸Ð¸
ĠÐ´Ð¾ ÑĩÑĮ
ĠÑģÐ¾Ð³Ð»Ð° ÑģÐ¸
ĠÐ·Ð° ÑĤÐ¾
Ġ200 0
ĠÐ³Ð»Ð° Ð²Ð°
ĠÑģÐ¾Ð» Ð½Ðµ
ĠÐ¿Ð¾ ÑĪÐ»Ð¸
ĠÐºÐ¾ÑĢ Ð¿Ð¾ÑĢÐ°
4 6
ĠÐ¿ Ð¸Ð»
108 7
ĠY ou
ĠÐ¿ Ð»ÐµÐ¼
out h
ĠÐºÐ¾ÑģÑĤ Ñİ
ÑĢ Ð¾Ð³ÑĢÐ°Ð¼
ÑĩÐµ Ð²
ÑĦÐ¸ÐºÐ° ÑĨÐ¸Ð¸
Ð½Ð¸ÐºÐ° Ñħ
ĠÐ¿Ð¾Ð»Ð¸ÑĤ Ð¸ÐºÐ¸
ĠÑĢÐµÐ³Ñĥ Ð»Ð¸
ĠÐ¿ÑĥÑĤ ÐµÐ¼
ĠÐ¿Ð° Ð´
Ð²Ðµ Ñģ
ro ss
ĠÐ± ÑĥÑħ
c ent
ĠÐ¾ÑĢÑĥÐ¶ Ð¸Ðµ
ÑĥÑİÑī Ð¸Ð¼
ĠÐĿ ÐµÐ¼
ĠÑĢÐµÐ´ ÐºÐ¾
ĠÑģÐ¸ Ð´ÐµÐ»
ÑģÑĤÐ² Ð¾Ð²Ð°Ð»
. [
Ġs l
ĠÐ¾ÑĢÐ³Ð°Ð½Ð¸Ð·Ð° ÑĨÐ¸Ð¹
ÐĶ ÐĲ
ĠÐ½Ð°ÑĪ Ð¸Ð¼
ĠÐ¼Ð°Ñģ ÑĪÑĤÐ°
ĠÑģ Ð½Ð¸Ð¼
ĠÑħÑĢÐ¸ÑģÑĤÐ¸ Ð°Ð½
Ð¾ ÑĤÐ¸
ĠS c
ÑģÐ¿ Ð¾ÑĢÑĤ
ĠÐ¾ÑĩÐµÑĢÐµÐ´ Ð½Ð¾Ð¹
ĠÐ¾ÑģÑĤÐ° Ð²Ð¸ÑĤÑĮ
ÐµÐ¹ Ð½
ÑĤÐ° Ð¹
ĠÐ¿ÑĢÐ¸ ÑıÑĤÐ½Ð¾
c ed
Ñı ÑİÑĤÑģÑı
ĠÐĶ ÐµÐ²
ĠÐ¿ÑĢÐ¸Ð½Ð¸Ð¼Ð° ÑĤÑĮ
Ðµ Ð´Ð°
ĠÐ²Ð¾Ð·Ð´Ñĥ ÑħÐ°
ÑĢÐ¾Ð² ÐºÐ°
Ð»ÑĮ Ð½ÑĭÐ¹
ĠÐ±Ð°Ð½ Ðº
ÐĿ Ð«
Ð»Ð° Ð¼Ð¸
ĠÐ¡ ÑĢÐµÐ´
ĠÑĩ ÐµÑĢÐµ
ĠÐ¼Ð¾Ð³ Ð»Ð¾
ĠÐ¾Ð± ÑīÐµÐ³Ð¾
ĠÐ²Ð¸ Ð´ÐµÐ»Ð¸
ÑĤÐ¸ÑĩÐµÑģÐº Ð¸Ð¹
ĠÐ³Ð»Ð°Ð² Ð½ÑĭÐ¹
ĠÐĿÐ° Ð´Ðµ
ĠÐ¼Ð¸Ð½ÑĥÑĤ Ñĥ
ÑĮ ÐµÑĢÐ°
ĠÐ» Ð¸Ð½
ÑĢÐ¾Ð² Ð¸
" ?
ÑĬ ÐµÐ¼
ĠÐ·Ð°Ð±Ð¾Ð»Ðµ Ð²Ð°Ð½Ð¸Ñı
ÑģÑıÑĤ ÑģÑı
ĠÐĿ Ð°Ð¼
7 0
Ð»Ð° Ð¼
ĠÑį Ð¿Ð¾
Ð¾Ð¿ Ð»Ð°
ĠÐ²ÑĭÐ³Ð»Ñı Ð´Ð¸ÑĤ
ĠÐ´ ÐµÐ´
ĠÐ½Ðµ Ð²Ñĭ
ĠÑĢÐ°Ð· Ð¼
ĠÑĢÐ¾ ÑĤ
Ð°Ðº Ð¾Ð½ÐµÑĨ
ĠÐ¿ÑĥÐ±Ð»Ð¸ ÐºÐ°
ĠÑĢÐ°Ð· Ð²ÐµÑĢ
ĠÐľ Ñĥ
ag es
ĠÐĳÐ»Ð° Ð³Ð¾Ð´Ð°ÑĢ
Ð» ÑĥÑĩ
ĠÑĪ ÐºÐ°
ĠÑı Ð¿Ð¾Ð½
ÑīÐ¸ Ð½Ñĭ
ĠÐ¿ÐµÑĢ ÑģÐ¾Ð½Ð°
ĠÐ³Ð¾ÑģÑĥÐ´Ð°ÑĢ ÑģÑĤÐ²ÐµÐ½Ð½Ð¾Ð¹
Ġgo ing
ĠÑĤÐ°Ðº Ð¸Ð¼Ð¸
. :
ĠÑģÐ°Ð¼ Ð¾Ð¼Ñĥ
ĠÑĤÐµÑĢ ÑĢÐ¾
a red
ĠÐ¥ Ð°
ĠÐ¾Ð±ÑĥÑĩ ÐµÐ½Ð¸Ñı
ĠÐ¸Ð½ ÑģÑĤÑĢÑĥÐº
ĠÑħÑĥÐ´ Ð¾Ð¶Ðµ
ÑĢÐ¾Ð² Ð¸Ñĩ
ĠÐ»Ð¸ÑĨ Ð¾Ð¼
ĠÐŁ Ð°ÑĢÐ¸
ĠĠĠĠ ĠĠĠ
Ñģ Ð¼
ĠÐ³Ð¾Ð²Ð¾ÑĢÐ¸ÑĤ ÑģÑı
ĠÐľÐ¸ÑħÐ° Ð¸Ð»
Ġf r
" :
Ð½Ñĥ Ð»Ð¾
ĠÐ¾ÑģÑĤ Ð°Ð»ÑģÑı
Ð»Ð° Ñı
ĠÑı Ð¹
ĠÐ±ÑĥÐ´ ÐµÑĪÑĮ
ĠÑĩ ÑĤ
Ġla w
ĠÐ²Ñĭ ÑĪÐ»Ð°
ÐĲ ÑĢ
Ð» ÑĭÐ¹
5 6
ĠÑĢÐ°Ð·Ð³ Ð¾Ð²Ð°ÑĢÐ¸
Ð¼ Ð¸ÑĤÐµ
ĠÐ¤ ÐµÐ´
ĠÑģÐ¿ÐµÑĨÐ¸Ð°Ð»Ð¸ ÑģÑĤÐ¾Ð²
ÑĢÐ¸ ÑĤÐµ
ĠÐ½Ð°ÑĩÐ¸Ð½Ð° ÐµÑĤÑģÑı
ĠÐ½Ð°Ð·ÑĭÐ²Ð° ÑİÑĤ
ĠÐ½Ð°ÑĪ ÐµÐ»
ĠÑģÐ¸ÑĤÑĥÐ° ÑĨÐ¸Ñİ
Ñĩ ÐµÐ½Ð¸ÐµÐ¼
Ġde velop
Ġh and
ĠÐ¿ÑĢÐµ ÑĤÐµÐ½
Ðľ Ð°
Ġex p
4 2
ĠÐ°ÐºÑĤÐ¸Ð² Ð½Ð¾
ĠÑĢÑĥÑģ ÑģÐºÐ¾Ð³Ð¾
ĠÐ¿ÑĢÐ¾ÑĪÐ» Ð¾Ð³Ð¾
ĠÐº Ð»Ð°Ð´
ĠÐ¿ÑĢÐµÐ´Ð¾ ÑģÑĤÐ°Ð²Ð»Ñı
Ġt ake
m ed
S t
ĠÐ¾ Ð²
ĠÐ¿ Ð¾Ð»ÑĮ
Ð´ ÑĨÐ°ÑĤÐ¸
ĠÐºÐ¾Ð»Ð¸ ÑĩÐµÑģÑĤÐ²Ð°
ĠÐ± ÐµÑĢ
ĠÑĢÐ¸Ñģ ÑĥÐ½
Ð¡ Ðº
ĠÐ½Ð°Ð¿Ð¸Ñģ Ð°Ð»
ic es
Ð¾Ð²Ð° ÑĤÐµÐ»Ñı
Ð¼Ð¾ÑĤÑĢÐ¸ Ð¼
Ð°Ð»ÑĮ ÑıÐ½
ĠÐ¾Ð´ Ð½Ð¾Ð¼Ñĥ
ĠÐ¿ÑĢÐ¾ ÑĪÐµÐ»
ĠÑĤÐµ Ð¾
ĠÐľ Ð°ÐºÑģÐ¸Ð¼
ÐµÐ´ Ð»Ð¸Ð²Ð¾
ĠÐ¾ÑģÐ² Ð¾Ð±
Ñĭ ÑĪÐ°
ĠF or
ĠÑģÑĤÐ° ÑĤÐ¸
ÑĢÐ¾ Ð½Ð¸
ĠÐ½Ð¸ ÐºÐ¾Ð¼Ñĥ
ĠÐ¼Ð°ÑĪÐ¸ Ð½Ð°
ĠÑĦÐ¸Ð»ÑĮ Ð¼Ð°
ĠÐĶ ÑĥÐ¼Ð°
ĠÐ¿Ð¾Ð·Ð´ Ð½Ð¾
ĠÐĸ ÐµÐ½
ĠÐ¿Ð¾ÑıÐ²Ð¸ Ð»Ð°ÑģÑĮ
. ).
ĠÐ¼Ð½Ð¾Ð³Ð¾ Ðµ
ÐµÐº ÑĤ
ĠÑĤÑĢÐµÐ±Ñĥ ÐµÑĤÑģÑı
ĠÐ¾ÑĤÐ²ÐµÑĤ Ð¸Ð»Ð°
ĠÐ¼Ð¸ Ð»Ð¸
Ð² Ð¾Ðº
ĠÐ¾ÑĤ ÐºÐ°Ð·Ð°
ĠÐķÐ² Ð³
ĠÐ¿ÑĢÐ°Ð·Ð´ Ð½Ð¸Ðº
Ðº Ð»Ð¸
Ġdis c
ĠÐĲÐ»ÐµÐºÑģ ÐµÐ¹
ĠÐĿ Ðķ
Ð¿ÐµÑĢ Ð²ÑĭÑħ
ĠÐ½ÐµÐ¾Ð¶Ð¸Ð´Ð°Ð½ Ð½Ð¾
ĠÑģÑĤÑĢÐ° Ð½Ð°Ñħ
ĠÐ´Ð°Ð½ Ð½Ð¾Ð³Ð¾
Ð¾Ð³Ð° Ñħ
Ð¼Ð° ÑĤ
Ġc re
l ive
Ġex per
s on
ĠÐ· Ð°Ð»Ðµ
ĠÑĥ Ð³Ð¾Ð´Ð½Ð¾
Ð² ÑĮÑİ
ĠÐ¤ÑĢÐ°Ð½ ÑĨÐ¸Ð¸
ĠÑĢÐµÐºÐ»Ð° Ð¼
ĠÐ´Ð¾ ÑģÑĤÐ¾Ð¸Ð½
)))) ))))
Ð¾Ð»Ðµ Ð¿
Ð·Ð° Ð½Ð¾
ĠÑģÐ°Ð¼ Ð¾Ð»ÐµÑĤ
Ġ200 6
ĠÐŀÑĤ Ð²ÐµÑĤ
Ð°Ð» Ð¾Ð³
ĠÐ¿ÑĢÐ¾Ð´ÑĥÐº ÑĤÐ¾Ð²
ĠÑĤ ÑĥÐ¿
ĠÐ²Ð¾Ð¹ Ð½Ð°
ĠÑģÐ»ÑĥÑĩÐ°Ð¹ Ð½Ð¾
ĠÐ» Ð°Ð¼
Ð²Ð° Ð½Ð¸Ð¹
Ġres ult
Ð»Ðµ Ð¶Ð°
ĠÐ´Ð¾Ð±Ð° Ð²Ð»Ñı
ĠÑħÐ¾Ð´ Ð¸ÑĤÑĮ
ĠÑģÐ²Ñı Ð·ÑĮ
ĠÑģ Ð°Ð½
ĠÐ½Ð°Ð¿ÑĢÐ°Ð² Ð»ÐµÐ½Ð¸Ñı
ĠÑĢÐ¸ ÑģÐº
ĠÐ½Ðµ Ð³Ð°
ÑĪ Ð°ÑĤÑĮ
Ð½Ðµ ÑĨ
ĠÐ¾ Ð´Ð¸Ð½Ð¾
.... ....
ĠÐ¸ Ð»Ð»Ñİ
ĠÐĲ Ð±
Ð² ÑĥÑĩ
Ġre al
Ġ ÑīÐµ
ÐĿ Ð¸Ðº
ĠÐĵ Ð°ÑĢ
ĠÐ¾ÑĤÐ¼ÐµÑĤ Ð¸ÑĤÑĮ
Ðĵ Ð´Ðµ
ÑģÑĤÐ²ÐµÐ½ Ð½Ð¾Ð¼
ĠÐ²Ð¾Ð¿ÑĢÐ¾Ñģ Ð°Ð¼
ĠÐľ Ð¾Ð»
ÑīÐ¸ ÐºÐ°
Ð¾Ð²Ð¾ÑĢÐ¸ Ð»
ĠÐ¼ Ð°Ðº
ĠÐ´Ð¾Ð±Ð° Ð²Ð¸ÑĤÑĮ
ĠÑĢÐ°Ð· ÑĢÑĥ
ĠÐ¿ÑģÐ¸Ñħ Ð¾Ð»Ð¾Ð³Ð¸
ĠÐ¶Ð¸Ð² ÑĥÑĤ
ĠÑĤ ÐµÑĤ
ÐºÐ¾Ð² ÑĭÑħ
ĠÐ¸ÑģÐº ÑĢÐµÐ½
ĠÐ¿Ð¾Ð´ Ð°ÑĢÐ¸
ĠÐ²ÐµÑĤ ÐµÑĢ
Ñī ÐµÐ½Ñĭ
ĠÐŁ Ð¾Ð½
Ð²ÑĪÐ¸Ñħ ÑģÑı
ĠÑģÐº Ð¾ÑĢ
ĠÐ¿ÑĢÐ¾ÑĤÑı Ð¶ÐµÐ½Ð¸Ð¸
ĠA d
at ure
ĠÐ± ÑĢÐ¸
ĠÐ¿ÑĢÐ¸ ÑģÐ¾
ĠÐŁ ÑĢÐ¾Ð´
Ðļ Ð¾Ð½
Ġgovern ment
it al
Ġ <
ĠÐ¿Ð¾Ð»ÑĥÑĩ Ð¸Ð»Ð¾ÑģÑĮ
ĠÐ¸Ð·Ð¾Ð± ÑĢÐ°Ð¶
Ġf ind
Ðł Ðµ
ÐµÐ· Ð¶
ÑĢÐ°Ð¶ Ð´
ĠÐ¶ Ð°
ÐŁ Ðŀ
ĠÑģÑĥÐ¼ Ð¼Ñĥ
g y
Ñĩ Ñĳ
b ook
ĠÑģÐµÑĢÐ´ ÑĨÐ°
i ence
ĠÐ¿Ðµ Ð´Ð°Ð³
ĠÐ¡ ÐºÐ¾
? )))
ĠÐ¾ÑĦ Ð¸Ñģ
ĠÐ±ÑĥÐºÐ² Ð°Ð»ÑĮÐ½Ð¾
ĠÐ³ Ð³
ĠÐ·Ð° ÑĢÐ°Ð½ÐµÐµ
ĠÐķÐ²ÑĢÐ¾Ð¿ Ðµ
Ġre le
ĠÐ²ÐºÐ»Ñİ ÑĩÐ°Ñı
ĠÐ²Ð¾ÑģÐ¿ Ð¾Ð¼Ð¸Ð½Ð°
ĠÑģ Ð¼Ñĥ
ic ally
ĠÐºÑĢÐ° ÑĤ
ĠÑĤÐ¸ Ð¿
en se
Ġsec ond
ĠÐ²Ð¾Ð·Ð´Ñĥ ÑĪ
ĠÐºÐ¸Ð² Ð½ÑĥÐ»
Ġar ound
ÑĢÐ¾Ð² Ð°Ð»Ð°
Ð¾Ð² ÐµÐ´
ÑĮ Ð¸
ĠÐ¿Ð¾Ð´Ð°ÑĢ Ð¾Ðº
ĠÐ± ÑĢÐ¾Ñģ
ĠÐ²Ñĭ Ð¹ÑĤÐ¸
ĠÐŁÑĥ ÑĤÐ¸Ð½
ĠÑĥÑĤ ÑĢÐ¾
Ð¾Ð¶ Ð°Ð»ÑĥÐ¹
Ġf ollow
ĠÐ¸ÑģÐºÑĥÑģ ÑģÑĤÐ²Ð°
Ð°Ð½ ÐºÐ°
ĠÑģÐ¾ÑģÑĤÐ¾Ñı Ð½Ð¸Ñı
com e
ĠÐ¾ÑĤÐ¼ÐµÑĤ Ð¸Ð»
ĠÐºÐ¾ÑĢ Ð¾Ð»ÐµÐ²
Ð¸Ð½ ÐºÐ¸
ĠÑĢÑĥÑģ ÑģÐºÐ¸Ð¹
ÐºÐ¾Ð² ÑĭÐµ
s c
ÑĢÐ°Ñı ÑģÑĮ
ĠÐł Ñĭ
ĠÐ²Ð¸ Ð´ÐµÐ»Ð°
ÐµÐ»Ð¾ ÑĢÑĥÑģ
ĠÐ²Ñĭ Ð³Ð¾Ð´
ÑĤÐµÐ»ÑĮ Ð½ÑĭÐµ
ÑĩÐ¸ Ñı
ĠÑģÑĥÐ± ÑĬÐµÐº
ĠG r
ĠÑģÐµ ÑĢÐ¸Ð¸
ĠÐĿÐ¸ÐºÐ¾Ð» Ð°Ð¹
ĠÐ¾ÑģÐ½Ð¾Ð² Ð½ÑĭÑħ
ĠÐĹÐ° Ð¿Ð°Ð´
ĠÐ¾Ð±ÑĢÐ°Ð· Ð¾Ð²Ð°Ð½Ð¸Ðµ
ĠÑģÐ¿Ñĥ ÑģÑĤÑı
Ð½Ð¸ ÑĤÑĮÑģÑı
ĠÑģÐ¾Ð± Ð°Ðº
Ñī ÑĮ
in ed
ĠÐ¸ÑģÐ¿Ð¾Ð»ÑĮÐ·Ñĥ ÐµÑĤÑģÑı
ĠÐ¿Ð¾ ÑģÑĤÑĢÐ°
ĠÑĤÑıÐ¶ ÐµÐ»Ð¾
Ġc our
Ñĳ Ñħ
ĠÐ²Ð¾Ð» ÑĪÐµÐ±
ĠÐĵ Ð¾Ð»
ĠÐ¿Ð¾Ð´ ÑĢÐ°Ð·Ð´ÐµÐ»
ĠÑģÑĩÐ¸ÑĤÐ° ÐµÑĤÑģÑı
ĠÑģÑĨ ÐµÐ½Ð°
Ð¾Ð² ÑĥÑİ
ĠÐ¾ Ñĩ
ĠÐ» Ð¾Ðº
ĠÐ¼Ð¸Ð½Ð¸Ð¼Ñĥ Ð¼
ÑĢÑĥ ÐµÐ¼
ĠÑįÐ½ÐµÑĢ Ð³Ð¸
ĠP h
Ð¢ Ðķ
Ġar t
ĠÐ²ÑĤÐ¾ÑĢ Ð¾Ð³Ð¾
ĠÑĥ Ð±Ð¸
Ġcl ass
Ð¼Ð¸ ÑĢ
ĠÐº Ð¾Ð²
ĠÐŁÐ¾Ð´ ÑĢÐ¾Ð±
ĠÐ¿Ð¾Ð´ ÑĩÐ¸Ð½
ĠÐ°Ð² ÑĤÐ¾ÑĢÐ°
ĠÐ²Ð½Ð¸Ð¼Ð° ÑĤÐµÐ»ÑĮÐ½Ð¾
Ð½Ð¸ÑĤ ÑģÑı
ĠThe y
ĠÑĩÐ° ÑģÑĤÑĮÑİ
Ð¸ ÑģÐº
ĠÐ´ÐµÐ² ÑıÑĤÑĮ
Ð²Ð° Ð½Ð¸Ð¸
ĠÐ¸ÑģÐ¿Ð¾Ð»ÑĮÐ· Ð¾Ð²Ð°Ð½Ð¸Ðµ
ĠÐ·Ð°Ð¿ Ð¸Ñģ
Ġw om
Ġcon f
ĠÐ¾Ð±ÑĬÐµÐº ÑĤÐ¾Ð²
ĠÐ²ÑĭÑģÐ¾Ðº Ð¾Ð¹
ĠÑĢÐµÐ± ÑĳÐ½
Ð¾ÑĢ Ð´
Ð¡ Ðµ
Ðł Ðķ
Ð¸ÑĤÐµÐ»ÑĮ ÑģÑĤÐ²Ð°
ÑĤÑĭ Ð¼Ð¸
ĠÑģÑĤ ÑĢÐ¾Ð¹
ĠÐ² ÑģÐºÐ¾ÑĢÐµ
s p
ĠÐ½Ð¸ÐºÐ°Ðº Ð¾Ð¹
ÐĴ Ð¾Ð·
ĠÐ½ÐµÐ½Ð° Ð²Ð¸
ĠÐ»ÑĥÑĩ ÑĪÐ¸Ñħ
ĠÐĿ Ð¾Ð²ÑĭÐ¹
? ))
ĠÑįÐºÐ¾Ð½Ð¾Ð¼ Ð¸ÐºÐ¸
Ð½Ñı Ð¼Ð¸
ÑĩÐµÐ½ ÐºÐ¾
ÑģÐºÐ° Ð¼Ð¸
ĠÐ·Ð°Ðº Ð°Ð½
ĠÐ¿ÐµÑĢ Ð²Ð°Ñı
g er
ÑīÐ¸ ÐºÐ¸
8 8
v iew
ĠÐ½Ð°Ð±Ð»Ñİ Ð´
Ð² Ð¾Ð¼
ĠÑģÐ²Ð° Ð´ÑĮ
ĠÐ² ÑģÐ»ÐµÐ´
ĠÐ¿ÑĢÐµÐ´Ð»Ð¾Ð¶ ÐµÐ½Ð¸Ðµ
ĠÐ½Ðµ ÑĩÑĤÐ¾
ÐµÐ» Ñĭ
ĠÐ¿Ð¾Ðº Ð¸Ð½Ñĥ
ĠÑĦÑĥÑĤ Ð±
Ġd ay
Ð³ Ð°Ð»Ð¸
ĠÐ¡ Ð¿Ðµ
ĠÐ¿Ð»Ð° ÑĤÐµ
ĠÐ±Ð¾Ð»ÑĮÑĪ Ð¸Ñħ
ĠÐļÐ¾Ð¼ Ð¿Ð°Ð½Ð¸Ñı
ÑĢÑı Ñģ
ĠÑģ Ð½Ð¸Ð·
ĠÐ¾Ð¿ Ñĭ
ÑģÐ¸ ÑģÑĤ
ĠÐ¿Ð¾Ð¸ ÑģÐº
of t
... "
u ro
ĠÐ³Ð»Ñı Ð´Ñı
ĠÐºÐ²Ð°ÑĢÑĤÐ¸ ÑĢÐµ
ĠÐŁÐµÑĤ ÐµÑĢÐ±ÑĥÑĢ
ĠÐ¡ ÑĥÐ´
ĠÑĤÐµÐ»ÐµÑĦÐ¾Ð½ Ñĥ
Ġhe re
ĠÐ° ÑĤÐ°Ðº
Ġ ;
ĠÐ¸Ð· Ð±
ĠÐ³ ÐµÐ½
Ð¡ Ð¾
ÐµÐ½ ÑĤÑĥ
ĠÐ± Ð°Ðº
Ð°Ð»ÑĮ ÑĪÐµ
ĠÐŁ Ð¾Ñĩ
Ð¢ Ð¬
Ðº Ð¾Ð³Ð´Ð°
Ð¿Ð¸ ÑģÑĮ
ĠÑģÐ¾Ð» Ð´Ð°ÑĤ
j ournal
Ð±Ð° Ð²
ĠÑģÐ¾Ð±ÑģÑĤÐ²ÐµÐ½ Ð½Ð¾Ð¹
Ñĥ Ð¿Ð°
ĠÐľ ÑĥÐ¶
ĠÐ¾ÑĤÐ½Ð¾Ñģ Ð¸ÑĤÑģÑı
Ð°Ñħ Ð°ÑĢ
ĠÐº Ð²Ð°Ð»Ð¸
Ð³ ÐµÑĢ
ĠÐ±ÑĥÐ´Ñĥ ÑīÐµÐµ
+ +
ĠÐ½ÐµÑĢ Ð²
ĠÐ½Ð°Ð· Ð²Ð°Ð½Ð¸ÐµÐ¼
ĠÐ´ÐµÐ¼ Ð¾ÐºÑĢÐ°
Ðł Ð¾ÑģÑģÐ¸
ĠÐ±ÑĥÐ´ÑĥÑī ÐµÐ¼
ĠÑģÑĤÐ°Ð½ ÑĨÐ¸Ð¸
ĠÐ² Ð°ÑĢ
ĠÐ² ÑĢÑıÐ´
Ð· Ð¸Ñı
ĠÐ²Ð° ÑĪÐ°
ĠÐ·Ð°Ð¼ ÑĥÐ¶
ĠÐ¼Ð°Ð»ÑĮ ÑĩÐ¸
Ð½Ð¸ Ð²
ĠÐ¿Ð¾ ÑģÑĤÐ°Ð²Ð¸ÑĤÑĮ
ĠÐ¾ÑĤÑģÑĥÑĤ ÑģÑĤÐ²Ð¸Ðµ
ÑıÑī ÐµÐ¹
ÑĤÐ¸ Ð»Ð¾
Ð»Ð°Ð½ Ð´
ĠÐ¿ÑĢÐµ Ð±Ñĭ
ÑĨÐ¸Ð¾Ð½ Ð½Ð¾
ÐµÑĢÐ° Ð¼Ð¸
ÑĩÐµÐ½ Ð½ÑĭÐµ
ÑĢÐ¾ ÑģÑĤÐ¸
ĠÐ¾ÑģÑĤ Ð°Ð»Ð¸ÑģÑĮ
ÑĪÐ¸ Ð»Ð¸
ĠÑĩÐ¸Ñģ Ð»Ð°
ĠÐ° ÑĢÐ¾Ð¼
ĠÐº ÑĥÐ±
ĠÑĩÐ°Ñģ Ñĭ
ĠÑĤÑĢÐ°Ð½ Ñģ
el s
Ñĩ ÐºÐ¾Ð¹
Ð²ÑĪÐ¸Ðµ ÑģÑı
ĠÑģÐºÐ¸ Ð´
ÑĢÑĥ Ñı
ÐµÑģ ÐµÐ´
ĠÐĵ Ðµ
ĠÑģÐ²Ð¾Ð¹ ÑģÑĤÐ²Ð°
ĠÐ²ÐµÑĢ Ð½ÑĥÑĤÑĮÑģÑı
ĠÐ² Ð½ÐµÐ´
Ġf un
b ers
i ted
ĠÐºÐ°ÑĢ ÑĤÑĭ
ĠÑĢÐ°ÑģÐ¿ÑĢÐ¾ ÑģÑĤÑĢÐ°
ĠÐ» Ð°Ð´
ĠÐ¥ Ð¾ÑĢÐ¾ÑĪÐ¾
ĠÐ²Ð¾ÑģÐº ÑĢÐµÑģ
ĠÑĢÐ°Ð· Ð±Ð¸ÑĢÐ°
Ð¶ Ð½ÐµÐ¼Ñĥ
ÑĤ Ð¾Ð¿
ĠÐ¿Ð¾Ð» Ð½ÑĭÐ¹
ÑģÑĤÐ° Ð½Ð°
ĠÑĢÐµÐ»Ð¸Ð³Ð¸ Ð¾Ð·
ĠÑģ Ð»Ð°Ð´
Ġin st
ion al
ĠÐ½Ð° ÑĤÑĥ
ÐµÑĢÐµ Ð¶
Ðķ ÑģÑĤÑĮ
ĠÐ´ ÑĭÑħÐ°
ĠÐ¼ÐµÑĤ ÑĢÐ¾
ÑģÑĤ Ð½Ð¾Ð³Ð¾
ĠÐ½Ð°Ð¼ Ð½Ð¾Ð³Ð¾
ĠÐ¿Ð¾ÑıÐ²Ð¸ Ð»Ð¸ÑģÑĮ
ÑİÑīÐ¸Ð¹ ÑģÑı
ÐµÐ¼ Ñĭ
g g
Ð¾Ð· Ñĭ
ĠÐ¿ÑĢÐµ Ð¼
Ġ ent
Ġf act
ĠÐºÐ°Ð¿Ð¸ÑĤ Ð°Ð½
Ñĥ Ð³Ð°
ĠÐ¸ Ñī
Ġc r
ĠÐ¿ ÑĮÑı
ĠÐ²Ñĭ ÑģÐºÐ°
ĠÐ¾ÑĤÐ»Ð¸ ÑĩÐ½Ð¾
ĠÐ³Ð¾Ð´Ð° Ñħ
Ġs omet
Ð¸Ð³ ÑĢÑĭ
H e
ÑĢÐ¸ ÑģÑĤÐ¾Ð²
Ð¿ Ð¾Ð·Ð¸
ĠÐ¿ÐµÑģ Ð½Ð¸
ĠÑģÐ¼Ð¾ÑĤ ÑĢÐ¸ÑĤ
ÑģÑĤÐ¸ ÐºÐ°
ĠÐ² Ð»ÑİÐ±
ÐŁ Ð¾Ð»
gr am
ĠÑģÑĩÐ°ÑģÑĤÑĮ Ðµ
Ġcont in
ĠÑĨÐ¸ Ð²Ð¸Ð»Ð¸
ĠÑģÑĤ Ð¾Ð¹
ĠÐºÐ¾Ð½ÑĤÑĢ Ð¾Ð»Ð¸
ĠÐ·Ð´Ð¾ÑĢÐ¾Ð² ÑĮÐµ
ĠÐ´ÑĥÐ¼Ð° ÐµÑĤÐµ
ÐµÐ´ ÐµÐ»ÑĮ
ĠÐ¶ÐµÐ»Ð° Ð½Ð¸Ñı
Ñı Ð³
ÑīÐ° ÑİÑĤÑģÑı
ĠÑģÐºÐ¾ÑĢÐ¾ ÑģÑĤÑĮ
ĠÑĥÐ´Ð¾Ð²Ð»ÐµÑĤ Ð²Ð¾ÑĢ
ĠÐºÐ¾Ð» Ð»Ðµ
ĠÐ¾Ð± ÐµÐ·
ÐµÑĤ Ð¾Ð¼
ĠÐ¿ÑĢÐ¾ ÑīÐµ
ĠÐ¾Ðº Ð½Ð¾
Ð»ÐµÐ½ Ð½Ð¾Ð³Ð¾
Ġ4 5
Ð´Ð° Ð½Ð¸Ð¸
ĠÐļÐ¾Ð½ ÑģÑĤÐ°Ð½
ĠÐ· Ð²Ð¾
ĠÐĶÐ¼Ð¸ÑĤ ÑĢÐ¸Ð¹
ĠÐ²Ð´ Ð¾Ð»ÑĮ
ĠÐł Ð¾
ĠÑģÐ¾Ð·Ð´Ð° Ð½Ð¸Ðµ
201 4
Ñı Ð»Ð¾
ĠÐ½ Ð¾Ð²Ð°Ñı
ĠÐ¸Ð¼ Ð¿Ðµ
Ð¸ÑĤ Ð¾Ð²
ĠÐ½ÐµÐºÐ¾ ÑĤÐ¾ÑĢÐ¾Ðµ
ĠÐ¿Ð¾Ð´ ÑħÐ¾Ð´Ð¸ÑĤ
ÑĥÑĩÐ¸ ÑĤÑĮ
ĠÐ·Ð°Ð´Ð° ÑĩÐ¸
ÑĤÐ¾ÑĢÑĭ Ñħ
ĠÐºÐ¾Ð¼ Ð¼ÐµÑĢ
ĠÑģÐ²Ñı ÑīÐµÐ½
ĠÑģÑĥ ÑĤÐ¸
ĠÐ¡Ð² ÑıÑĤ
ÑģÑĤÑĢÐ¾Ð¹ ÐºÐ¸
ĠP l
ĠÐŁ Ð¾Ð±
Ð´Ðµ Ð±
ĠÑģÑĤÐ°ÑĤÑĮ Ðµ
Ñī ÐµÐ¼Ñĥ
l ine
ĠÐľÐ¸Ð½Ð¸ ÑģÑĤÐµÑĢ
ÑģÐ¾ ÑĨÐ¸Ð°
ĠÐ¿ÑĢÐµÐ´Ð»Ð¾Ð¶ ÐµÐ½Ð¸Ñı
Ð»ÑĮ Ð½Ð¾Ð¹
ĠÐºÐ°Ð½Ð´Ð¸ Ð´Ð°
Ð¾Ñĩ Ð½ÑĭÐµ
ĠÐ³ ÑĥÐ»Ñı
ĠÐ¾Ðº ÑĢÑĥÐ³
ĠÐĶ ÑĢÑĥÐ³
ĠÐµÐ¶ ÐµÐ´
ĠÐ¾Ð± Ð»ÐµÐ³
Ð»Ñı ÑĤÑĮÑģÑı
Ð°ÑĤ ÑĢÐ¸
ĠÐĲÐ½Ð´ ÑĢÐµ
ĠÐĴ ÑģÐµÐ¼
ĠÐ°Ñį ÑĢÐ¾Ð¿
Ð»Ñĭ Ð¼
ĠÐ¿ÐµÑĢÐµ Ð²Ð¾Ð·
Ġex pl
ĠÐ·ÐµÐ¼ ÐµÐ»ÑĮ
ĠÐ»ÐµÐ³ ÐµÐ½
Ġapp ro
ĠÑģ ÐµÐ²
Ġs ays
ĠÐ¾Ð±Ñī ÐµÐ¹
ĠÐ² ÑĢÑĥ
ĠÑĤÐµÑħÐ½ Ð¾Ð»Ð¾Ð³Ð¸Ð¹
ĠÑģÐºÐ°Ð· Ð°Ð»Ð¸
ĠÑģÑĤÑĢÐ°ÑĪ Ð½Ð¾
ĠG o
ĠÐ¿ÑĢÐ¸Ð½Ñı Ð»
ĠÐ²Ñĭ Ð¹
Ðº Ð¾Ð±
ĠÐ²Ð¸Ð´ Ð¸Ð¼
ĠÑģÐ¾ ÑĢÐµÐ²
al th
ĠÐºÐ½Ð¸ Ð³Ð°
ĠÐ·Ð² ÑĥÑĩ
Ð ©
Ġcomp le
Ðº Ð»Ð°Ð´
ĠÑģÐ¿ ÑĥÑĤ
ar m
ÑĢÐ¾Ð²Ð°Ð½ Ð½Ð¾Ð¹
ÑģÑĤ Ð¾Ð»
ĠÐ¿Ð¾Ð·Ð¸ ÑĨÐ¸Ð¸
ĠÐŀÑģÐ¾Ð± ÐµÐ½Ð½Ð¾
ÐºÐ° ÐµÑĤ
ĠÐ½Ð°Ð¿Ð¸Ñģ Ð°ÑĤÑĮ
Ð± Ð¾Ð²
ÑĤÑĥ Ð´Ð°
ĠÐ¼Ð¸Ð»Ð»Ð¸ Ð°ÑĢ
ĠÐĲÐ»ÐµÐºÑģÐ°Ð½Ð´ ÑĢÐ°
ĠÐ¼ÐµÐ½ ÐµÐ´Ð¶
i red
ĠÐ»ÑİÐ± ÑıÑĤ
Ð¿ÑĢÐµ Ð¶Ð½ÐµÐ¼Ñĥ
ĠÑĪ Ð»Ð¸
ĠÐĺÐ½ Ð¾Ð³Ð´Ð°
ÑĩÐµÐ½ Ð½ÑĭÑħ
ĠÑĩ ÑĳÑĢ
ĠÐŁÐµÑĢ Ð²ÑĭÐ¹
Ġde p
ĠÐ¿Ð°ÑĤ ÑĢÐ¸
ĠÐ±ÑĥÑĤ ÑĭÐ»
ĠÐ² Ð¾ÑĢ
ĠÐ· Ð½Ð°Ð»Ð¸
c es
ĠÐ½Ð°Ð»Ð¸ ÑĩÐ¸Ðµ
ĠÑģ Ð¾Ð»Ð¸
ĠÐ¿ÑĢÐ¾ÑĨ ÐµÐ½ÑĤÐ¾Ð²
Ð¿ ÑĥÑģ
ĠÑĩÐµÑĤÑĭÑĢÐµ Ñħ
w it
or th
enc y
ÑĤÐ¸ ÐµÐ¼
Ð´Ð¸ Ð»Ð¸
ĠÐ½ ÐµÐ»Ðµ
ÑĦ ÐµÐ¹
ĠÐ²Ð¾Ð´ Ðµ
! )
ĠÐĺÐ½ ÑĤÐµÑĢÐµÑģ
ÑĥÑĪ ÐºÑĥ
Ð¿Ð¸Ñģ Ñĭ
ĠÑĦ Ð¸Ð³
ÑĢÐ¾ ÑģÑĤÑĮ
Ġpro du
ĠÑĤÐµÐ¼ Ð°
ÑĢÐ°Ð²Ð¸ ÑĤÑĮÑģÑı
? Â»
od y
ĠÐ¾Ð± ÑģÑĤÐ°Ð½Ð¾Ð²
ĠÐ¡ ÑĢÐµÐ´Ð¸
ĠÐ¾ Ð²Ð¾
Ġp op
ĠÐ½Ð°Ð²ÐµÑĢ Ð½ÑıÐºÐ°
ĠÐ¸Ð´Ðµ Ð¸
ĠÐ¿ÑĢÐ¸Ð½Ñı ÑĤÐ¾
ĠÑĦ ÐµÑģÑĤÐ¸
ĠÑĥÐ»ÑĭÐ± Ð½ÑĥÐ»ÑģÑı
ĠÑĢÐ°Ð±Ð¾Ñĩ Ð¸Ñħ
ĠÐ²ÐµÑĢÐ¾ ÑıÑĤ
ÑĢÐµ Ð²Ð°
live journal
Ġs ince
b y
ĠÑĢÐ°Ð· Ð¾
Ð¾Ð± Ð»Ð°
ĠÐ²Ð° ÑĪÐ¸Ñħ
ĠÐ´ÐµÑĤ ÑıÐ¼
ĠÐ·Ð° Ð¼ÐµÑĢ
ĠÐ¿Ð¾Ð»Ð¸ ÑĨÐµÐ¹
ĠÑģÑĥÐ¿ ÐµÑĢ
Ð°Ð½ Ð½ÑĭÐ¼
ĠÑģÐ¾Ð¿ ÑĢÐ¾ÑĤÐ¸Ð²
ĠÐ¶ÑĥÑĢ Ð½Ð°Ð»
ĠÐ¾Ð± ÐµÑĢ
Ñ £
ĠÑĤÐµÐ»Ðµ Ð²Ð¸Ð·
ÐŁ ÑĢÐ°Ð²
Ð¾Ñĩ Ð½ÑĭÑħ
Ð¾ÑĢ Ð¾Ð¶Ð½Ð¾
Ð½Ð°Ð´ Ð¾Ð±
ĠÐ¸ Ð´Ð¸
ĠÑĪÐºÐ¾Ð» Ñĥ
ĠT ru
ĠÐ¾Ð± Ð¼ÐµÐ½
ĠÑĥÑģÐ¿ Ð¾ÐºÐ¾
Ð¼Ð¾ÑĤÑĢÐµ Ð»Ð¸
ĠÐ¾Ð¿ÑĢÐµÐ´ÐµÐ» Ð¸ÑĤÑĮ
ĠÑĤ ÑĢÐ°Ðº
Ð¿Ðµ ÑĩÐ°ÑĤ
ĠÑģÑĤÑĢÐ¾Ð¸ÑĤÐµÐ»ÑĮ ÑģÑĤÐ²Ð¾
ÑĤ Ð½Ð¾Ð³Ð¾
Ð·Ð° ÑĨÐ¸Ñİ
ĠÐ»Ð¸ Ðº
ĠS p
Ð± Ð°ÑĢ
ĠÐ½Ð° ÑĥÐº
ĠÐŁ ÑĢÐ¾Ð²
ĠÐ²Ð¾ ÑģÑĤÐ¾ÑĢ
ĠÐ¿Ð¾Ð»ÑĥÑĩÐ° ÑĤÑĮ
ÐµÑĢ Ð½Ð¾
ĠÐ° Ð²Ð°
ÑĩÐ¸ Ð²Ð°ÑĤÑĮ
ĠÐ¾ÐºÐ° Ð·ÑĭÐ²Ð°ÐµÑĤÑģÑı
Ñĩ Ð¾Ðº
ĠÐ¾ÑĤÐ»Ð¸ ÑĩÐ°ÐµÑĤÑģÑı
ĠÐ Ļ
ĠÐ´ÑĥÑĪ Ñĥ
ĠÐ¾ÑĢÐ³Ð°Ð½Ð¸Ð· Ð¼Ð°
ĠÐĲÐ»ÐµÐº ÑģÐµ
ĠÐ¿ÑĢÐ¸ Ð¼
ĠÑĢÑĭÐ½ Ð¾Ðº
ĠÐ²Ñĭ ÑĤÐ°
ĠÑģÑĤÐ¾ Ð¸Ð¼Ð¾ÑģÑĤÐ¸
ĠÐ¿Ð¾ÐºÐ° Ð·Ð°ÑĤÑĮ
ĠÐºÐ¾Ð½ ÑĤÑĢÐ°Ðº
ĠÐ² Ð´Ð¾Ñħ
ĠÐ¸Ð½ÑģÑĤ Ð¸ÑĤÑĥ
ĠÑĥÑģÐ¿ÐµÑĪ Ð½Ð¾
ĠÑİ Ð±
ĠÐ²Ð¾Ð¹ ÑģÐº
ĠÐĵ ÑĢÐµ
ĠÑĥÑģÑĤÑĢÐ¾Ð¹ ÑģÑĤÐ²Ð°
ĠÑģÐ»ÐµÐ´ÑĥÑİÑī Ð¸Ðµ
5 8
ĠÑĨÐµÐ» ÑĭÐ¹
ĠÐ¿ÑĢÐ¾ÑĨÐµÑģ ÑģÐ°
ĠÑı Ð±
Ġre ad
110 0
ÑĪ Ð¸Ð½
Ð² Ð¾ÑĤ
ĠÐ¸Ð´ ÑĥÑĤ
ĠX V
ÑĤÐ¸ Ð¼Ð¸
n ess
ĠÐ½Ð°ÑģÑĤÐ¾Ñı ÑīÐ¸Ð¹
ĠÐĺÑģÐ¿ Ð¾Ð»ÑĮÐ·
ĠÐ·Ð°Ð´Ð° ÑĩÐ°
ĠÐ² ÐµÐ½
ĠÑĢÐ°ÑģÐ¿ Ð¾ÑĢÑı
ĠÐ¼Ð¾ Ð¸Ð¼
ĠÑĢ Ð¾Ð±
ĠÐ±Ð¾Ð»ÐµÐ· Ð½Ð¸
ĠÐ¥ Ð¾
Ñį Ð¼
v ent
ĠÐ¢ ÑĢÐ¸
ĠÐ³Ð¾ ÑģÑĤÐµÐ¹
ĠÑģÐ¾Ð¾Ð± ÑīÐµÐ½Ð¸Ñı
ĠÐ»ÑİÐ± Ð¾Ð¿ÑĭÑĤ
ÐºÐ¾ ÑĢÐ°
Ġpart ic
ĠÐ» ÐµÐº
ÑĥÑĪ Ð°
ĠÐ»ÐµÑĤ Ð¾Ð¼
ĠÐ¿Ð¾Ñģ ÑĢÐµÐ´
ĠÐ½Ð° Ð±Ð¾ÑĢ
Ġop en
ĠÑĩÐµÑģÑĤ Ð½Ð¾
ÑĤ Ð½Ð°Ñı
ĠÑģÐ» ÑĥÑħ
ĠÐ½ÐµÐ¼ ÐµÐ´
Ġnum ber
ĠÐ¼ÐµÑĤÐ°Ð» Ð»Ð¸
Ð¸Ð² Ð°Ð»
ĠÐ¿ÑĢÐ¸Ð¼ÐµÐ½ ÐµÐ½Ð¸Ñı
ĠÐ¿ÐµÑĢÐµ Ð¿
ĠÐ·Ð°Ð¿Ð° Ñħ
( (
ĠÐ¿Ð¾Ð»ÑĥÑĩ Ð¸ÑĤÑģÑı
ĠÐ»ÐµÐ³ ÑĩÐµ
ĠÐ¾ÑĤ Ð´ÐµÐ»Ð°
ÑĢÐ¸ Ð»Ð°
ĠÐ²Ð¸ Ð´Ñĭ
ĠÐ³ÑĢÐ° Ð¼Ð¾ÑĤ
ĠÑĢÐ°ÑģÑģ ÑĩÐ¸ÑĤÑĭ
5 9
ĠÐ·Ð½Ð° ÑĩÐµÐ½Ð¸Ñı
ĠÐľÐµÐ¶Ð´Ñĥ Ð½Ð°ÑĢÐ¾Ð´
Ġe le
ĠÐ² ÐµÐ·Ð´Ðµ
in ess
ĠÐ¼Ð°Ð»ÐµÐ½ÑĮ ÐºÐ¸Ð¹
Ð¾Ñģ Ð°
ĠÐºÑĢÐµ Ð¿Ð¾
ĠÐŀ ÑĢÐ¸Ð³Ð¸Ð½Ð°Ð»
ĠÐ³ÑĢÑı Ð·
ĠÐ²Ð¿ÐµÑĩÐ°ÑĤ Ð»ÐµÐ½Ð¸Ðµ
ĠÐŀ Ð±Ñĭ
ÐµÑħ Ð°Ð»Ð°
ĠÑĤÑĢÑĥÐ´ Ð¾Ð¼
ant s
ĠÐ½Ð° Ð²Ñĭ
ĠÑģÑĢÐ°Ð² Ð½ÐµÐ½Ð¸Ñİ
ct or
ĠÐ¾ ÐºÐµ
ĠÐ°Ð½ Ð°Ð»Ð¸Ð·
ÑģÑĤ Ð½ÑĭÐµ
ĠÐ½Ðµ ÑĥÐ´
ĠÐ¾Ð´Ð½Ð° Ð¶Ð´Ñĭ
ĠÐĶ Ñĥ
ĠÐ½ÐµÐ²ÐµÑĢ Ð¾
ÑģÑĤÐ¸ Ð»Ð°
Ñĥ ÐµÐ¼
ÑĨÐ¸Ñı Ð¼
ĠÑĢÐµÑĪ Ð¸ÑĤÑĮ
Ð²ÑģÐµ Ð³Ð´Ð°
Ġdiffer ent
ÑĢÐ¾Ð²Ð° Ð½Ð°
ĠÐ¡Ð¾Ð² ÐµÑĤÐ°
Ð´Ð° ÑĨÐ¸Ð¸
ĠÐ³Ð¾ÑģÑĥÐ´Ð°ÑĢ ÑģÑĤÐ²Ð¾
ÑģÐ¸ Ð»Ð°
ĠÑĢÐ° Ð½Ð¾
Ð¢ Ðĺ
ĠÐ¿ÑĢÐ¸ ÐºÑĢÑĭ
Ð±Ð¸ Ð½Ð°
Ð½ ÐµÐ½Ð½Ð¾
Ð³ Ð¾Ð´Ð°
ĠÑģ ÐµÐ¹
ĠÑģÑĤÑĢÐ°Ð½ Ð½Ð¾
ĠÐºÐ¾Ð½ ÐºÑĥ
ĠÐ²ÑĭÐ¿Ð¾Ð» Ð½Ñı
ĠÑĢÐ°Ð· Ñĥ
ĠÐ¢ Ð¾ÑĤ
ĠÐĺÐ½ÑĤÐµÑĢ Ð½ÐµÑĤ
ĠÐ¿ Ð¾Ð±Ñĭ
ĠÐ¿ÑĢÐ¾Ð´ÑĥÐº ÑĤÑĭ
Ðľ Ð¾Ð¶ÐµÑĤ
ĠÐ°Ð½Ð°Ð» Ð¾Ð³Ð¸
Ġc or
ĠB e
ĠÐ¾Ð±ÐµÑģÐ¿Ðµ ÑĩÐµÐ½Ð¸Ñı
ĠÐ² ÑħÐ¾Ð´Ð¸ÑĤ
Ð¾Ð»Ð° Ð³Ð°
ĠÐ¼ Ð¸Ð½Ñĥ
Ġp ass
ĠÑĢÑĥÑģ ÑģÐºÐ¾Ð¹
ĠÐ´Ð° ÑİÑĤ
ĠÑģÐ¸Ð»ÑĮ Ð½ÐµÐµ
Ð²Ð° ÐµÑĤÐµ
ĠÑģÐ»ÑĭÑĪ Ð°Ð»
Ð·Ð° ÑĢ
Ð¾ÑĢ Ð³
Ð±ÑĥÑĢ Ð³
% ,
ĠÐ·Ð°Ð½Ñı ÑĤÐ¸Ñı
ĠIn d
ÑĤÐ¸ Ñħ
ÑĢÑĥ ÑİÑĤÑģÑı
ĠÐ¿ÑĢÐµÐ´Ð»Ð¾Ð¶ Ð¸Ð»
ĠÐ¿Ð¾Ð½Ð¸Ð¼Ð° ÑĤÑĮ
ĠÑĥÐ±Ðµ Ð¶Ð´
ÑĢÐ¸ ÑģÑĤÐ°
ĠÐºÐ¾Ð» Ð¾Ð½
ĠÐ¸Ð´Ðµ Ñı
ĠÐ² Ð½ÐµÑģ
ĠÐ± ÑĢÐµÐ½
ĠÐ½Ð°Ð»Ð¸ÑĩÐ¸ Ð¸
ĠÐ½Ð° Ð²
ĠÐ´ÐµÑĤ ÑĮÐ¼Ð¸
Ð½ÐµÐ¹ ÑĪÐ¸Ñħ
ĠÐ¾Ð´ Ð½Ð¸
ĠÐ´Ð¾ ÑģÑĤ
ĠÐ½Ð°Ð¿ÑĢÐ°Ð² Ð»ÐµÐ½Ð¸Ð¸
ĠÐºÐ°ÑĤÐµÐ³Ð¾ ÑĢÐ¸Ð¸
v ing
Ðĳ Ñĭ
ĠÑģÑĭ Ð³ÑĢÐ°
ĠÑģÐº Ð»Ð¾Ð½
ĠÐ¿Ñĥ ÑģÑĤÑĭ
ĠÑĤÑĢÐµ ÑĤÐ¸Ð¹
ÑĪÐµ Ð²
ĠÐ¾Ð±ÑĢÐ°Ð· Ð¾Ð²Ð°ÑĤÐµÐ»ÑĮ
Ġe ach
Ð¾Ð´ Ðµ
ĠR T
ĠÐĽÑİ Ð´Ð¸
ĠÐł Ñı
ĠÐ¿ÑĢÐ¾ÑģÑĤ Ð¾Ð¹
ĠÐ¿Ð¾Ð¿ Ð¾Ð»
ĠÐ±Ð°Ð· Ðµ
ĠO n
v es
ĠÐĿÐ° Ñĩ
ÑĩÐ¸ Ð»Ð°ÑģÑĮ
ĠÐ¿Ð¾Ð² ÑĢÐµÐ¶Ð´
ĠÐŁ Ð¾Ðº
ĠÐ¿ÑĢÐ¾Ð²Ð¾Ð´ Ð¸ÑĤÑĮ
ĠÑĤÐµÑħÐ½ Ð¾Ð»Ð¾Ð³Ð¸
ĠÐ½Ð°ÑĤÑĥ ÑĢÐ°Ð»ÑĮ
ÑĤÐµÐ»ÑĮ Ð½ÑĭÑħ
ĠÑģÐ»Ð° Ð±
Ð½Ð¾Ñģ Ð¸ÑĤ
ĠS he
ĠÐ¾ÑĤÐ²ÐµÑĤ Ð¸ÑĤÑĮ
ĠÐ¸Ð½ Ð´
ĠÐ¾ÑĤ Ð±
ÑĥÑİÑī ÐµÐ¹
Ð¼Ðµ ÑĩÐ°
ĠÐ¼Ð¸ Ð½Ð¸Ð¼
ĠÑģÐµ ÑĢÐ¸
ĠÑĥÑģÐ»Ð¾Ð² Ð¸Ð¹
Ñģ Ñĳ
ĠÐ²ÐµÑĢ ÑģÐ¸Ð¸
ĠÐ²ÑĭÐ¿Ñĥ ÑģÐºÐ°
Ð°Ðº Ð¾Ð¼
ÑĤÐ¸Ð½ Ð³
ĠÑĩÐ»ÐµÐ½ Ð¾Ð²
ĠÐºÐ¾Ð½Ñģ ÑĥÐ»ÑĮÑĤÐ°
at or
ĠÑģÐ¾Ð² ÐµÑĤÐ°
Ð¾Ð² ÐµÑĤ
ĠÐĺ ÑĢ
ĠÐ²Ð¾Ð· ÑĮ
ĠÐ²Ñĭ Ð´
ĠÐ± Ð¾Ð³Ð°
ĠÐ½Ð° ÑĩÐ¸
ĠÐ¿ÑĢÐ¸ ÑģÑĤÑĥÐ¿
ĠÐ¾ÑīÑĥÑī ÐµÐ½Ð¸Ðµ
ĠÐĺ Ñģ
ÑĪ ÐºÐµ
ĠÐ¿ÑĢÐ¸Ð²Ð¾Ð´ Ð¸ÑĤ
ĠÐ¿Ð°ÑĢÐ° Ð¼ÐµÑĤ
ĠÑģÑĤÑĢÐ° Ð½Ð°
ÑĢÐ¾Ð²Ð° Ð½Ð¸Ð¸
ĠÐ¾Ð±Ð¾ÑĢÑĥÐ´ Ð¾Ð²Ð°Ð½Ð¸Ðµ
ĠÐ²ÐµÑģ ÐµÐ»
ord ing
ĠT e
ĠÐº Ð°Ñģ
ĠÑĦ Ð¾Ð½Ðµ
ĠÐ²Ñĭ Ð´ÐµÑĢÐ¶
ĠÐ¼Ð¸ ÑĢÑĥ
Ñĥ Ð»Ð¸
ĠS e
ĠÐ´ Ð²Ð¾Ðµ
ĠÐŁ Ð¸ÑĤ
ĠÐ¾Ð± Ð»Ð¸
ÑĢÐµ Ð±Ñĥ
ĠÐ¿ÑĢÐ¾Ð¸Ð·Ð²Ð¾Ð´ ÑģÑĤÐ²Ð¾
ĠÐºÐ¾Ð½ÑĤÑĢ Ð¾Ð»Ñı
ĠÐľ Ð°ÑĤ
ĠÐ²Ð·Ð°Ð¸Ð¼ Ð¾Ð´ÐµÐ¹ÑģÑĤÐ²
ĠÐ½Ð°Ð´Ðµ Ð¶
ÐµÐ½ ÑĤÐ¾Ð¼
an e
ÑĢÐ¾Ð²Ð° Ð½Ð¾
ĠÑģÐµÐº ÑĢÐµÑĤ
ĠÐ³Ð°ÑĢÐ°Ð½ ÑĤÐ¸
Ð°Ð³ Ð°Ð½
Ð½Ðµ ÑĢÐ°
ĠÑĤÐµÐ»ÐµÑĦ Ð¾Ð½Ð°
4 1
ÑĩÐµÐ½ Ð½ÑĭÐ¹
Ð¿ ÐµÐ²
ĠÐ¿ÑĢÐ¸ÑĢÐ¾Ð´ Ñĭ
Ð¼Ð¸ Ð½Ð°
ĠÐ½Ð°Ð¿ Ð¸ÑĤ
Ġcon st
ĠÐ·Ð° Ð³Ð°Ð´
ĠÑı Ðº
ĠÐ¼Ð¾Ð» Ð¸ÑĤ
ĠÐ¿ÑĭÑĤ Ð°Ð»ÑģÑı
ĠÐ´ Ð½ÐµÐ¼
Ð¿Ð° Ð´Ð°
ĠÐ¿Ð¾Ð² Ðµ
ĠÐ¿ÑĢÐµÐ´ÑģÑĤÐ°Ð² Ð¸ÑĤÐµÐ»Ð¸
Ġre qu
b l
it tle
ĠÐĹÐ° ÑĩÐµÐ¼
Ð¼ÐµÐ½ ÑĤÐ¸
ĠÐµÐ² ÑĢÐ¾
ĠÐŁÑĢÐµ Ð·Ð¸Ð´
ĠÑĥÐ½Ð¸Ð²ÐµÑĢÑģ Ð¸ÑĤÐµÑĤÐ°
ak es
ĠÐĿÐ¸ ÑĩÐµÐ³Ð¾
ĠÐ¿Ð¾ Ð½Ð°Ð´Ð¾Ð±
Ġf our
ĠÐº ÑĢÑĥÐ¶
k y
ĠÐ²ÑĭÐ¿Ð¾Ð» Ð½
ĠÐ¿Ð¾Ð·Ð²Ð¾Ð» Ð¸ÑĤ
vers ity
Ð´ Ð¸Ð»
ÑĦ Ð¸Ð»ÑĮ
Ġinclud ing
ĠÐ½Ð°Ñģ Ð»Ð°
ĠÐ³ Ð¸Ð´
ĠÐ ¹
Ð·Ñĭ Ð²Ð°Ñı
ĠÐºÐ° ÑĦ
ĠÐ¿Ð¾ÑģÐ»ÐµÐ´ Ð½Ð¸Ñħ
ĠÑĥÐ¿ ÑĢÐ°Ð¶
ĠÑĦ Ð°ÑĢ
Ġ201 8
ĠÐ¿Ð¾ÑĢÑıÐ´ ÐºÐ°
ĠÐ¾ÑĤ ÐºÐ»Ñİ
ĠÐ´ÐµÐ²Ð¾ ÑĩÐºÐ°
Ġd ata
ĠÐ½Ðµ ÑĥÐ´Ð°
ĠÐ¾ÑģÐ¾Ð± ÐµÐ½Ð½Ð¾ÑģÑĤÐ¸
ÑĢÐ¾ÑģÐ¸ ÑĤÑĮ
ĠÑģÐ¿ Ð¸Ð½Ð¾Ð¹
ĠÐ½Ð° ÑĥÐºÐ¸
ĠÐ·Ð° Ð¼ÐµÐ½
ĠÐ¼ÑĥÐ¶ Ñĩ
ÐºÑĢÐ° Ñģ
Ġcomm un
ĠÐ¾ÑĢÐ¸ ÐµÐ½ÑĤÐ¸
Ð²Ð¸Ð´ Ð¸Ð¼
ĠÐĹÐ½Ð° ÑĩÐ¸ÑĤ
ĠÑģÐ´ÐµÐ» Ð°Ð»Ð°
ĠÑĢÐ°ÑģÑģÐºÐ° Ð·Ð°ÑĤÑĮ
ĠÐ¾ÑĤÐº ÑĢÐ¾Ð²
ĠÐ´ Ð°Ð»Ð¸
ĠÑģÐ²Ðµ Ð¶
ĠÐĿÐµ ÐºÐ¾ÑĤÐ¾ÑĢÑĭÐµ
ĠÐĿ ÐµÐ²
ĠÐº Ð¸ÑĢ
ĠÐºÐ°Ð¶Ð´ Ð¾Ð¼Ñĥ
ÑĬ ÑıÑģ
ĠÐ½Ð¾ÑĢ Ð¼Ð°
ÑĤ ÐºÐ°
ĠÐ¿Ð¾ ÑĢÐ¾Ð´
le ar
ĠÐ¿ÐµÑĢÐµ Ð³Ð¾Ð²Ð¾ÑĢ
Ġs te
Ġsupp ort
st r
ĠÑįÑĤÐ¸ Ð¼Ð¸
ĠÐ¼ ÑĢÐ°
ĠÐ§Ð¸ÑĤ Ð°ÑĤÑĮ
ĠÐ½Ðµ ÑĩÐµÐ³Ð¾
ĠÐ± ÑĢÑİ
Ð·Ð° Ð¼Ð¸
ĠÐ²Ð¾Ð¹ Ð½Ðµ
ĠÑģÐ¿ÐµÑĨÐ¸Ð°Ð»Ð¸ ÑģÑĤÑĭ
ĠÐł ÐĲ
ĠÐ¿ÑĢÐ°Ð² Ð¾ÑģÐ»Ð°Ð²
ĠÐ½ÐµÐ·Ð½Ð° ÐºÐ¾Ð¼
Ð»Ð¸ Ð¸
ĠÐ´ÐµÐ» Ñĥ
ĠÐ´ÐµÐ¹ÑģÑĤÐ² Ð¸Ðµ
ĠÐ¿ÑĢÐ¸ ÑħÐ¾Ð´Ð¸ÑĤ
Ġ &
ÐĽ Ðķ
ĠÑģÑĤÐ¾Ð» Ð°
ĠÐĴ Ð·
ĠÐ¢ Ð¾Ð»
in al
Ġhe ad
ĠÐ¿ÑĢÐµ Ð¾Ð´
ĠÐ½Ð° ÐºÐ°Ð·Ð°
ĠÐ´Ð¾Ð² Ð¾Ð»ÑĮ
ĠÐĴ Ð¸ÑĤ
ĠÐ³ÑĥÐ± Ñĭ
ĠÐµÑģÑĤÐµ ÑģÑĤÐ²ÐµÐ½Ð½Ð¾
ĠÐ³Ð¾ ÑĢÐµ
ĠÑģÑĤÑĢÐ° Ð½Ñĥ
ĠÐ¿ÑĢÐ¾Ð´Ð¾Ð»Ð¶ Ð°Ð»
ĠÑĦÐ¸Ð»Ð¾Ñģ Ð¾ÑĦ
Ġp erson
ĠÐĲ Ñħ
7 5
ĠÐ¾ÑĤÐµ ÑĩÐµ
ĠÐ¿Ð¾Ð»ÑĥÑĩÐ¸ Ð»Ð°
k a
ÐµÐ½ÑĮ ÐºÐ¾
Ð¸ÑĤÐµÐ»ÑĮ ÑģÑĤÐ²Ð¾
ĠÐ¼Ð¸Ð½ÑĥÑĤ Ñĭ
ÑĳÐ½ Ð½ÑĭÑħ
ĠÑģÐ»ÑĥÑĩÐ° ÐµÐ²
Ð¾Ð²Ð° ÑĤÐµÐ»ÑĮÐ½Ð¾
ĠÐ¼Ð°ÑĤ ÐµÐ¼Ð°
ĠÐ²Ð¾ÑģÐ¿ Ð¸ÑĤÐ°
ÑĤÐ¸ ÐºÑĥ
ĠA t
ĠÑħ ÑĢÐ°Ð½
ĠÐºÐ¾ÑĢ ÑĢÐµÐº
ĠÐ³Ð»Ð°Ð² Ð½ÑĭÐ¼
ĠÑģÐ¾ÑĨÐ¸Ð°Ð»ÑĮ Ð½Ð¾Ð¹
ĠÐ²ÑģÐ¿ Ð¾Ð¼Ð¸Ð½Ð°
Ġpos s
ĠÐ´ÑĥÑĪ Ð°
ĠÐ»ÐµÐ¶ Ð¸ÑĤ
Ð¸ Ð½Ð¸
ĠU n
t ain
ÑĤÐµÐ»ÑĮ Ð½Ð¾Ðµ
Ð» Ð¾Ð¹
ÑĩÐ° ÑģÑĤÐ¸
ĠÐ· ÑĢÐ¸ÑĤ
Ñĩ Ð¾Ð½
ĠÐ¿ÐµÑĢ Ð²Ð¾
Ñĥ Ñı
ĠÑģÐ¾Ð± ÑģÑĤÐ²ÐµÐ½Ð½Ð¾
ĠÐ½ÐµÐ¿ ÑĢÐ¾
ÑĢÑĭ Ð·
Ð» Ð¾Ð´
Ð»Ñı ÑİÑĤ
ĠÐł Ð¾Ð±
ĠÐ¾ÑĤÐ²ÐµÑĤÑģÑĤÐ²ÐµÐ½ Ð½Ð¾ÑģÑĤÐ¸
ĠÐ² ÑĤÐ¾ÑĢÐ¾Ð¼
ĠÐ°Ð³ ÑĢÐµÑģ
ĠÑĢÐµ Ð¶Ð¸Ñģ
Ġ est
ĠÑĥÑģ Ð¼Ðµ
ĠÐ´Ð¾Ðº ÑĤÐ¾ÑĢ
ÑĤ ÐµÐ¼
Ġs ol
Ðļ Ð¾Ð½ÐµÑĩÐ½Ð¾
ĠÐ² ÑĬ
Ð´ Ð¸ÑĤÐµ
ĠÐ¿ÑĢÐ¸ÑħÐ¾Ð´ Ð¸Ð»Ð¾ÑģÑĮ
ĠÐ¼Ð°Ð» ÑĭÑĪ
ĠÐºÑĥ ÑĢÐ¸
ĠÑħ Ð¸ÑĤ
ĠÐ¿Ð¾Ð´Ð³Ð¾ÑĤÐ¾Ð² ÐºÐ¸
ĠÐ¿ÑĢÐ¸Ð½Ñı Ð»Ð¸
Ð¸ ÐºÐ¾Ð²
y m
ĠÑģÐ² Ð¾Ð´
ĠÐŁÑĢÐ¸ ÑĩÐµÐ¼
ĠÐ° ÑĢÐµ
Ġf ew
ĠÐ³ Ð¸Ð¿
ĠÐ¸Ð½ÑģÑĤ Ð¸ÑĤÑĥÑĤ
ĠÑį Ð½
ĠÑģÐ½Ðµ Ð³
ĠÑģÐ²ÐµÑĢÑħ Ñĥ
Ð¿ ÑĢÐµÐ´
ÐµÐ½Ð¸Ñı Ð¼
ĠÑı Ñģ
ĠÐ¿ÑĢÐ¸Ñĩ Ð¸Ð½Ðµ
ĠÐ¸Ð·Ð¼ÐµÐ½Ð¸ ÑĤÑĮ
Ġpol it
ĠÐºÐ¾ ÑĢÐ¾
ÑģÑĤ ÑĭÐµ
ĠÐ² Ð¾Ð½
Ñı Ð±ÑĢÐµ
ĠÐ¾ÑĢÑĥÐ¶Ð¸ Ñı
or ld
Ðº Ð½ÑĥÐ»Ð°
ĠÑģÐ¸Ð» Ð¾Ð¹
Ñı Ð½Ð°
ĠÐ¡Ðº Ð¾Ð»ÑĮÐºÐ¾
ĠÐ²Ð¾ ÑģÑĮ
ĠÐľ Ð¾Ð½
og le
ĠÐ³Ð¾Ð» Ð¾Ð´
Ġm ain
ĠÐ¿ÑĢÐ¸ Ð²ÐµÑģÑĤÐ¸
at s
Ġch ild
ĠÐŀ Ð½Ð¾
ĠÐ¿Ð° Ð¿
ĠÐ·Ð° Ð²Ð¸
Ð¾Ð·Ñı Ð¹
ĠÐ½ÐµÐ¿Ð¾ÑģÑĢÐµÐ´ ÑģÑĤÐ²ÐµÐ½Ð½Ð¾
Ġp ower
ĠÐºÐ¾Ð¼Ð¿ Ð¾Ð·Ð¸
ĠÐ¶ Ð´ÐµÑĤ
ĠÐĳÐ»Ð°Ð³Ð¾Ð´Ð°ÑĢ Ñı
ĠÑģÐºÐ° Ð¶Ñĥ
Ð» ÐµÐ·
ĠÐ²Ð¾Ð·Ð½Ð¸ÐºÐ° ÐµÑĤ
Ð¸Ð² Ð°Ð»Ð¸
ĠÑĦ ÑĢÐ°
ĠÐ¼Ð°ÐºÑģÐ¸Ð¼ Ð°Ð»ÑĮÐ½Ð¾
ĠÐ²Ð¸Ð´ Ð¾Ð¼
Ð» Ð¾Ð²Ð°
ĠÐ´ÑĢÑĥÐ³Ð° Ñı
Ð¹ ÑģÑı
Ġv al
a pp
Ġl ife
ĠÐº Ð»Ðµ
ĠÐļ ÑĢÐ°
ÑĥÑģ Ñĭ
ĠÐ½Ð°Ð¿ ÑĢÐ¾ÑĤÐ¸Ð²
9 6
ĠÐ² Ð°Ð½
ri pt
ĠÐ¿ÐµÐ½ ÑģÐ¸Ð¾Ð½
ĠÑģÐ¾ Ð¾ÑĢÑĥÐ¶
ĠÐ·Ð½Ð° ÐµÐ¼
Ġret urn
ĠÑħÐ»Ðµ Ð±
Ð¾Ñģ Ð¿
ĠÐ³Ð¾Ð»Ð¾Ñģ Ð¾Ð¼
ĠÐ²Ðµ ÑīÐµÐ¹
Ð¾Ñĩ Ð½Ð¾Ð¹
ĠÑĤ ÑĥÐ¼
ĠÑĪÐ¸ÑĢÐ¾Ðº Ð¾
ĠÐºÐ¾Ð»Ð¸ ÑĩÐµ
Ð¾ ÑĢÐ¸ÑĤ
ĠÐĺ ÑĤÐ°Ð»Ð¸
oh n
ĠÐĲ Ð»Ð¸
ĠÐ²Ðµ ÑĩÐµÑĢÐ°
ĠÐ¿Ð¾Ð» Ð°
Ð¼Ð¾ÑĤ ÑĢÐµÐ½
Ġc he
ĠÑĥ Ð¼Ð¸ÑĢÐ°
ĠÐļÐ°Ðº Ð¸Ðµ
ÑģÑĤ Ð°Ð¼
ÑĩÐ¸ Ð²
ĠÐ¾ÑģÐ½Ð¾Ð² Ð½Ð¾Ð¹
ĠÐ¿Ð¾Ð»Ð¸ ÑĨÐ¸Ð¸
ĠÐ¿Ð»Ð¾ÑīÐ° Ð´ÑĮ
ÑĦ Ð¸Ð½
Ġle g
ĠÐ½Ð°ÑģÑĤÑĢÐ¾ ÐµÐ½Ð¸Ðµ
ĠÑĤ Ð¾Ðº
ĠÑįÐº Ð¾Ð»Ð¾Ð³Ð¸
ĠÐ¿Ð¾ ÑģÐ°Ð´
Ð¾ ÑĦÐ¸
ĠÑĢÐ¾ÑģÑģÐ¸Ð¹ ÑģÐºÐ¾Ð³Ð¾
ĠÐļ Ð°ÑĤ
ĠÐ½Ð° ÑĢÑĥÐ¶
ĠÐ²ÐµÐ´ Ð¾Ð¼
Ġc ent
ĠÑģÐ»Ð° Ð±Ð¾
ĠÐ¼Ñĥ Ð·Ðµ
ÑĤÐµÐ»ÑĮ Ð½ÑĭÐ¼
ĠÐºÐ½Ð¸ Ð³Ðµ
ĠÐ¾ÑĤÐ²ÐµÑĤÑģÑĤÐ²ÐµÐ½ Ð½Ð¾ÑģÑĤÑĮ
ĠÐ¼ Ð¸ÑĤ
ĠÐ°Ðº ÑĨÐ¸Ð¸
ĠÑģÑĤÐ¸ Ð»ÑĮ
ĠÐ·Ð°Ð¿ ÑĢÐ¾Ñģ
W h
ĠÐĿ Ð°Ñģ
ĠÐ±Ð¾Ð»ÑĮÑĪ Ð¾Ð³Ð¾
ĠÐļ ÑĢÐ¸
ĠÐĴ ÑĤÐ¾ÑĢÐ¾Ð¹
ĠÐºÐ¾Ð¼Ð¼ÐµÐ½ÑĤÐ° ÑĢÐ¸Ð¸
Ġis s
-------- --------
at ic
ÑĩÐµ Ðµ
ĠÐ¸Ð¼ ÐµÐ»Ð¸
Ð¸ ÑĨ
ĠÐ´Ð¾Ð³ Ð¾Ð²Ð¾ÑĢÐ°
Ð²Ð¸ Ð»Ð°ÑģÑĮ
ĠÐ½Ð°Ðº Ð¾Ð¿
Ð» ÐµÑĤÐ°
ĠÐĿÐµÑģ Ð¼Ð¾ÑĤÑĢÑı
Ġ200 5
ÑģÑĤÐ² Ð¸Ð¹
ĠÐ¯ Ð¿Ð¾
ĠÐ¿ÑĢÐ¸ Ð±Ð¾ÑĢ
ĠÑģÐ¼Ð¾Ð³ Ð»Ð¸
ĠÑĢÐ° Ð´Ñĥ
ĠÐ¾ÑĤÐºÑĢÑĭ Ð»
ĠÑģÐ¾Ð²ÑĢÐµÐ¼ÐµÐ½ Ð½ÑĭÑħ
ĠÐ¾ Ñħ
ĠÑĪ ÑĤÑĢÐ°
Ð½Ð¸ ÑĤÐµÐ»ÑĮÐ½Ð¾
ĠÐ¼ ÐµÐ»ÑĮ
ĠÐ³Ð¾ ÑĢÐ¸Ð·
ĠÐ´Ñĥ ÑĢÐ°
ĠÐ¸Ð½ÑĤÐµÑĢ Ð²ÑĮÑİ
Ð¸ÑĤ Ð¸Ð²
ĠÐ¿Ð¾Ð´Ð´ÐµÑĢÐ¶ ÐºÐ¸
ĠÐ¿Ð¾Ð¹ ÑĤÐ¸
201 6
Ñī ÐµÐ½Ð¸Ð¹
ÑĦ Ð¾Ð²
ĠÐ¿ÑĢÐ¾ÑĪ Ð»Ð°
ĠÐ· Ð²ÐµÑĢ
Ð½Ð° Ð½
ĠÑĪ Ð°
ĠÐ¿ÑĢÐµ Ð²Ð¾Ñģ
ĠÑģÐ¾ ÑģÑĤÐ¾
Ð¼Ñĥ Ð»Ð¸
ĠÐ·Ð° ÑģÑĤÐ°Ð²
ĠÑĩÑĥÐ² ÑģÑĤÐ²Ñĥ
ĠÑĩÑĥÐ´ ÐµÑģ
ĠÐ´Ð¾ÐºÑĥ Ð¼ÐµÐ½ÑĤ
Ð¡ Ð¿
ĠP r
ĠAmeric an
ĠÐ½Ðµ Ð´ÐµÐ»ÑĮ
id er
Ð»Ð¾Ð¶ Ð¸ÑĤÑĮ
ĠÐ¿ÑĢÐ°Ð² Ð¸Ð»
ĠÐ¿Ð¾Ð´ÑĤÐ²ÐµÑĢ Ð¶Ð´
ĠÐ¿Ð° Ð¿Ð°
ĠÐ¼ ÑĥÑĩ
ew s
ĠÐ¿ÑĢÐµÐ´Ð¿ÑĢÐ¸ÑıÑĤÐ¸ Ð¹
ÐµÑĢ Ð¿
ĠÐĿ ÑĥÐ¶Ð½Ð¾
ÐµÑĢ ÑĪÐµÐ½
Ġmon th
ĠÐ¾Ð±ÑĬÑıÑģ Ð½Ð¸ÑĤÑĮ
ĠÐĿ ÑĮÑİ
ÐļÐ°Ðº Ð¾Ð¹
ĠÐŀ Ð±ÑĢÐ°
ĠÐ¿Ð»Ð° Ð½Ðµ
ĠÐºÑĢÑĥÐ¿ Ð½ÑĭÑħ
ĠÑĦÐ¸Ð½Ð°Ð½ ÑģÐ¾Ð²
ĠÑģÑĤÐ¾ ÑıÑĤ
ĠÐĶÐ¶ Ð¾Ð½
olog y
ÑĦ ÐµÑģ
ÑĤÐ° ÑĨÐ¸Ð¸
ĠÐ¿Ð¸ÑģÑĮ Ð¼Ð°
ĠÑģÐ¾Ð» Ð´Ð°
ĠÐ»Ð¸ ÑĩÐ½Ð¾ÑģÑĤÐ¸
ĠÐ²Ð»Ð¸Ñı Ð½Ð¸Ðµ
ĠÑģÐµÐºÑĥÐ½ Ð´
Ġde m
ĠÐ¼Ð¸ Ð³
ÐŁ Ñĥ
ÐĶ Ð¾
ur al
Ð»Ð¸ Ð²Ð°
Ñĥ ÐµÑĤÑģÑı
ĠÑĤÑİ ÑĢÑĮ
ĠÐ¿Ð¾Ð² ÐµÐ·
ĠÑĥ Ð´ÐµÐ»
ÑĢÑĥ ÑĢ
ĠM ar
ur y
ĠÐĴÐ°Ñģ Ð¸Ð»ÑĮ
Ġha pp
ĠÑĨÐ²ÐµÑĤ Ð¾Ð²
ĠÐ·Ð² ÐµÐ·Ð´
ĠÐ¿Ð¾ÑģÐ»ÐµÐ´ ÑģÑĤÐ²Ð¸Ñı
9 5
Ð·Ð°Ðº Ð¾Ð½
ĠÐ¡ Ð¾Ð³Ð»Ð°ÑģÐ½Ð¾
ĠÑģÐ¾ÑĨÐ¸Ð°Ð»ÑĮ Ð½ÑĭÑħ
ÑĤÐ¸ ÑĦÐ¸ÐºÐ°
ĠÐ½Ð°ÑĩÐ¸Ð½Ð° ÑİÑĤ
Ðł Ð£
Ġg l
Ð»Ñı ÑĨÐ¸Ð¸
ĠÐĴ Ð°ÑĢ
ĠÐ¼Ð¾Ð»Ð¾Ð´ ÑĭÑħ
ÑĮ ÐµÑĤ
ĠÐ·Ð° ÑģÑĤ
ĠÐ³ÑĢÐ° Ð´Ñĥ
ĠÐ¿Ð» Ð¾Ð´
ĠÑĢÑĥ ÐºÐµ
ro l
ĠÐ¿ÑĢÐ¾ÑĤÐ¸Ð²Ð¾ ÑĢÐµ
ĠÐ² Ð²Ð¾Ð´
Ġ ..
ĠÑģÐ¾ÑĢ Ð¾Ðº
ÐµÐ»ÑĮ Ðµ
ĠÑģÐ¾Ð¾ÑĤÐ²ÐµÑĤ ÑģÑĤÐ²ÐµÐ½Ð½Ð¾
ĠÐ» ÐµÐ¹
ĠÐ±Ðµ Ð³
ĠÑģÑĤÐ¾ ÑıÐ»Ð°
ĠÐ¿ÑĢÐ¾ Ð½Ð¸Ðº
ĠÐ²Ð¸Ð´ Ð¸ÑĤ
ĠÐ¸Ð· ÑĥÑĩÐ°
Ñĥ Ð¹ÑĤÐµ
ĠÐĺ ÑĤÐ°Ðº
ĠÐ³Ð°ÑĢ Ð¼Ð¾
ĠÑĥÐ»Ð¸ ÑĨÑĭ
7 6
ÑģÑĤ ÑĢÑĭ
ÑĤÐµÑĢ Ð½Ð°
ĠÑĢÐ°Ñģ ÑĩÐµÑĤ
Ġeff ect
Ñģ ÑģÐµ
ĠO r
Ð°Ð½ Ñĥ
ĠÐ´ Ð½ÐµÐ²
ĠÐł ÐµÐ·
ĠÐķ Ð´Ð¸Ð½
ĠC on
Ġan other
ĠÑģÐº ÑĢÐ¾Ð¼
ÑģÑĤÐ¾Ð² ÐµÑĢ
Ð² Ð°Ð»ÑĮ
ÑĪ ÐºÐ¾Ð¹
ru ct
ĠÑĢÐµ ÑĩÐ¸
ĠÐ¾Ð±ÑģÑĤÐ¾ÑıÑĤÐµÐ»ÑĮ ÑģÑĤÐ²Ð°
ĠÐ¸ Ð½Ð¾Ð¹
ĠÑįÑĦÑĦÐµÐº ÑĤ
ĠÐ²ÐµÐ»Ð¸Ðº Ð¾Ð»ÐµÐ¿
Ð°Ð»Ð¸ Ð½Ð°
ĠÑģÑĥÑĤ ÐºÐ¸
ĠÐ¿ÑĢÐ¾ÐµÐº ÑĤÐ¾Ð²
Ġre ally
Ð¿Ð° Ð½Ð¸Ð¸
ĠÐ¸Ð¼Ðµ ÐµÑĤÑģÑı
Ð¾Ð¼ Ñı
ĠÑĥÐ· Ð½Ð°Ð»
109 9
Ġst art
ĠÐ¾Ð± ÐµÐ´
ĠÑģÑĤ ÑĢÐ¾Ð³Ð¾
ĠÐºÐ¾Ñģ Ð¼ÐµÑĤ
Ð¾Ð²Ð° Ð½Ð°
Ñį Ð»ÑĮ
Ð¸Ð² ÑĪÐ¸ÑģÑĮ
ĠÐ¼ÐµÑĩ ÑĤÐ°
ĠÐ¿ÑĢÐµÐ´ÑģÑĤÐ°Ð² Ð¸ÑĤÐµÐ»ÐµÐ¹
ĠÐ·Ð° ÑģÐµ
ĠÐ½ Ð¾Ð²ÑĭÐ¼
ĠÐ½Ð° Ð½ÐµÑģ
ĠÑģ Ð¼ÐµÐ½
Ð¿Ð¸ ÑģÐ°
ĠÐ¼Ð° ÑģÐ»Ð¾
ĠÐº Ð»ÑİÑĩ
ĠÐ¾Ð´Ðµ Ð¶Ð´Ñĭ
ĠÑģÐ¼Ð¾Ð³ ÑĥÑĤ
ĠÐ³Ð¾ÑģÑĥÐ´Ð°ÑĢ ÑģÑĤÐ²ÐµÐ½Ð½Ð¾Ð³Ð¾
Ðŀ Ñģ
ĠÐ³ÐµÐ½ÐµÑĢÐ° Ð»
ĠÐ²Ð¾Ð· Ð¼Ñĥ
Ġse ason
Ð» Ñĳ
ĠÐ¿Ð¾ ÑĪÐ»Ð°
ĠÑģÐµÐº ÑģÑĥ
ĠÐ¡ Ð½Ð°ÑĩÐ°Ð»Ð°
ĠÑĢÐ¾ÑģÑģÐ¸Ð¹ ÑģÐºÐ¾Ð¹
ĠÐ¿Ð¾Ð¶ Ð°ÑĢ
Ð°Ð¼ ÐµÑĤ
Ð» Ð»Ð¸
ĠÐ·Ð½Ð° Ðº
ĠÐł Ð°Ð½
ĠÐĳ Ñĥ
ĠÐ²Ñĭ Ð·ÑĭÐ²Ð°ÐµÑĤ
ĠÐ¦ÐµÐ½ÑĤ ÑĢÐ°Ð»ÑĮ
ra ph
Ð¾Ðº Ð¾Ð½
ĠÐ½ ÐµÐ½
ĠÐ¼Ð°ÑĪ Ð¸Ð½Ðµ
ÐĴ Ðĺ
ĠÐ¼ ÐµÑĢÑĭ
Ð²Ñĭ ÑĩÐ°Ð¹
ĠÑĥ ÑģÑĤÐ¾Ð¹
Ð²ÐµÑĤ Ð°
Ġs chool
ĠÐ²Ð¾ ÐµÐ½Ð½ÑĭÑħ
am a
ĠÐ¾Ð·Ð½Ð° ÐºÐ¾Ð¼
re en
ĠÐ´Ð¾ÐºÐ° Ð·Ð°ÑĤÐµÐ»ÑĮ
Ð´ Ð¾Ð±
ĠÐ¡ Ñĭ
ĠÐ½Ðµ Ð¾Ð´
Ġb ro
ĠÐ³Ð¾ÑĢÐ¾Ð´ Ð¾Ð²
ĠÐ¸Ð· Ð¼ÐµÑĢ
ĠÐ±Ð¾ÑĢÑĮ Ð±Ñĭ
ĠÑĦÑĥÐ½Ðº ÑĨÐ¸Ð¸
Ġch ar
ĠÐ¿Ð»Ð°ÑĤÑĮ Ðµ
II I
110 3
ĠÐ¾Ð±Ð»Ð° Ð´Ð°ÐµÑĤ
ĠÐ¾ÑģÐ½Ð¾Ð² Ð½ÑĭÐµ
ĠÐļ ÑĥÐ¿
ĠÐļÐ° Ð·Ð°Ñħ
Ð½ Ð¾Ð²Ñĭ
ĠÐµ Ð¶Ðµ
ĠÑĤÐµÐ¼ Ñĭ
ÑĢÐ¸ Ð»ÑģÑı
ĠÐ¶ Ð¸ÑĤÐµÐ»Ð¸
Ġpl ace
et y
ÐµÑĢ Ð½Ð¸
ĠÑģÐ² Ð¾Ð±
ĠÑĢÐµ Ð°Ð»ÑĮÐ½Ð¾
ĠÐ¿ÑĢÐ¾ÑģÑĤÑĢÐ°Ð½ ÑģÑĤÐ²Ð¾
ĠÐ¿ÑĢÐ¾Ð³ÑĢÐ°Ð¼ Ð¼Ñĥ
ĠÐ¸Ð½ÑĤÐµÐ» Ð»ÐµÐº
ĠÐ¡ Ð¸Ð¼
ĠÐĺ Ð»ÑĮ
Ñħ Ðµ
ĠÐ³Ð¾Ð²Ð¾ÑĢÐ¸ Ð»Ð°
ĠUni ted
ĠÐ¼Ð°Ð»ÑĮ ÑĩÐ¸Ðº
Ġe l
Ð² ÑĤÐ¾ÑĢÑĭÑħ
Ġb us
ĠÐ¸Ð½ÑĤÐµÑĢ Ð½ÐµÑĤÐµ
ĠÐĿ Ð¾ÑĢ
ĠÐ¾ÑĤ ÑģÑİÐ´Ð°
Ð» ÑĭÐµ
ĠÐºÐ¾Ñģ Ð¼Ð¸
ĠÐ¿ÑĢÐ¾ÑĦÐµÑģ ÑģÐ¾ÑĢ
ĠÐ²Ñĭ ÑħÐ¾Ð´Ð¸ÑĤ
ÑĢÐ°Ð²Ð¸ Ð»Ð°ÑģÑĮ
ÑĤÐ¾Ð² Ð¾Ð¹
Ġbel ie
le y
ĠÑģÐµÐº ÑĢÐµÑĤÐ°
ĠÐ¼Ð¾ Ð½Ð¸
Ð¶ ÐµÐ½Ð¸ÐµÐ¼
Ð²Ð¸ Ð·Ð¸
Ġpro ble
Ðķ Ð¡
ĠÑģÑĤ ÑĢÐµÐ»
ĠÐ²Ð¾ ÐµÐ½Ð½Ð¾
Ġre f
Ð¾Ð³ Ð¾Ð²
te s
ÑĤÐ¾ ÑĢÐ¸Ñı
ĠÐ¿ÑĢÐµ ÑģÐ»ÐµÐ´
ĠÐ¶Ð¸Ð·Ð½ ÑĮÑİ
ĠÑĢÐµ Ð±ÑıÑĤÐ°
ĠÐ¿ Ð»Ð¸
ÐµÐ»Ð° ÑĢÑĥ
ĠÑĤÐµÐ¼ Ðµ
Ġla ter
ĠÐ¼Ðµ Ð±ÐµÐ»ÑĮ
ĠÐ¸ÑģÐ¿Ð¾Ð»ÑĮÐ·Ñĥ ÑİÑĤ
ĠÑĥÐ´Ð¾Ð²Ð¾Ð»ÑĮ ÑģÑĤÐ²Ð¸ÐµÐ¼
Ð½Ð¾ Ñİ
ĠÑĤÐ¾ ÑĢÐ¾Ð¿
ĠÑĤÐ¾Ð½ Ð½
ĠÑĥÑģÑĤÐ°Ð½Ð¾Ð² Ð¸ÑĤÑĮ
. ]
Ġres p
ÑģÐ¸ Ñģ
ĠÐ¡ ÐŁ
ĠÐ¿ÑĢÐ¾Ð³ÑĢÐ°Ð¼ Ð¼Ðµ
Ð¾Ð² Ð°Ð»Ð¸ÑģÑĮ
ĠÑħÐ²Ð° ÑĤÐ¸ÑĤ
ĠÑĤ ÑĢÐ¾Ð¿
Ġt urn
ĠÑĦ ÑĢÑĥÐº
ĠÑģÐ²Ñı Ð·
ĠÐĴ Ð¾Ð¿ÑĢÐ¾Ñģ
ĠÑħ ÑĢÐ°Ð¼
ĠÑģ ÐµÐ»Ð°
ĠÐ³Ð¾ÑĢ Ñĭ
ĠX I
l ess
Ġst ar
ĠÐ¿ÑĢÐ¾Ð¸Ñģ Ñħ
Ð»ÐµÐ½ Ð½Ð°Ñı
ĠÐ¿Ð»Ðµ ÑĩÐ°Ð¼Ð¸
ĠÐºÐ¾ÑĢ Ð¿Ñĥ
ĠÐľÐ¾ÑģÐº Ð²Ñĥ
ĠÐ¿Ð¾Ð´Ð¾ ÑĪÐµÐ»
ĠÐ·Ð°Ð´Ð° Ñĩ
Ð°ÑĢ ÑĤÐ°
ĠÐ¸ÑĤ Ð°Ð»ÑĮÑıÐ½
ĠÐļ ÐŁ
ĠÐ»Ð° Ð±Ð¾ÑĢÐ°
ĠÐ½ÐµÑģ ÑĩÐ°ÑģÑĤ
Ð¾ÑĤ Ð¾Ð¹
ÑĪ Ð½Ð¾
ĠÑĥÐ²Ð¸ Ð´ÐµÐ»Ð°
ĠÐ¿Ð» Ð°Ðº
ĠÐ½ ÑĳÐ¼
ÐĲ Ð²
ĠÑİ Ð½Ð¾
Ð»Ð° Ð·
en g
ĠÐ´Ð¸ Ð½Ð°Ð¼Ð¸
ĠÐ¿ÑĢÐ¸Ð½ ÑĨÐ¸Ð¿
Ñĩ Ð¸Ð»ÑģÑı
ĠÐ²Ð½ÐµÐ·Ð°Ð¿ Ð½Ð¾
ĠÐĴ Ð¡
Ġsm all
Ġcall ed
ĠÐ³ÑĥÐ± ÐµÑĢÐ½Ð°
ĠÐ£ Ð¿ÑĢÐ°Ð²
ĠÐ¿Ð¾Ð² Ð¾Ð´
ĠÐ± Ð°ÑģÑģ
m it
ĠÐ¾ÑģÑĥÑīÐµÑģÑĤÐ² Ð»ÑıÐµÑĤÑģÑı
i or
ĠÑģÑĤÐ° ÑĢÑĭÐ¹
Ð²Ð° Ð¼Ð¸
ĠÐ» ÐµÐ·
Ġto o
ÑģÐ» ÑĥÑĪ
8 6
ĠÐ·Ð°ÐºÐ»Ñİ ÑĩÐ°ÐµÑĤÑģÑı
Ġus ing
ĠÐ¡ Ð°Ð½
ĠÐ·Ð² Ñĥ
Ð½Ð¾ ÑģÐ¸ÑĤÑĮ
Ð¸Ð» Ð°Ðº
Ġinc re
ĠÐŁ Ð¸
Ð°Ð¹ ÑĤ
ir d
ÑĪ Ðº
ĠÐ¿ÐµÑĢÐµ Ð³
ĠÑģ Ð°ÑħÐ°ÑĢ
A R
le g
I N
ĠÐ¿Ð°ÑĢ Ð»Ð°
ĠÐ½Ð¾Ð¼ ÐµÑĢÐ°
Ð»ÐµÐ½ Ð½ÑĭÐ¼
ĠÐĶ ÐµÐ»Ð¾
ĠÑĥ ÑģÑĤÑĢÐ°
p s
Ġop er
ĠÐ¿Ð¾Ð´Ð½Ñı Ð»
ĠÑĢÐ°Ñģ ÑģÐ»ÐµÐ´
Ð½Ð¸ Ð»Ð¸ÑģÑĮ
ĠÐºÐ° ÑĦÐµ
ĠÐ¸ÑģÐ¿ ÑĥÐ³
ĠÑĪ Ð°Ñħ
ĠÐ·Ð° ÑĢÑĥ
Ð¿ Ð¸Ð¹
Ð¾Ð» ÐµÐ·
Ð§ ÐµÐ¼
Ð¾Ð³ÑĢÐ° Ð´
ĠB r
ĠÐºÐ¾Ð¼Ð¼Ñĥ Ð½Ð¸ÐºÐ°
ri end
ĠÐ²Ñĭ ÑģÑĤÑĢÐµ
Ġt y
Ġc urr
Ġne ver
ĠÐ±Ð°Ð½ ÐºÐ°
ĠÐ¾Ð± Ð¼Ð°Ð½
ĠÐ´Ð¾Ð±Ð°Ð² Ð¸Ð»
ĠÑĥÑģÑĤÐ°Ð½Ð¾Ð² ÐºÐ¸
Ð¾ÑĢ Ð´Ð¸Ð½Ð°
ĠÐĺÐ· ÑĢÐ°
ĠÑĤÑĢÐ¸ Ð´ÑĨÐ°ÑĤÑĮ
Ð·Ð¸ ÑĢÐ¾Ð²Ð°ÑĤÑĮ
one y
ĠÐ¿Ð¸ ÑīÐµ
Ġw ar
ÐºÐ° ÑĤÑĮ
ÐµÐ² Ð½Ð°
ĠÑģÐ¾Ð´ÐµÑĢÐ¶Ð° Ð½Ð¸Ðµ
ĠÐ½Ðµ Ð²Ðµ
ĠÐ² Ð¸Ñģ
ÑĢÐµ ÑĪ
ĠÐ²Ð¾Ð¹ Ð½Ñĥ
Ġinv est
ÑĢÐ¸ Ð´
Ġbu ild
5 4
ĠÐ± ÑĢÐ¸ÑĤÐ°Ð½
Ðĵ Ð£
ĠÐ³Ð» Ð¾Ð±
ĠÑĥ Ñī
ĠÐĳ Ð¾Ð¶
ĠÑĥÐ¿ÑĢÐ°Ð² Ð»ÐµÐ½Ð¸Ðµ
Ġb est
ÑĨÐ¸Ð¾Ð½ Ð½Ð°Ñı
Ġm at
ĠÐ¿Ð¾ÑģÑĤÐ° ÑĢÐ°
Ð¸Ð¼ ÐµÐ½
Ġb ig
ĠÐ¾Ð¿ Ð¸Ñģ
ĠÐ²Ð¾ÑģÐ¿ÑĢÐ¸ Ð½Ð¸Ð¼Ð°
i um
ÑĥÑī Ð¸Ð¹
ĠÐ· Ð¾Ð»Ð¾
Ġwe ek
Ġm ov
ĠÐ¢Ð°Ðº Ð¸Ðµ
ĠÑģÐµÐ¼ Ð¸Ð½Ð°
ĠÐ´Ð¾ÑģÑĤÐ¸ Ð¶ÐµÐ½Ð¸Ñı
ĠÐ²Ð¾Ð·Ð´ÑĥÑħ Ðµ
ĠÐ¾ÑĤ Ð´Ð°Ð»
Ð¾Ñĩ Ð½ÑĭÐ¹
ÐµÐ»Ð¾Ð² Ðµ
ĠÐ½Ð° Ð²ÑģÐµÐ³Ð´Ð°
ĠÐ¾Ðº ÑĢÐ°
ÑĤ Ð½Ð¾Ðµ
ĠÑģÐ¸Ð³ Ð½Ð°Ð»
ĠÐ ©
t il
ÑĢÐ¸ Ð»Ð¸
ĠÑĦÑĥÐ½Ðº ÑĨÐ¸Ð¾Ð½
Ðº ÑĤÐ¾
ĠÐ²ÐµÑĢ Ð½ÑĥÑĤÑĮ
ĠÐ¾ÑĤÐ²ÐµÑĤ Ð°
ĠÐ¾ÑģÑĤ ÑĢÐ¾Ð²Ð°
ĠÐ°Ðº ÑĤÐ¸Ð²Ð¸
ÑĮ ÐµÐ¼
ÐŁ ÑĢÐµ
a i
ĠÐĲ Ð¹
ĠÐ¾ÑĤ ÑĤÐµÐ½
ĠÐ·Ð°ÑıÐ² Ð»ÐµÐ½Ð¸Ðµ
ĠÑĩÐ¸ ÑģÑĤÐ¾
ĠÐ¿ÑĢÐ¾ÑĤÐ¸Ð² Ð¾Ð¿Ð¾Ð»Ð¾Ð¶
ĠÑĢÐµÐ¶Ð¸Ð¼ Ðµ
5 3
ĠÐºÐ¾Ð¼Ð°Ð½ Ð´Ð°
5 2
Ðľ Ð¾ÑģÐº
ĠÐºÐ¾Ð½ÑĨÐµ Ð¿
ĠÑģÐµÑĢ Ð²Ð¸Ñģ
Ġw on
ÐµÐ¼ Ð°Ñı
ĠÑĤÐ¾Ð²Ð° ÑĢÐ°
Ġn ear
ĠÐ´ÐµÐ²ÑĥÑĪ ÐºÑĥ
Ġâ Ĩ
ĠÐ¿Ð° Ñħ
Ð³Ð¾ ÑĢÐ°
ĠÐŃ Ð½
ĠC ol
Ðĵ Ð»Ð°Ð²Ð°
Ġa v
Ġ15 0
Ñĩ Ð°Ð»ÑģÑı
Ġc amp
ĠÐ¿ Ð¾Ð²Ð¾
ĠÐ¾Ð± Ð¾Ð·Ð½Ð°
ĠÐ»ÑİÐ± ÑĭÐµ
ĠÑģÑĤ ÐµÐ½Ð°
ĠÑĢÐ¾Ð´ Ð¸Ð»ÑģÑı
ĠÑĢÐµÑģÑĤÐ¾ ÑĢÐ°
ĠÑģÑĩÐ°ÑģÑĤÑĮ Ñı
form ation
ĠÑĤÑĥÑĢ Ð½Ð¸
ÑĪÐ¸ Ð²
ĠÑĤÑī Ð°ÑĤÐµÐ»ÑĮÐ½Ð¾
ĠÑģÐµÑĢ Ð²Ð¸
ÐºÑĥ Ð»ÑĮ
Ð¸Ðµ Ð²
ĠÐ¾ Ð³Ð»Ñı
ĠE x
ĠÑģÐ¼Ñĭ ÑģÐ»Ð°
Ð¼ Ð¾Ð·
Ð²Ð° ÑİÑīÐ¸Ñħ
ĠÐ±Ñĭ Ð²Ð°ÑİÑĤ
ĠÐ½Ð°Ð¿Ð¸ÑģÐ° Ð½Ð¾
ĠÐ¿Ð¾Ð´ Ð²Ð¾Ð´
ĠÐ¿Ð¾ ÑĢÐ¾
ĠÐ·Ð² ÑĥÐº
Ð¸Ð¼ Ð¾Ð¹
Ġp ut
ÐµÐº Ðµ
ĠÐ±ÑĥÐ´Ñĥ ÑīÐµÐ³Ð¾
Ð½Ðµ Ð¶
Ð½Ð°Ñĩ Ð°Ð»ÑĮÐ½Ð¾
ÐµÑĢÐµ Ð²
ĠÐ¾ÑģÑĤ Ð°Ð»ÑĮÐ½ÑĭÑħ
ĠÐ¿Ð¾Ð¿Ð° ÑģÑĤÑĮ
ĠÐ¼Ð°Ñģ Ð»Ð°
ate ly
Ð¾Ð» Ð¸ÑĤ
is ed
ĠÑģÑĤÐ¾ ÑıÐ»Ð¸
ĠÑģÐ¿Ð¾ÑĢ ÑĤÐ°
Ġc are
ĠÐº Ð²
ĠÐ¾ÑģÐ½Ð¾Ð²Ð° Ð½Ð¸Ð¸
ĠÐľ Ð¾Ð¹
ĠÐ¾Ð±ÑĢÐ° ÑĤÐ¸ÑĤÑĮÑģÑı
n et
ĠÐ¾Ð±ÑīÐµ ÑģÑĤÐ²Ð¾
Ð²Ð° ÑİÑīÐ¸Ðµ
Ð°Ñģ Ñĭ
ĠÐ¿ÑĢÐ¾ÑĪ Ð»Ð¸
ĠÐ²Ð¿Ðµ ÑĢÐµÐ´Ð¸
Ð½Ð¸ ÑĤÐ°ÑĢ
ĠÑģÐ¾Ð²ÑĢÐµÐ¼ÐµÐ½ Ð½Ð¾Ð¹
ĠÑĥ ÑģÑĤÑĢÐ°Ð¸
ĠÐ¾ÑĢÐ³Ð°Ð½Ð¸Ð·Ð° ÑĨÐ¸Ñı
ĠÐºÐ°Ð¶Ð´Ñĭ Ð¼
ĠÐ´ÐµÐ» Ð¾Ð¼
Ðĳ Ðŀ
ĠÑĥÐ»Ð¸ ÑĨÑĥ
Ġto p
ÑĤÐµÐ»ÑĮ Ð½Ð°Ñı
Ñİ Ðº
Â °
ĠÐ¾ ÑħÐ²Ð°
ÑģÑĤ Ð°Ð»Ð¸
ĠÐ»ÑİÐ± Ð¾Ðµ
Ð½Ðµ ÑģÐ»Ð¸
Ð²Ð° ÑİÑģÑĮ
Ð´Ð° Ð²
p ar
ĠÐ²Ð°ÑĪ Ñĥ
ĠÐ¿ÑĢÐ°Ð²Ð¸ÑĤÐµÐ»ÑĮ ÑģÑĤÐ²Ð¾
ĠÑĢÐ°Ð· ÑĢÑĥÑĪ
ĠÐº Ð¾Ð¶
ĠÑĪÐµ ÑģÑĤÐ¸
ÑģÐºÐ¾ÑĢ Ð±
Ñģ Ð¸Ð½
ÑĢÐ¾Ð²Ð°Ð½ Ð½Ð¾Ð³Ð¾
ĠÐ¸Ð½ ÑĤÐµ
ĠÑĥ ÑİÑĤ
ĠÐ¸ÑģÑĤÐ¾Ñĩ Ð½Ð¸Ðº
ĠÐ³ÑĢÑĥ Ð·Ð¾Ð²
A N
ĠÐļ ÑĥÐ±
ĠÑĥÐ´Ð¸ Ð²Ð»Ñı
ĠÐĺÐ³Ð¾ÑĢ ÑĮ
ĠÐ³ÑĢÑĥÐ´ ÑĮ
ĠÐ½ÐµÐ¿ ÑĢÐµ
ÑĤÐ¾ ÑĢÐµ
ÐŁ ÑĢÐµÐ´
ĠÐºÐ¾Ð¼Ð¿ Ð¾Ð½
ĠÐ°Ð²ÑĤÐ¾Ð¼Ð¾Ð± Ð¸Ð»ÐµÐ¹
201 3
iv ed
Ġspe c
ent ial
ĠÐ³Ð»Ð° Ð²Ñĭ
Ð½Ð° Ð±
ĠÐ²Ñĭ ÑĪÐ»Ð¸
Ġh ome
Ð¿ ÑĢÐ¾Ð¼
ĠÑĥ Ð¹ÑĤÐ¸
ĠÐ·Ð°Ð¿ Ð¾Ð¼
ĠÐ¿Ð¾Ð´Ð´ÐµÑĢÐ¶ ÐºÑĥ
Th is
ĠÐ´ ÑĥÐ¼Ð°Ð»Ð°
ĠÑģÑĤÑĢÐ°ÑĤÐµ Ð³Ð¸
Ð´ Ð»Ñı
ĠR ep
ĠÐ²ÐµÑĢÐ¾ ÑıÑĤÐ½Ð¾
Ð¸Ð· Ð½ÑĮ
ĠÑģÐ¼ ÐµÐ½Ð¸
ĠÐ³Ð»ÑĥÐ± Ð¾ÐºÐ¾
, -
ĠÑįÐºÑģÐ¿Ð»ÑĥÐ°ÑĤÐ° ÑĨÐ¸Ð¸
Ð²Ð¸ ÑĩÐ°
ĠÐ¿ÑĢÐ¸ ÑĩÐ¸Ð½Ñĭ
ÑĤÐ¸Ð² Ð½Ð°Ñı
ÑĩÐ¸ÑĤ ÑģÑı
Ð¶ Ð´Ð°ÐµÑĤ
ĠÐ¿ÑĢÐµÐ´ÑģÑĤÐ°Ð² Ð¸ÑĤÐµÐ»ÑĮ
ÑģÑĤÐ¾ ÑĢÐ¸Ñı
ĠÐ¾Ð³ÑĢÐ¾Ð¼ Ð½Ð¾Ðµ
ĠÑģ Ð°Ð½Ðº
ĠÐ´ ÐµÐº
ÐŁÐµÑĤÐµÑĢÐ±ÑĥÑĢ Ð³
ĠÑĪ Ð°ÑĢ
ĠÐ¾ÑĤ ÑĤÑĥÐ´Ð°
ĠÐŁÑĥ ÑĤÐ¸Ð½Ð°
ĠÐ»ÐµÑģ Ñĥ
ĠÐĳÑĭ Ð»Ð¾
ĠÐ¤ Ð¾ÑĢ
ĠÑģÐ¾Ð¾Ð± ÑīÐµÐ½Ð¸Ðµ
ĠÑĦ ÐµÑĢ
ÐµÐ´ Ð»Ð¸
ĠÐ· Ð´Ð°Ð½Ð¸Ðµ
ĠÑį ÐºÐ¸
Ġne xt
ĠÑįÐºÑģÐº ÑĥÑĢ
ĠÐ¿ÑĢÐ¸Ð½ÑĨÐ¸ Ð¿Ðµ
Ġ3 6
Ġst and
Ġs ing
ĠÐºÐ°ÑĢ Ð¼Ð°Ð½
ĠÐºÐ¾ÑĢ Ð¿ÑĥÑģ
ĠÐĴ Ð¾ÑĢÐ¾
ĠÐ¿Ð¾Ð» ÐºÐ¾Ð²
ĠÐ¾Ñģ Ð½Ð°
ĠÐ±Ð¸Ð±Ð»Ð¸ Ð¾ÑĤÐµ
ÑģÑĤÑĮ ÑıÐ½
Ðĺ ÐĲ
aj or
ĠÐºÐ¾Ð¼Ð¿ ÑĮÑİ
ĠÐ´ ÐµÑĢÐ¶Ð°
ĠÐĴ ÐµÐ½
ĠÑĤ ÑĢÑı
ĠÐ» Ð¸Ð¼
ĠÐ¿Ð¾ÑıÐ²Ð»Ñı ÐµÑĤÑģÑı
ĠÐº Ð¾Ð¶Ð°
ĠÐ¾ ÑĩÐ°
ĠÐľ Ñį
Ð¿ ÑĤÐ¾Ð¼
ĠÐŀ Ð»ÐµÐ³
ĠÐ²ÑĭÑħÐ¾Ð´ Ð°
Ġto ld
ĠÐ¿Ð¾ÐºÐ° Ð·ÑĭÐ²Ð°ÐµÑĤ
ĠÐ¸ÑģÐ¿ ÑĢÐ°Ð²
ĠÐ±ÑĥÐ¼Ð° Ð³Ð¸
ÐºÐ¸ Ð½Ð°
ĠÐ¿ÑĢÐ¾Ð´Ð° Ð¶
ĠÑģÐµÐ³Ð¾Ð´Ð½ÑıÑĪ Ð½Ð¸Ð¹
ĠÐĵ Ñĥ
ÐºÐ¾Ð² Ð¾
Ð¶ ÑĥÑĤ
Ðµ Ñĩ
ĠÑĢÐ°Ð±Ð¾ÑĤ Ð½Ð¸ÐºÐ¾Ð²
ĠÐ¿Ð¾Ð´Ð¾Ð· ÑĢÐµ
ĠÐºÐ½Ð¸ Ð¶
Ġwith out
ĠÑģÐ¾Ð± ÐµÑģÐµÐ´
Ð°Ð½ Ð½Ð¾
ĠÐ¾ÑĢÐ³Ð°Ð½Ð¸Ð· Ð¼
ĠÑĪ Ð»Ð°
ĠÐ¿Ð¾Ð»ÑĮÐ· Ð¾Ð²Ð°ÑĤÑĮÑģÑı
ĠÐ¿Ð¾Ðº Ð»Ð¾Ð½
m ber
ĠÑģÐ¾Ñģ ÑĢÐµÐ´
iz ation
Ð± Ð°Ð»
Ġm ark
ĠÑĢÐµÐ· ÐµÑĢ
Ñį Ð½ÐµÑĢ
ĠÐ¢ ÐµÑħ
ÑģÑĤÐ¾Ñĩ Ð½Ð¸Ðº
ĠÐ¿Ð¾ÐºÐ°Ð· Ð°Ð»Ð¾ÑģÑĮ
l o
Ñī ÐµÐ½Ð¾
ĠÐ¾ÑĤ ÑģÑĤÑĥÐ¿
ĠÑĦÐ¸ÑĢ Ð¼Ñĭ
ĠÐ¼Ð°ÑĢÑĪ ÑĢÑĥ
ĠÑĥ Ð´Ð¾
Ð¾Ð² ÑĮ
Ð¾Ð¶Ð´ ÐµÐ½Ð¸Ð¸
ĠÐ½Ð°ÑĩÐ°Ð»ÑĮ Ð½Ð¸Ðº
ÑĤÐ¸ ÐºÐµ
ĠÐ½Ð°Ñģ Ñĭ
ĠÐ¾Ð¿ ÑĤÐ¸Ð¼Ð¸
ace book
iss ion
Ġre port
ĠÐĴÑģÐµ Ð³Ð¾
ĠÐ¾ ÑģÐ»
ch n
ĠÑĥÐ¿ Ð¾ÑĢ
Ð´ Ð¾Ð¹
ĠÑģÐµÑĢÐµÐ´ Ð¸Ð½Ðµ
ĠÐ¿Ð¾Ð´Ð¾Ð± Ð½ÑĭÑħ
ĠÑģÐ¾ÑħÑĢÐ° Ð½Ð¸ÑĤÑĮ
Ð°Ð»Ðµ ÐºÐ¾
ĠÐ» Ð¾Ð¼
ÑĤÐ¾ÑĢÐ° Ð¼Ð¸
Ð½Ñĥ ÑĤÑĢÐ¸
ĠÐ¾Ð±Ñģ ÑĥÐ¶
ĠÐ¿Ð¾Ð»ÑĮÐ·Ð¾Ð²Ð°ÑĤ ÐµÐ»ÐµÐ¹
; ,
Ð³ Ð¾Ð»
ĠÑħÐ¾ÑĢÐ¾ ÑĪÐµÐ³Ð¾
ĠÐ±ÐµÑĢÐµ Ð³
Ð¾ Ñİ
oc c
ĠÐ¼Ð°ÑĢ ÐºÐ¸
ĠÐ´ Ð¾Ð¼Ñĥ
ĠÐ·Ð°Ðº ÑĢÐµÐ¿
Ð²Ð¾ ÑĢÐ°ÑĩÐ¸
ÑĦ ÑĤ
ĠÐ¿Ðµ ÑĩÐ°
ĠÐµÑħ Ð°ÑĤÑĮ
ÑģÑĤÐ² Ð¾Ð²Ð°Ð»Ð¸
ĠÐ¼Ð¾ ÐµÐ¼
ĠÑħÐ¾Ð»Ð¾Ð´ Ð¸Ð»ÑĮ
ĠÐ» ÐµÑĤÐ°
ÐµÐ½ Ð¾Ð¼
ĠÐ»Ðµ ÑĩÐµÐ½Ð¸Ðµ
ĠÑģÑĤÐ¸ Ð»Ðµ
ÐĽ Ð¸
ĠÐ¡ Ð¾Ð·
Ġg reat
ĠÑĦÑĥÑĤ Ð±Ð¾Ð»
ĠTru mp
ÑģÑĤ ÑĢÐ¾Ð²
ĠÐ²ÐµÐ´ ÐµÑĤ
ĠÐ·Ð¾Ð² ÑĥÑĤ
ĠÐ²Ñĭ Ð¶Ð¸
ĠÑģÐµÐ· Ð¾Ð½
ÑĩÐ¸ ÐºÐ¾Ð¼
ĠÐ´Ðµ ÐºÐ¾ÑĢÐ°
Ð± ÐµÐ»
ĠÐ´ÐµÑĢÐµÐ² ÑĮÑı
ĠÐ²Ð¾Ñģ ÑģÑĤÐ°
Ġc ase
Ð°ÑĤ Ð¾Ð²
ĠÐ¾Ð¿ ÑĭÑĤÐ°
ĠÐ¿Ð»Ñİ Ñģ
Ðº Ð½ÑĥÑĤÑĮ
ĠI f
ĠÐ» Ñĭ
or ted
ĠÑģ Ð½ÑıÑĤÑĮ
ĠÐ²Ð¾Ð» Ð½Ñĥ
ĠÐ·Ð°Ð» Ð¾Ð¶
ÑģÑĤ Ð½ÑĭÐ¹
ĠÐ¼Ð°Ð³Ð°Ð· Ð¸Ð½Ðµ
ĠÐ´Ð¾ ÑĩÐµ
ĠÐºÐ¾Ð½ÐºÑĥ ÑĢÐµÐ½
ĠÐ¿ÑĢÐ¸Ð¾Ð± ÑĢÐµÑģÑĤÐ¸
ĠÐ´Ðµ Ð¿
r ist
ĠÐ±ÐµÑģÐº Ð¾Ð½Ðµ
ĠÐĳ Ð°Ð»
9 8
ĠÑģÐº Ð»Ð°Ð´Ñĭ
a u
ĠÐ²Ñĭ Ð¸Ð³ÑĢÐ°
ĠÑĢÑĥÑģ ÑģÐºÐ¸Ðµ
ÑĤÐ¸ ÐºÐ¾Ð²
ĠÐ²Ð¸ÑĤ Ð°Ð¼Ð¸
ĠÐ¿Ð¾Ð¿ Ð°Ð»
ĠÐ±Ð¾Ð»ÑĮÑĪ ÐµÐ¹
ĠÑģÑĤ Ð¾Ð»Ðµ
ĠÑĢÐ°Ð´Ð¾ ÑģÑĤÑĮ
Ñħ Ð¾Ð·
Ġb o
Ġn ame
ĠÐ²Ð¾ ÑģÑĤÐ¾
Ð¼Ð¾ÑĤ ÑĢÐ°
ĠÐ²Ð¾ Ð¸Ð½
ĠÐ½ÐµÐ¼ÐµÐ´ Ð»ÐµÐ½Ð½Ð¾
ĠÐ¿Ð¾ ÑĤÑĢÐ°
ĠÐ¿Ð¾Ð²Ñĭ ÑĪÐµÐ½
Ġcom e
ĠÐ¾ÐºÐ¾Ð½ÑĩÐ° ÑĤÐµÐ»ÑĮÐ½Ð¾
ĠÐ½Ð°ÑĢÑĥ ÑĪÐµÐ½Ð¸Ñı
ĠÑĢÑĥ Ð±Ð°
ĠÐ²Ð¾Ð¿ Ð»Ð¾
ĠÐ² ÑģÑĤÐ°Ð»
le t
ĠÑģÐ¾ÑĤ Ð½Ð¸
ĠÐ¿ÑĢÐ¸Ð±Ð»Ð¸ Ð·
ĠÐ¿Ð¾ ÑĢÐ¾Ð¹
.... <|
ĠÐ·Ð° ÑħÐ¾Ð´
ĠÐ¿Ð¸ÑģÑĮ Ð¼ÐµÐ½
ĠÐ¿ÑĢ Ð¾Ð¹Ð´ÐµÑĤ
ĠÐ¿ÑĢÐ¸Ð² ÐµÐ·
ĠÐ´Ð² Ð¾Ð¹
ĠÑħÐ¾ÑĢÐ¾ÑĪ Ð¸Ðµ
ĠÑĦ Ð¸Ðº
ĠÐ¿Ð¾Ð·Ð´ ÑĢÐ°Ð²
ri ed
ĠÐ´Ð¸Ð°Ð³ Ð½Ð¾ÑģÑĤÐ¸
ĠÑģÑĤ ÐµÐ½Ðµ
ĠÑģÑĢÐ¾Ðº Ð¸
s elf
Ġ >
ĠÑĨ ÐµÐ»ÐµÐ¹
ĠÐºÐ»Ñİ ÑĩÐµ
ĠÐĲÐ² ÑĤÐ¾ÑĢ
Ð·Ð° Ð²
Ġl arge
Ð¶ Ð¸ÑĤ
ĠÐ³ÑĢÐ° ÑĦÐ¸
ĠÑĥÐ´Ð¾Ð²Ð¾Ð»ÑĮ ÑģÑĤÐ²Ð¸Ðµ
ÑĥÐ³ Ð¾Ð»ÑĮ
Ġm ight
ÐºÑĥ Ð¿
ĠÐļ ÑĢÑĭÐ¼
ĠÑģ Ð°Ð»Ð°
ĠÐµÐ² ÑĢÐµ
ÐµÐ»Ñı Ð¼Ð¸
ĠÐ¾Ð´ Ð¾Ð±
ĠÑĨ ÐµÐ½Ðµ
Ð¸Ð¼ ÑĭÑħ
ĠÑĩÐ¸ ÑģÐ»
ĠÐ¾ÑĤ ÑĢÐµ
ĠÐ¼ÐµÑĢÐ¾Ð¿ÑĢÐ¸Ñı ÑĤÐ¸Ð¹
ĠÐ²ÑĭÑģÐ¾Ðº Ð¾
ĠÑģÐ²ÑıÐ·Ð° Ð½Ð¾
7 8
Ñģ ÐµÐ»
ĠÐ¼ÐµÑģÑĤ Ð½ÑĭÑħ
ĠÐ¿Ð¾Ð´ Ð±Ð¾ÑĢ
ÑĩÐµ ÑģÑĤÑĮ
a im
ĠÐľ Ðŀ
Ġle ft
ÑĤÐ¸Ð² Ð½Ð¾Ðµ
ĠÑĢÐ°Ð· Ð¼ÑĭÑĪ
ĠÐ» Ð¾Ð±
Ð½Ð¸ Ð»Ð°ÑģÑĮ
ĠÐ½Ð°ÑħÐ¾Ð´ Ð¸Ð»ÑģÑı
ĠÐ¾ÑĤÐºÑĢÑĭ ÑĤÑĮ
ĠÑģÑĤÐ°Ð½Ð¾Ð² ÑıÑĤÑģÑı
ĠÐ½Ð¾Ð³ Ð°Ð¼Ð¸
Ġ }
ĠÐºÑĢÐ¾Ð²Ð° ÑĤÐ¸
ĠÐ²ÐµÑĢ Ð½Ð¾
Ġim port
ĠÐ²Ðµ ÑĢÐ¸ÑĤÑĮ
Ð°Ð» ÐµÐ¹
ĠÐ´ÐµÑĢÐ¶ Ð°ÑĤÑĮ
ĠÑģÑĩÐ¸ÑĤÐ° Ñİ
ĠÐ¿Ð¾Ð´ÑĢÐ¾Ð± Ð½Ð¾
Ġm us
Ġas k
ĠÐ¿ÑĢÐ¾ÑĤÐ¸Ð² Ð½Ð¸ÐºÐ°
Ġad v
f e
ĠÐ¾ÑĤÐ²Ðµ ÑĩÐ°ÐµÑĤ
ĠÐļ Ð°Ð»Ð¸
ĠÐłÐ°Ð· Ð²Ðµ
ĠÐºÐ° ÑĢÐ°
ÑģÑĤÐ¾Ðº Ðµ
ĠÐ´ÐµÐ» Ð°Ð»
Ð´Ðµ ÑĪÑĮ
ĠÑģÐ²Ð¾Ð±Ð¾Ð´ Ñĭ
ĠÐ´ ÑĥÐ±
ĠÐ§ ÐµÐ»Ð¾Ð²ÐµÐº
ĠÐ³ Ð¸Ð¼
ĠÐĵ ÑĢÐ°
ĠÐ¿Ð¾ ÑĢÐ°Ð·
ĠÐ¸ÑģÐ¿Ð¾Ð»ÑĮÐ· Ð¾Ð²Ð°Ð½Ð¸Ð¸
ĠÑĨ ÐµÐ»ÑıÑħ
ĠÐºÐ¾Ð¼Ð¸Ñģ ÑģÐ¸Ð¸
ÑĦ ÐµÐ»ÑĮ
ĠÐ´ ÑĭÐ¼
id ed
ĠÑģÑĬ ÐµÐ¼
ĠÐ²Ðµ ÑīÐµÑģÑĤÐ²
ĠÐ¾ÑģÑĤ Ð¾ÑĢÐ¾Ð¶Ð½Ð¾
ĠÐļÐ¸Ðµ Ð²
ĠÐ¡Ð¾ ÑİÐ·Ð°
ĠÑģÑĤ ÑĢÐ¾Ðº
ĠThe re
ĠÐº ÑĢÐµÐ¼
ĠÐĿ Ð°ÐºÐ¾Ð½ÐµÑĨ
ĠÐ½Ð° Ð¿Ð°Ð´
m y
ĠÐ¾ÑģÑĤÐ°Ð½ ÐµÑĤÑģÑı
Ð²Ð° Ð½Ð¸Ñİ
ĠÐĿÐ° Ð²ÐµÑĢÐ½Ð¾Ðµ
ĠÐ¸Ð· Ð±ÐµÐ¶Ð°ÑĤÑĮ
ÐŁ ÐµÑĢÐµ
ĠÐ·Ð°Ðº Ð¾Ð½Ð¾Ð¼
Ð± ÐµÐ·
ĠÐ¿Ð»Ð° ÑĤÐ¸ÑĤÑĮ
ĠÐ½ÐµÐ´Ð²Ð¸Ð¶ Ð¸Ð¼Ð¾ÑģÑĤÐ¸
ÑĤ Ð°Ð»Ð°
ĠÐĵÐ»Ð°Ð² Ð½Ð¾Ðµ
Ð¾Ð¿ Ð¸Ñģ
ĠÐŀ ÐĲÐŀ
ĠÐ¿Ð¾ÑģÐ» ÑĥÑĪ
Ġl ittle
Ġdes ign
ĠÑĥ ÑģÑĤÐ°Ð²
ĠÐ·ÑĥÐ± Ñĭ
ĠÑĥÐ´Ð¾Ð± Ð½Ð¾
ĠÑģÐ¿Ð¾ÑģÐ¾Ð± ÐµÐ½
ĠR uss
Ð¡Ðµ Ð³Ð¾Ð´Ð½Ñı
re am
ĠÐ¸Ð³ÑĢÐ° ÐµÑĤ
ĠÐ¿ÑĢÐµÐ²Ð¾Ñģ ÑħÐ¾Ð´
ĠÐĿÐ¾Ð²Ð¾ ÑģÑĤÐ¸
ĠÑĩÑĢÐµÐ· Ð²ÑĭÑĩÐ°Ð¹
Ġre ce
ÐµÐ½ÑĤÐ° Ð¼Ð¸
ĠÐºÐ¸ÑĢ Ð¿Ð¸
ĠÐ±Ð° ÑĤÐ°
os s
ĠÐĳ ÐµÐ»Ð°ÑĢÑĥ
ĠÐ¾Ð±ÐµÑģÐ¿Ðµ ÑĩÐ¸ÑĤÑĮ
ĠÐ¸Ð³ ÑĢ
ĠÐ¾ÑģÐ² Ð¾Ð±Ð¾Ð´
Ġe qu
Ġh um
ĠÐ¿Ð¾Ð» Ð¾ÑĤ
ÑĥÐ»ÑĮ ÑĤÐ¸
Ñģ Ð¸Ð»
ĠÑĤÐ²Ð¾ Ñı
ÐĲ Ð¡
ĠÐŀ Ð³
Ð¢ Ð¾Ð»ÑĮÐºÐ¾
ĠÐ²Ñĭ ÑĢ
ÐµÐ½ ÑģÐ°
ĠH ow
ĠÑĦ Ð¾Ð½Ð°
Ġpro gram
ĠÐ±ÑĥÐ´ ÑĮ
ÑĢÐ°Ð½ Ð¾Ð²
ĠÑĩ Ñĥ
ĠÑĦÐ¸Ð½Ð°Ð½ ÑģÐ¸
ĠÐ¿Ð¾Ð¹ Ð¼
ÑģÑĤÐ²ÐµÐ½ Ð½ÑĭÐ¼Ð¸
Ġbe h
ĠÐ¢ ÐµÑĢ
ĠÐ¼Ð¾ ÐµÐ¼Ñĥ
Ð´ Ð¾Ð½
ĠÑĥÑĩÐµÑĤ Ð¾Ð¼
ÐĶ Ð¾Ð±
ĠÐ³Ð»Ð° Ð²Ðµ
ĠÑĤÑĥ Ð°Ð»
ĠÑģÐ¿Ð¾ÑģÐ¾Ð± Ð¾Ð¼
ĠÑĥÐ½Ð¸Ð²ÐµÑĢÑģ Ð¸ÑĤÐµÑĤ
ĠÑĥÑĩÐ°ÑģÑĤÐ¸ Ñı
ÑĪ ÐµÐ½Ð¸Ñİ
th ing
ĠÐ¿Ð¾Ð´ ÑĢÐ¾ÑģÑĤ
ĠÐ¿ÑĢÐ¾Ð· ÑĢÐ°
ĠÐ²Ð°Ð» ÑİÑĤ
Ð½Ð¸Ð¼ Ð°Ð»Ð¸
Ð³Ð° ÑİÑĤ
Ð½Ðµ Ð²Ð½Ð¾
Ġkn own
ÑĤ ÐµÐ»ÐµÐ¼
ĠÐºÐ¾ ÑĪ
Ġ200 4
ĠÐ¾ÑĢÐ³Ð°Ð½Ð¸ Ð·Ð¾Ð²
ÑĪ ÐµÐ½Ð¸Ð¸
ĠÑį Ð¿
ĠÐ¶ÐµÐ» ÑĥÐ´
ĠÐ¿Ð¾ÐºÐ°Ð· Ð°Ð»
ÑĢÑĥ Ð½
ĠÑģÐ¸ Ð³Ð°
ĠÐ²Ðµ ÑīÑĮ
ĠÐ±ÐµÑģÐ¿ Ð¾ÐºÐ¾
ĠÐļÐ°Ðº Ð¾Ð¹
ÑģÑĤÐ²ÐµÐ½ Ð½Ð¾ÑģÑĤÐ¸
Ġ o
ĠEn g
ĠÐ¸Ð·Ð´ÐµÐ» Ð¸Ñı
k i
ĠÐĶ Ð°Ð»ÐµÐµ
Ġper form
ĠÐ¿Ð¾Ð·Ð²Ð¾Ð» ÑıÑİÑĤ
ĠÑģÐ»Ð¾Ð² Ð¾Ð¼
ĠÑģÐ¿ÐµÑĨÐ¸Ð°Ð»Ð¸ Ð·Ð¸
Ð¡ Ð¿Ð°ÑģÐ¸Ð±Ð¾
ĠÑģÑĤÐ¾ Ñı
ĠÐ´ÐµÑĤ ÑģÑĤÐ²Ð°
ĠÑĥ ÑĪÐµÐ»
ĠÑħÐ¾Ð·Ñı Ð¸Ð½
ĠÐ¶ ÐµÐ½Ñĭ
ĠÐ¿Ð¾Ð·Ð²Ð¾Ð» Ñı
ĠÐ¾ÑĤÑĢÐ¸ ÑĨ
Ñģ ÑģÑĥ
qu e
i ver
Ð¼Ð° Ð³Ð°
ĠÑģÐ¾ Ñĩ
Ġh ist
Ð½ Ñĳ
ĠÐ± ÐµÐ½
ĠÐ¿ÑĭÑĤÐ° ÑıÑģÑĮ
ĠÐ´Ð¾ÑĢÐ¾Ð³ Ð¾Ð¹
ÑĦ ÐµÑĢÐ°
ĠÐ¢ Ð°ÑĤÑĮ
ĠÐ¢Ð°Ðº Ð¾Ð¹
ĠÐ´Ð¸ Ð°
en n
ĠÐł Ð¸
ĠÑģÑĢÐµÐ´ ÑģÑĤÐ²Ð¾
ĠÑĥÑĩ Ñĳ
Ð½ ÐµÑĤÐ°
ĠÐ¿Ð¾ÑģÐ»ÐµÐ´ Ð½ÐµÐ³Ð¾
Ð¾ Ð°Ð½
ĠÑģÐ¸Ð¼ Ð¿Ð°
Ð¸Ð· Ð¸
Ġse em
ĠÐ½Ð° Ñĥ
ĠÐ¼Ð¾ ÑĢÐ°Ð»ÑĮ
Ġn on
ĠX X
Ñĳ Ð³
ĠÐĲÐ½ Ð³Ð»Ð¸
ĠÑģÐµÑĢÑĮÐµÐ· Ð½Ð¾
ĠÐºÑĢÐ° ÑģÐ°
ĠÑģÑĥÐ± Ð±Ð¾ÑĤ
ĠÐ¸Ð½Ð¾ÑģÑĤÑĢÐ°Ð½ Ð½ÑĭÑħ
ĠÐ²Ð¾Ð·ÑĢÐ° ÑģÑĤ
Ð½Ð¾Ð² ÐµÐ½Ð¸Ñı
Ð´Ñĭ Ñħ
Ð¢Ðµ Ð¿ÐµÑĢÑĮ
ĠÑģÐ» Ð¾Ð¼
Ġw in
Ġqu est
ind ows
ĠÐ´Ð¾Ð± ÑĢÐ¾Ð²
ÑĤÑĥ ÑĢÐ¾Ð¹
ĠÐ´Ð¾ÑĢ Ð¾Ð³Ð¾
ĠÐĶ Ñį
ĠC an
ĠÐ¿Ð¾Ð¿ ÑĢÐ°Ð²
ĠÐ½Ð°ÑĢ ÐºÐ¾
Ð»Ñı Ñħ
Ð½Ð° ÑĤÑĮ
ĠÐ¿Ð¾Ð² ÑĤÐ¾ÑĢ
Ð´Ðµ ÑĢÐ°
p le
ĠÐºÐ¾ÑĢÐ¸ Ð´Ð¾
ĠÐ¸ ÑģÑĤÐµ
ĠÐ¿Ð¾Ð½Ñı ÑĤÐ¸Ñı
ĠÐľ Ð¾Ð»Ð¾Ð´
Ġpro te
Ð»Ð¾Ðº Ð¸
ĠÑįÐº Ð·Ð°Ð¼
Ð¾Ð² Ð°Ð»Ð°ÑģÑĮ
ĠÑĨÐµÑĢÐºÐ¾Ð² ÑĮ
ĠÐ½Ð°ÑĢÐ¾Ð´ Ð¾Ð²
ÑģÑĤ ÑĭÐ¹
Ð¾Ð¿ Ñĥ
ĠÐ¾ÑĤÐ½Ð¾ÑĪ ÐµÐ½Ð¸Ñİ
ĠÐ¡ Ð±
ĠÑģÐ¿ÐµÐº ÑĤÐ°Ðº
ĠÐ´Ð¸ÑĢÐµÐº ÑĤÐ¾ÑĢÐ°
t r
ĠÐºÐ¸Ð»Ð¾Ð¼ÐµÑĤ ÑĢÐ¾Ð²
ĠÐ¿Ð¾Ð»ÑĥÑĩÐ° ÐµÑĤ
Ġle t
ĠÐľÐ¸Ñħ Ð°Ð¹
ĠÐ²Ð¾Ð´ Ð¾
ÑĨÐµÐ½ÑĤ ÑĢÐ°
ĠÐ»ÑĥÑĩ ÑĪÐ¸Ð¹
ĠÐ¸Ð½ÑĦ ÑĢÐ°
ĠÐºÑĢÐ¸ Ð·
ist r
16 0
Ð¶ ÐµÐ»
ĠÐ·Ð°ÑĢÑĥ Ð±ÐµÐ¶
ĠÐ¿Ð¾Ð´ÑĥÐ¼Ð° ÑĤÑĮ
ÑģÐ»Ñĥ ÑĪÐ¸
Ð²ÑĪÐµÐ³Ð¾ ÑģÑı
ĠÐ³ÑĢÑĥÐ¿ Ð¿Ðµ
ot t
Ġ1 000
ĠÐ¿Ð¾ ÑĤÑı
Ġt ru
00 00
ĠÐľ ÐµÑĤ
w ays
ĠÑĢÐ°ÑģÑģ Ð»Ð°Ð±
ĠÐĹ ÐĲ
âĢ ¢
ÑĢÐµ Ð´Ð°
ub l
ĠÑĢÐµ Ðº
Ð¼Ð° Ð·
Ð¶ ÑĥÑĢ
ĠÐ·Ð°Ð½Ð¸Ð¼Ð° ÐµÑĤÑģÑı
ĠÐ»ÑİÐ± ÑĭÑħ
ĠÐ´ÐµÑĢÐµ Ð²Ð°
ĠÐĿÐ° ÑĨÐ¸Ð¾Ð½
ĠÑģÐ° Ð¿
ĠÐĶÐ¶ ÐµÐ¹
ĠGo ogle
Ð½Ð¾Ð´ Ð¾ÑĢÐ¾Ð¶
ĠÐ¾ÑĩÐµÐ²Ð¸Ð´ Ð½Ð¾
ÐļÐ°Ðº Ð¸Ðµ
ĠÐ¿ÑĢÐ¾Ð¿ Ð°
ĠÐ³Ð°Ð· ÐµÑĤÑĭ
Ġsomet hing
ĠÑĥÐ²Ð° Ð¶Ð°
Ġg iv
ĠÑģÐ¾ÑĤÑĢÑĥÐ´ Ð½Ð¸ÐºÐ¸
ĠÐ±ÑĢÐ° ÑĤÐ°
or g
Ġm il
Ð¾Ð²Ð° ÑĢ
i am
ĠÐ·Ð°Ð½Ð¸Ð¼Ð° ÐµÑĤ
ĠÑį ÑĦÐ¸
ĠÐł Ð¾Ñģ
ĠÐ»ÑİÐ± Ð¸Ð»
ul ation
ĠÐ½ÐµÐ¼ Ð°Ð»Ð¾
ÑĥÑī Ð¸Ñħ
ĠÐ·Ð° ÑģÑĤÐ°Ð²Ð»Ñı
ĠÐ²Ð¾Ð¹ ÑģÐºÐ°
Ðķ ÑīÐµ
ĠÐĶ Ð²Ð°
ĠÐ»Ðµ ÑģÐ°
ĠÐ²ÑĭÑģÐ¾Ðº Ð¸Ð¹
ĠÐ¿ÑĢÐ¾Ð² Ð¸Ð½
Ð¸ÑĤ Ð°Ñı
ĠÐ³Ð¾ÑĢÐ¾Ð´ ÑģÐºÐ¾Ð¹
Ġp rom
ĠÐºÐ²Ð° Ð´
u red
ĠÑĪ Ð°Ð½
ĠÐ±Ð¾ÑĢÑĮ Ð±Ðµ
ĠÐĲÐ½ Ð½Ð°
ĠÐº ÑĥÑĩ
ĠÐ²ÑģÑı ÐºÐ¸Ð¹
ĠÐ¿Ð¾Ñģ Ð¼Ð¾ÑĤÑĢÐµÐ»Ð°
ĠÑģÑĥÑĤ Ð¾Ðº
ĠÐºÐ°Ð¼ ÐµÐ½ÑĮ
Ð¾ÑĤ Ð²ÑĢÐ°
ĠÐĳ Ð¾
Ð² Ð¾Ð»Ð¸
ĠÑĤÐ°Ð» Ð°Ð½ÑĤ
A T
ĠÑģÐ¿ ÑĢÐ¾Ñģ
Ġ .<|
Ġth ings
ĠÐ´ ÐµÑģ
ĠÐ³Ð»Ð°Ð² Ð½Ð¾Ð³Ð¾
ĠÐ¼ Ð¾Ð´Ñĥ
Ðļ Ð¡
ĠÐ¤ Ð¸Ð»Ð¸
Ð¢ Ð¾
ĠÐ¸ ÑģÑĤ
ĠÐ¶ÐµÐ½Ñī Ð¸Ð½Ñĥ
Ð»ÐµÐ´ ÑģÑĤÐ²Ð¸Ð¸
ĠÐ³Ð¸ Ð¿ÐµÑĢ
ĠÐł Ð¸Ð¼
ĠÐ· ÑĢÑı
Ġl ot
ĠÐ¾ÑĤÐ´ÐµÐ»ÑĮ Ð½ÑĭÑħ
ĠÐ¿ÑĢÐµ Ð¿ÑıÑĤ
Ð½Ð¸Ñı Ð¼Ð¸
Ġpro cess
ĠÐ¾Ð± Ð»
ĠÑģÐ¾Ð±ÑģÑĤÐ²ÐµÐ½ Ð½Ð¾ÑģÑĤÐ¸
ĠÐ¿ÑĢÐ¾ ÑĩÐ¸ÑĤ
ĠÐ¿ÑĢÐ¾ÑĪ ÐµÐ´
ÐµÐ² ÑĭÑħ
ĠÐ´Ð²Ð¾ ÑĢÐµ
ĠÑĥ Ð¹
ĠA ll
ĠÐ¿Ð¾Ð´Ð¾Ð± Ð½ÑĭÐµ
ĠÑģÐ¾Ð±ÑģÑĤÐ²ÐµÐ½ Ð½Ð¾Ð³Ð¾
ĠÑıÐº Ð¾Ð±Ñĭ
ĠÐ´ÐµÑĤ Ð°Ð»Ð¸
Ð»Ð¸ ÑĩÐ½Ð¾
us h
Ð»Ðµ ÑĢÐ°
ÐĿ Ðł
un g
Ñį Ð»
ĠÐ·Ð° Ð¶Ð¸
ÑģÑĤ ÐºÐ¸
ÑģÐ¿ Ð¾ÑĢ
ĠÐ¿Ð»Ð° Ð½Ñĭ
ĠÐ¿ÑĢÐ¾Ð² ÐµÑĢÐ¸ÑĤÑĮ
ĠÐ¾ÑĤÐ½Ð¾ ÑģÑıÑĤÑģÑı
Ð´Ðµ ÑģÑı
ĠÐ³Ð¾ÑģÑĥÐ´Ð°ÑĢ ÑģÑĤÐ²ÐµÐ½Ð½ÑĭÑħ
ĠÐ¼Ð¾Ð· Ð³
A S
ĠÐŁ ÑĥÑĪÐºÐ¸
ĠÐ°ÑĢ ÑĤÐ¸
ĠÐ²Ð¾ ÑĢÐ¾ÑĤ
ĠÐ½ÐµÐ¾Ð±ÑħÐ¾Ð´Ð¸Ð¼ ÑĭÐµ
ĠÐ»ÑĥÑĩ ÑĪÐ¸Ðµ
ĠÑģÐ¸ Ð´ÐµÑĤÑĮ
ĠÑĦ Ð»
ĠÐ³ÑĢÐ° Ð½Ð¸ÑĨÑĭ
ĠÑĢÐ¾ ÑģÐºÐ¾
ĠÐ²Ð¾ÑģÐº Ð»Ð¸Ðº
ĠÑģÑĥÐ´ÑĮ Ð±Ð°
ĠÑģÐ»ÑĥÑĪ Ð°
ĠÑģÐµÑĢ Ð´Ðµ
Ð» ÐµÐ¼Ñĥ
Ġcount ry
ĠÐ¾Ð¿ Ð¸ÑģÑĭ
ÑĳÐ½ Ð½ÑĭÐµ
ĠÐĴ ÑĢÐµÐ¼Ñı
ĠÐº Ð¾Ð¶Ñĥ
b s
Ð½Ð¸Ñı Ñħ
v ious
ĠÐ¾Ð±Ð¾ÑĢÐ¾ Ð½Ñĭ
con om
Ġt ry
ĠÑĦÑĥÐ½ Ð´Ð°
ÑĪÐ¸Ñħ ÑģÑı
Ġfam ily
ĠÐ° ÑģÑģ
ĠÑģ ÐµÐ´
Ñģ ÐµÐ´
ĠÐ¸Ð·Ð¼ÐµÐ½ ÐµÐ½Ð¸Ð¹
ÐĴ Ð¡
ĠÐ¸ÑģÑģÐ»ÐµÐ´ Ð¾Ð²Ð°Ð½Ð¸Ð¹
ĠÐºÐ¾Ð½ÐºÑĥÑĢ ÑģÐ°
id es
ĠÐ¿Ð¾ÐºÑĥÐ¿ Ð°ÑĤÑĮ
ĠÐ¾ÑģÑĤÐ° Ð½Ð°Ð²Ð»Ð¸
ĠÐ¢ Ð¸
Ð½Ð¾Ð² Ð¸Ð´
O N
ĠÐĴÐµÐ»Ð¸ ÐºÐ¾Ð¹
ĠÐ²ÑĭÐ¿Ð¾Ð» Ð½ÐµÐ½Ð¸Ñı
ĠÐ± ÑĢÐ¾Ð½
ĠÐºÐ¾Ð½ÑģÑĤÑĢÑĥÐº ÑĨÐ¸Ð¸
ĠÐ¿ÑĢÐµÐ´ ÑģÑĤÐ°
ĠÑĨÐ²ÐµÑĤ Ñĭ
ĠÑĪ ÐµÑĢ
ĠÑģÑĭ ÑĢ
ĠÐ½Ð¾Ð² Ð¾Ð¼
ĠÐłÐ° ÑģÐ¿
ÐµÐº ÑģÐ°
Ð¸Ð² ÑĪÐ¸Ð¹
Ð°Ð»ÑĮ Ð½Ð¾Ð¼Ñĥ
ÑĤ ÑĥÑİ
ĠÐ¸Ð½ ÑĤÐµÑĢÐµ
Ġsu c
ĠÐ¾ÑĤ ÑħÐ¾Ð´
ĠÐ¼Ð¾Ð· Ð³Ð°
ĠÑĢÑĥÐºÐ¾Ð²Ð¾Ð´ Ð¸ÑĤÐµÐ»ÑĮ
ĠÐ¾Ð± ÑħÐ¾Ð´
ĠÐ¼Ð° Ñħ
ĠÑĢÐµÑĪ ÐµÐ½Ð¸Ð¹
ĠÐļ Ðŀ
ĠC ar
ro s
ĠÐ¿ÑĢÐ¾Ð´ Ð²Ð¸Ð¶
ĠÐ´ ÑĢÐ¾Ð¶
ĠÑĤÐ²Ð¾ Ð¸
ÐºÐ¾Ð± ÑĢÐ¸ÑĤÐ°
Ð¸Ð½ Ð³Ð°
ĠÐŁ Ð¾Ð¶Ð°Ð»ÑĥÐ¹
ĠÐ´Ð¾Ð± Ð¸ÑĤÑĮÑģÑı
ÑĢÐ¸ Ð¼
ÐĽ Ñİ
ĠÐ¿Ð¾Ñģ Ñĭ
Ð¸Ð» Ð»Ð¸
ĠÐµÐ² ÑĢÐµÐ¹
ĠÑĢÐ°Ð· Ñĭ
ĠÑģÑĤÐ¸ Ñħ
en ter
Ð²ÑĪÐµÐ¹ ÑģÑı
ĠÐĺ Ð³
ĠÐ¶ÑĥÑĢ Ð½Ð°Ð»Ð°
ĠÐĶÑĥÐ¼Ð° Ñİ
ÑĤ Ð¸ÑĤÐµ
ĠÐºÑĢÐ°Ñģ Ð¾ÑĤÑĭ
ĠÑģÐ²ÐµÐ´ ÐµÐ½Ð¸Ñı
ĠÑģÑĢÐµÐ´ Ñĭ
ĠÐ¶ Ð¸ÑĢ
ĠÑĤÐ°Ðº Ð¸
ĠÐ·Ð° Ð±ÑĢÐ°
ĠÐºÐ¾Ð½ ÑĤÑĢÐ°
ĠÑģ Ð´
ĠÐ¿Ð¾Ðº Ð¾Ð¹
ĠÐ½Ðµ Ð±Ðµ
ĠÑģÐ¾Ð·Ð½Ð° Ð½Ð¸Ðµ
Ð² Ð»ÐµÐº
ur s
Ð·Ñĭ Ð²Ð°Ð»Ð°
Ġg ot
ĠÐ¿Ð¾Ð»Ð¾Ð¶ ÐµÐ½Ð¸Ñı
ÑĨÐ¸ Ð½
ĠÐ²Ð°ÑĪ ÐµÐ¼
Ġ ide
ĠÑĢÐ° Ðº
ĠÐ³ÑĢÐ¾Ð¼ ÐºÐ¾
ĠÐ·Ð°Ð¿Ð¸ ÑģÑĮ
ĠÑģ Ð¾Ð»ÑĮ
Ð¸ÑĤÐµÐ»ÑĮ Ð½ÑĥÑİ
ĠÐļ ÑĢÐµÐ¼
ÐŁ Ð°
ĠJ ohn
Ġan n
ĠÐĿÐ¸Ðº ÑĤÐ¾
ÐºÑĥ ÑĤ
ÑĢ ÑĤÑĥ
ĠÑģÐ¾Ð´ÐµÑĢÐ¶ Ð¸ÑĤ
Ð²Ð¸ Ð¸
Ñī ÐµÐ½Ð°
ÑĩÐ¸ Ð»Ð¸ÑģÑĮ
ĠÐºÐ°ÑĤÐ° ÑģÑĤÑĢÐ¾
ĠÐ¾ ÑģÐºÐ¾ÑĢÐ±
Ð¸ÑĩÐµÑģÐº Ð¸Ñħ
Ġun til
ĠÐ·Ð½Ð° Ð½Ð¸Ð¹
ĠÑģÐ¿Ð¾ÑĢÑĤ Ñģ
ĠÐĴ Ð¸Ð½
ĠÑĪ Ñĥ
ĠÐ¾Ð¿ Ð¿Ð¾Ð·Ð¸
ĠÐĿÐ° ÑĪÐ¸
as es
ÑĢÑı Ð´Ð°
ÐµÐ½ÑĮ ÐºÐ¸Ð¹
Ġc ity
b all
Ġh ard
un e
ÐĽ ÑİÐ±
Ð¡ ÑĤÐ°
ĠÐ¿Ð¾Ð¿ ÑĢÐ¾
ĠÐķ Ð¡
ĠÐ¿Ð¾Ð³ Ð¾Ð²Ð¾ÑĢÐ¸ÑĤÑĮ
ÑĦ Ð°Ðº
ĠP e
Ð»Ð° Ñħ
Ð¡Ðº Ð¾Ð»ÑĮÐºÐ¾
ĠÐĴ ÑģÑı
ab ly
Ð¾ ÑħÑĢÐ°Ð½
ĠÐ¿Ð¾Ðº ÑĥÐ¿Ð°
ĠÐ²Ñĭ ÑĢÐ¾Ñģ
ĠÐ¿Ð¾Ð´ ÑĢÑıÐ´
ĠÐµÐ´Ð¸Ð½ ÑģÑĤÐ²ÐµÐ½Ð½ÑĭÐ¹
ĠÑģÑĤÑĥÐ´ ÐµÐ½ÑĤÐ¾Ð²
ĠÐŀÑĢ Ð³Ð°Ð½Ð¸
ĠÐ»Ð¸ÑĨ ÐµÐ½
ĠÐ´ ÑĥÑĢ
8 5
ĠÑįÐ»ÐµÐ¼ ÐµÐ½ÑĤÐ¾Ð²
ri es
Ð± Ð°Ð½
ĠÐ¾ÑĢÐ³Ð° Ð½Ñĭ
ĠÑį ÑģÑĤ
ĠÐ±Ð» Ð¾Ð³
Ðĵ Ðĺ
ÑĪÐ¸ Ð»Ð°
Ġpr of
Ġ3 2
ĠÐ»ÑİÐ± ÑĥÑİ
ÑĤÐ¸ÑĩÐµÑģÐº Ð°Ñı
ĠÐ½Ð°ÑĥÑĩ Ð½Ð¾
ĠÐ¤ Ð¸Ð½
ĠÐºÑĢÐ°ÑģÐ¸ Ð²Ð¾
ĠÐ¿ÑĢÐ¾Ð¼ÑĭÑĪÐ»ÐµÐ½ Ð½Ð¾ÑģÑĤÐ¸
ÑĢÐ¾Ð± Ð»ÐµÐ¼
Ġm illion
ĠÐ¿ÑĭÑĤÐ° ÐµÑĤÑģÑı
ĠÐ³Ð¾ÑĢ Ð´Ð¾
ĠÐĵ Ðŀ
ĠÑħÐ°ÑĢÐ°Ðº ÑĤÐµÑĢÐ°
ÑĢ ÑıÑĤ
ĠÐ¼ÑıÑģ Ð¾
ĠÐ³ ÑĢÐ°Ð½
" ).
ĠÐ¿Ð¾Ð¶ ÐµÐ»Ð°
ĠÑĤÐµ ÑĢÐ°
ĠÐ» Ð°Ð´Ð½Ð¾
Ġb ook
Ð³Ð° Ñı
ĠÐ¿Ð°ÑĢ Ð½Ñı
ĠÐ¾ÑģÑĤÐ° ÑĤÑĮÑģÑı
ĠÐºÐ¾Ð½ÑĨ ÐµÑĢ
ĠÐ¿ÑĢÐµÐ´ ÑģÑĤÐ¾Ñı
ÑĤ Ð½ÑĭÐ¼
ĠÐ¶ Ð°Ð½
ĠÐºÐ¾Ð½ÐºÑĥÑĢ Ñģ
Ð¾Ð± ÑħÐ¾Ð´
ÐĶ Ð¶
ĠÑģÐ¿ Ð»Ð¾
ĠÑĥÑģÐ¿ Ðµ
ĠÐ¿ÑĢÐµÐ´ ÑĬ
ÐµÐ»ÑĮ Ð½Ð¾
Ñĩ ÐµÑĤÑĭ
ĠÑģÑĥ Ñī
Ð»Ð¸ ÑĤÑĮ
9 7
ĠÐ£ÐºÑĢÐ° Ð¸Ð½Ð°
ĠÐ»Ð¸ÑĤÐµÑĢÐ° ÑĤÑĥÑĢ
ĠÐŁÐ¾Ð´ÑĢÐ¾Ð± Ð½ÐµÐµ
ĠÐ²Ðµ ÑīÐµÑģÑĤÐ²Ð°
ĠÑħÐ¾Ð·ÑıÐ¹ ÑģÑĤÐ²Ð°
ĠÐ¿ÑĢÐ¾Ð´Ð¾Ð»Ð¶Ð° ÐµÑĤ
ĠÑģÐºÐ¾ÑĢÐ¾ ÑģÑĤÐ¸
Ð² Ð¸Ð»
ĠÐ´ÑĢÑĥÐ·ÑĮÑı Ð¼Ð¸
.. <|
ĠÐ²Ð¸ Ð½Ð°
Ð¼Ð° Ñģ
ÐĶ Ðĺ
201 2
ÑĢÐ¸ ÐµÐ²
ĠÐ¸ÑģÐ¿Ð¾Ð»ÑĮÐ·Ñĥ ÑİÑĤÑģÑı
ĠÐ¿Ð¾Ñģ Ð»Ð°
ĠÐ¿Ð¾Ð²ÐµÑĢÑħ Ð½Ð¾ÑģÑĤÑĮ
ĠÐ° Ð´Ð°
ĠÐ¿ÑĢÐµÑģÑĤÑĥÐ¿ Ð»ÐµÐ½Ð¸Ñı
ĠÑģ ÐµÑĤÑĮ
ĠÐĴÐ¾ Ð¾Ð±ÑīÐµ
ÐĶ Ðŀ
ro p
ĠÐ¾ÑģÑĤ Ð°Ð»Ð°ÑģÑĮ
ÐĴ Ð°
ĠE uro
ĠÑģÑĥ ÑĤÑĮ
Ð± ÑĥÐ´
ĠÐ·Ð¸Ð¼ Ð¾Ð¹
ÑİÑīÐµÐ¹ ÑģÑı
ain s
ĠÑģÐ¿ÑĢÐ°Ð² ÐµÐ´Ð»Ð¸Ð²Ð¾
ĠÐ²ÐµÐº Ðµ
ĠÐ¾ Ð·Ð°
ĠÐ°Ðº ÑĤÐµÑĢ
ÐĴ Ð¾Ð¿ÑĢÐ¾Ñģ
Ġl ess
ĠÐ¸ Ð´Ñĥ
ĠÐ¨ Ð¸
ĠÑģÐ» Ðµ
ĠÑĢÐ°Ð·ÑĢÐµ ÑĪÐµÐ½Ð¸Ñı
ĠÐ¼Ñĥ Ð·ÐµÐ¹
Ðł ÑĥÑģ
ĠÐ¸Ð³ ÑĢÐµ
ĠÐĴÐµÑĢ ÑħÐ¾Ð²
ĠÐ¸Ð´ ÑĳÑĤ
ĠÐ²Ð½ÑĥÑĤÑĢÐµÐ½ Ð½Ð¸Ñħ
O R
ĠÑĢÐ°Ð·Ð²Ð¸ÑĤ Ð¸Ñİ
ĠÑĤÐ²Ð¾ ÐµÐ¹
ĠÑģ ÑĦÐ¾ÑĢÐ¼Ð¸
ĠÐ¾Ð±Ñī ÐµÐ½Ð¸Ñı
ĠÑĢÑı Ð´Ð°
Ð´Ð° ÑİÑĤÑģÑı
ÑĤÑĢ ÑĮ
ĠÑģÐº Ð»Ð°Ð´
ÑĩÐ¸ Ð²Ð°ÐµÑĤ
ÑĥÐ± Ð»Ð¸Ñĩ
ÑģÐ¾Ð² ÐµÑĢÑĪÐµÐ½
ĠÐĽÑĥÑĩ ÑĪÐµ
ĠÐ±Ð¾Ð»ÑĮ Ð½Ð¾
ĠÑĢÐµÐ²Ð¾Ð»Ñİ ÑĨÐ¸Ð¸
ĠTh at
Ð¿Ð° Ñħ
ĠÐºÐ°ÑĢÑĤÐ¸ Ð½Ñĭ
ĠÐ¾Ð±ÑĥÑĩ ÐµÐ½Ð¸Ðµ
ĠÐĴÐ¸Ðº ÑĤÐ¾ÑĢ
ĠÐ¾Ñģ Ð½Ð¾Ð²Ð°Ð½Ð¸Ñı
Ð½Ð¾ ÑĢ
ĠÑħÐ¾ÑĢÐ¾ ÑĪÐµÐµ
ĠÐ²Ñĭ Ð±Ð¾ÑĢÐ°
ĠÐ¿Ð¾Ð± ÐµÐ¶
ĠÐĴ ÐµÑģ
ĠÐ³Ð¾ÑģÐ¿Ð¾Ð´ Ð¸Ð½
ÐµÐ· Ð´Ñĭ
ÑĨ ÐºÐ¸Ð¹
ÑĩÐ°ÑģÑĤ ÑĥÑİ
ÑĥÐ½ Ðº
Ñī ÐµÐ½Ð¸ÐµÐ¼
ĠÑģÐ¿Ðµ ÑĨÐ¸
Ð¾Ð²Ð° Ð½Ð¾
Ð¾Ð¿ ÐµÑĢÐ°
ĠT r
ÑĪÐ¸Ðµ ÑģÑı
Ġle vel
ĠÐ±Ð¾ Ñı
ÑĢÐµ ÑģÐ¿
ĠÐķ Ð¹
ĠÐ²ÑģÐ¿Ð¾Ð¼ Ð½Ð¸ÑĤÑĮ
c ode
ĠÐºÑĢÐ¸Ð· Ð¸Ñģ
ĠA pp
Ð²Ð° ÑİÑīÐ¸Ð¹
Ð´Ð¸ Ðº
ĠÑģÐ¿ Ð°Ð»ÑĮ
Ð³ ÑĥÐ±
ÑĳÐ½ Ð½ÑĭÐ¹
ĠÐ²Ð· ÑıÐ»Ð°
ĠÐ´ÐµÐ» Ð°Ð»Ð¸
ĠÐ¾Ð´Ðµ Ð¶Ð´Ñĥ
Ð°ÑĢ Ðº
oc ial
Ñī Ð°Ð»Ð¸
ĠÐ³ ÑĢ
ÑĤÐ¸ÑĩÐµÑģÐº Ð¾Ðµ
Ð¶Ð° ÐµÑĤÑģÑı
Ð»Ñı Ð»
ĠÐ¸Ð½ Ð´Ñĥ
tern ational
Ġor gan
ĠÐ½ÐµÐ²Ð¾Ð· Ð¼Ð¾Ð¶
ĠÐ¸ÑģÐ¿Ð¾Ð» Ð½Ð¸ÑĤÐµÐ»ÑĮ
âĢ¦ Â»
ÐµÑĤÐ° Ð¼Ð¸
ÐµÑĤÐ° Ñħ
ĠÐ¿ Ð°Ñģ
Ð¾Ðº Ð¸
f or
ÑĢÐ°Ð¶Ð° ÐµÑĤ
ĠÐ·Ð° ÑĢÐ°Ð±Ð°ÑĤÑĭ
ĠÑĥÑĩÐ°ÑģÑĤ Ð¾Ðº
ĠÐ·Ð°Ðº ÑĥÐ¿
ĠÐ´ ÑĭÑĪ
ĠÐ¾Ð³ÑĢÐ¾Ð¼ Ð½ÑĭÐ¹
ĠÑįÐ¼Ð¾ ÑĨÐ¸Ð¾Ð½
ÑĪ ÐºÐ¾
ÑĪÐµ Ð¿
ĠÑĥ Ð´ÐµÑĢÐ¶
ĠÑĢÐ° ÑģÑĤÐµÑĢ
ÐĹÐ° ÑĩÐµÐ¼
ĠÐĺ Ð¸Ñģ
ĠÐºÐ°ÑĦ ÐµÐ´
ĠÑĤÐµÐ½ Ð´ÐµÐ½
ĠÐłÐ° Ð±Ð¾ÑĤÐ°
Ðº Ð¾Ð»
ĠÐ·Ð°Ð² Ð¾Ð´Ð°
ĠÐ¼ÐµÑħÐ° Ð½Ð¸
ĠÑĥÑģ Ð¸Ð»
ĠÐľ Ð½Ð¾Ð³Ð¾
ĠÑĥÑģÐ¼Ðµ Ñħ
ĠÑģÐ°Ð¼Ð¸ Ð¼
Ð¼Ð° Ð¹
ĠÐ¸Ð· Ð±Ðµ
Ð²Ð° ÐµÑĪÑĮ
Ð² ÑĥÑİ
Ġrec ord
ĠÐ³ Ð¸Ð³
ĠÐ¿ÑĢÐµÐ´ÑģÐµÐ´Ð° ÑĤÐµÐ»ÑĮ
ĠÑĥÐ¿ Ð¾Ð¼Ð¸Ð½Ð°
ĠÑĦÐ¸Ð· Ð¸
Ð± ÐµÐ»Ð¸
Ð¾Ð± Ð½Ð¾
ĠÑĦÐ¾ÑĤ Ð¾Ð³ÑĢÐ°ÑĦÐ¸
ĠÐ²Ð¾ ÐµÐ½Ð½Ð¾Ð¹
Ġse ver
ĠUni versity
Ġ 01
ĠÐ´ÐµÐ¹ ÑģÑĤÐ²ÑĥÐµÑĤ
ÐµÐ½Ð¸ Ð½Ð°
ĠÑįÐºÐ¸ Ð¿Ð°
ĠÐ¾ÑĨÐµÐ½ ÐºÐ¸
ĠÐĹÐ° ÑĤÐ¾
ĠÐ´Ð° Ð²Ð°ÑĤÑĮ
Ð¶ Ð½Ð¾Ð³Ð¾
ĠÐºÐ¾Ð½ ÑģÐµÑĢ
ĠÑģÐ¾Ð³Ð»Ð°Ñģ Ð¸Ð»ÑģÑı
Ð¾Ð»Ð¾Ð³Ð¸ ÑĩÐµÑģÐºÐ¸Ñħ
Ġf ar
Ð¾Ð² Ð¾Ð»ÑĮ
ĠÑģÐ¸ Ð´Ð¸ÑĤ
y le
ÐĿ Ðķ
ĠÐ³Ð¾ÑĤ Ð¾Ð²Ð°
Ġv o
Ð¸ÑĩÐµÑģÐº Ð¸
as ter
ĠÑĤÐºÐ° Ð½Ð¸
Ð°Ð»Ð¸ Ð·Ð°ÑĨÐ¸Ð¸
ÑĢÐ¾Ð²Ð° Ð½Ð¸Ñİ
ĠÐ·Ð°Ð±Ñĭ Ð»
ĠM ay
ĠÑĢÐµÐ·ÑĥÐ»ÑĮÑĤÐ° ÑĤÐ¾Ð²
ĠÐ³Ð¾Ð»Ð¾Ñģ Ð°
ĠÐ» Ð°Ð·
ĠÐ³ÑĢÑĥÐ¿ Ð¿Ñĥ
ĠâĢ ĺ
ĠÐ¾Ð±ÑīÐµ ÑģÑĤÐ²Ðµ
Ġ4 00
ĠÑĥÐ± Ð¸ÑĤ
Ġv is
l ing
ĠÑĢÐ°Ð´Ð¾ ÑģÑĤÐ¸
ĠÐ¿Ð¾Ð¿ÑĢÐ¾Ð± Ð¾Ð²Ð°ÑĤÑĮ
Ġdes c
107 5
ĠÐŀÑĤÐµ ÑĩÐµ
ĠÐĺÐ½ ÑĦÐ¾ÑĢÐ¼Ð°
ĠÐ¿ÑĢÐ¸Ð¾Ð± ÑĢÐµÑĤÐ°
ĠÐ² Ð»Ð¾Ð¶
ÑģÑĤ Ð¸ÑĤÐµ
ĠÐĺ ÑĢÐ°
en ted
ĠÑĢÐ°ÑģÐ¿ Ð¾Ð»Ð°Ð³Ð°
I S
ĠÐ²Ñĭ Ð³
e v
ĠÐ»Ð¸Ðº Ð²Ð¸
ĠÐ¾ÑģÑĤÐ°Ð½Ð¾Ð² Ð¸Ð»ÑģÑı
ĠÐŁÐµÑĤ ÑĢ
ÑĨ Ð°ÑĤ
ĠÐ¾ÐºÐ¾Ð½ÑĩÐ° Ð½Ð¸Ñı
ÑĥÑģÐ»Ð¾Ð² Ð½Ð¾
Ð¾Ð» Ð¾Ð¼
op e
ĠÐ´Ð¾ÑĢ Ð¾Ð³Ð°
ĠÐĿÐ¸Ðº Ð°Ðº
ĠÐ³Ð° Ð·Ð°
ÑĨ Ð°ÑĢ
ĠÑĢÐ°Ð·Ð¾ ÑĩÐ°
ĠÐ²ÐµÑģ ÐµÐ»Ð¾
ĠÑĥÑĩ Ð¸ÑĤÐµÐ»ÑĮ
ĠÐ¼Ð¸Ð½ ÑĥÑģ
ĠÐ¿Ð»Ð°Ð½ ÐµÑĤÑĭ
ĠÐŀ Ð»Ð¸Ð¼
ĠÐ²Ð¸Ð· Ð¸ÑĤ
Ñı ÑīÐµÐµ
ĠÐ½Ð° Ð¼Ðµ
ÑĩÐµÐ½ Ð½Ð¾Ð¹
ĠÐ·Ð°Ð±Ñĭ ÑĤÑĮ
ĠÐĽ Ð¸ÑĤ
ĠÐ¿ÑĢÐ¸ ÐºÐ»Ñİ
ĠÐĶ Ð¾ÑĢ
ĠÐĹ Ð´ÑĢÐ°Ð²ÑģÑĤÐ²ÑĥÐ¹ÑĤÐµ
ĠÐ²Ñĭ ÑıÐ²
ĠÐ¿Ð¾Ð¼Ð¾Ð³ ÑĥÑĤ
ÑıÑī Ð¸Ð¼
Ð½Ð¸ÑĨÐ° Ñħ
ĠÐ½Ð° Ð³ÑĢÐ°
ĠÐ¿Ð¾Ð½ÑĢÐ°Ð² Ð¸Ð»Ð¾ÑģÑĮ
ĠÐľÐ¾ÑģÐºÐ¾Ð² ÑģÐºÐ¾Ð¹
ĠÑħ Ð¾Ð´Ñĥ
ÑĢÐ¾Ð² ÐºÑĥ
ĠÐ¿Ð¾ÑĤÐµÐ½ ÑĨÐ¸Ð°Ð»ÑĮ
ĠÐ¢ Ð¾ÑĢ
ĠÐ±Ð»Ð¸Ð· ÐºÐ¾
Ġm ove
ĠÐ¼Ðµ ÑģÑĤÑĥ
ĠÐĴÐ° ÑģÐ¸Ð»Ð¸
Ġm en
ĠÐ¿Ð»Ðµ ÑĩÐ¸
ĠÐ»ÑİÐ± Ð¸ÑĤÑĮ
ĠÑĥ ÑĩÐ¸ÑĤÑĮÑģÑı
ĠÐ½Ðµ Ð·Ð°ÐºÐ¾Ð½
ĠÐ¡Ð¾Ð» Ð½
ĠÐ´ÐµÑĤ ÑģÑĤÐ²Ðµ
Ð¸Ð¼ Ð¾Ðµ
ĠÐ¿ÑĢÐ¸ÑĩÐ¸Ð½ Ð¾Ð¹
ĠÐ¾ ÑĤÐ¾ÑĢ
ÑģÑĤÐ¸ Ð¼
ĠÑı Ð´ÐµÑĢ
ĠÐ¼Ð¸ ÑģÑĤÐµÑĢ
ĠÐ¾Ð¿ ÑĤÐ¸Ð¼
ĠÐ¡ Ð²Ð¾
ĠÐºÐ¾Ð» ÐµÐ½
5 1
Ñĳ ÑĤÐµ
ĠÐ¾Ñģ Ð²Ð¾
â ľ
ĠÐĳ Ð¾Ð³Ñĥ
ĠÐ¿ÐµÑĢÐµ Ðº
ĠÐļ Ð¸ÑĤÐ°Ð¹
ÑĪ Ð°Ð»
ĠÐ¿ÑĢÐ¾Ð² ÐµÐ»
ĠÐ²ÑĭÐ¿Ð¾Ð» Ð½ÑıÑĤÑĮ
ĠÐ´ ÑĢÐµ
Ġbet ter
ÐµÐ½ÑĮ Ñı
ĠÐ¿Ð¾Ð½Ð¸Ð¼Ð° ÐµÑĤ
ĠÐ¿ÑĢÐ¾Ð± Ð»ÐµÐ¼Ñĥ
Ñĳ Ð´
ĠÐ¼ÐµÑģÑĤ Ð½Ð¾Ð³Ð¾
ÐŁÐ¾Ð¼ Ð¾Ð³Ð¸ÑĤÐµ
ĠÐĴÐµÐ»Ð¸ ÐºÐ¾Ð±ÑĢÐ¸ÑĤÐ°
ĠW orld
ĠÐ³ Ð½Ðµ
ĠÐ½ÐµÐ¾Ð±ÑħÐ¾Ð´Ð¸Ð¼Ð¾ ÑģÑĤÑĮ
ĠÐ¾ÐºÑĢÑĥ Ð³Ð°
ĠÑĢÐ°Ð·Ð¾Ð±ÑĢÐ° ÑĤÑĮÑģÑı
ĠÐ²Ðµ ÑĩÐµ
ĠÐ¿ÑĢÐµÐ´Ð¿Ð¾Ñĩ Ð¸ÑĤÐ°
Ġd el
ÑģÑĤÐ°Ð² ÐºÐ°
Ġl ine
Ð¿ Ð»Ð¸
ĠÑįÐ»ÐµÐºÑĤÑĢÐ¾Ð½ Ð½Ð¾Ð¹
Ġb re
ĠÑģÐ¿Ð¾ÑģÐ¾Ð± Ð½Ñĭ
ĠÐ²ÐºÐ»Ñİ ÑĩÐ°ÐµÑĤ
ĠÐºÐ»ÑĥÐ± Ð°
ĠÑģ Ð¼Ð¾ÑĤÑĢÐµÐ»Ð°
ĠÑĦÐ°Ðº ÑĥÐ»ÑĮÑĤ
ĠÐ¾Ð± Ñĥ
ĠÑĢÐµ Ð²
ĠÐļ ÐĲ
Ġcomp any
ĠÑĪ Ð°Ð¼
Ð´ ÑıÑĤ
ĠÑģÐ» ÑĥÑĩÐ¸
ĠÑģÐ¿ Ð¸Ð½Ñĥ
ÐºÐ¾Ð¼ Ð°
ĠÐ²Ñĭ Ð·Ð¾Ð²
ĠÐ± ÑĢÐ¾ÑģÐ¸Ð»
ĠÑĤ ÑĢÑĥÐ¿
he re
ĠÐ¿Ð¾ÑĤ ÑĢÐµÐ±Ñĥ
ĠÑģÑĤ Ð°ÐºÐ°Ð½
ard s
ĠÐºÐ¾Ð¼Ð¿Ð»ÐµÐº ÑģÐ°
ÐºÐ¾Ð² Ð¾Ð³Ð¾
ĠÐºÐ¾ÑĢ Ð¼
ĠÐ¿Ð¾ÑĩÑĥÐ²ÑģÑĤÐ² Ð¾Ð²Ð°Ð»
ĠÑĦÐ°Ðº ÑĤÐ¸ÑĩÐµÑģÐºÐ¸
ĠÑĥ ÑģÑĤÑĥÐ¿
ĠÐ²Ð¾ÑģÐ¿Ð¾Ð»ÑĮÐ· Ð¾Ð²Ð°ÑĤÑĮÑģÑı
ĠÐŁÑĢÐµÐ´ ÑģÑĤÐ°Ð²
is ter
ĠÐ¾Ð±ÐµÑģÐ¿ÐµÑĩÐ¸ Ð²Ð°ÐµÑĤ
ĠÐ¿Ð¾Ð´ ÑĥÐ¼Ð°Ð»Ð°
Ð°Ð½ Ð½ÑĥÑİ
Ġe lect
Ð»ÐµÑĤ Ð½Ð¸Ð¹
al ity
ĠÐĲ Ð½Ð°ÑĤ
ĠÑģÐ°Ð¼ ÑĥÑİ
ĠÐ½Ð°Ñĩ Ð°Ð»Ð°ÑģÑĮ
ĠÐºÑĥÑĢ ÑģÐ°
ĠÑħÐ¸ ÑĢÑĥÑĢ
ĠÐ¢ ÑĢÐ¾
Ð¾ÑģÑģÐ¸ Ð¹
Ġpl an
ĠÐ±Ð»Ð°Ð³ Ð¾Ð¿Ð¾Ð»
ne y
< /
8 7
ĠÐ·Ð° Ð³Ð»Ñı
ĠÐŁÐ¾ Ñħ
Ð»ÐµÐ½ Ð½Ð¾Ðµ
Ð¾ÑģÐ¸ Ð±Ð¸ÑĢ
Ġre st
ĠÐ·Ð° ÑģÑĤÐ°
Ġm ajor
p ro
. ),
Ðµ ÑīÐ°
Ð¸Ð· Ð¼
Ġsever al
ĠÐŀÐ»ÑĮ Ð³Ð°
ĠÐ¿Ð¾Ð»ÑĮÐ· Ð¾Ð²Ð°ÑĤÐµÐ»Ñı
ĠÐ¸Ð½ ÑĤÐµÐ½
Ġa ir
ĠÐ¡ Ðŀ
ÐµÐ¼ Ð¾Ð½
Ð¸Ð½ Ðº
ÐµÐ½ Ð¾Ð²
ÐĶ Ðķ
ĠÐ½Ðµ Ð³
Ġchar ac
ĠÐ´ÐµÐ¹ÑģÑĤÐ² Ð¾Ð²Ð°ÑĤÑĮ
ĠÐĵ Ð°Ð»
ĠÐºÐ¾ÑĢÐ°Ð± Ð»ÑĮ
Ð¾ÑĢÐ¾ ÑĤÑĮÑģÑı
ĠÐ¾ÑĤÐ½Ð¾ÑĪÐµÐ½Ð¸Ñı Ñħ
ĠÐ¾ÑĩÐµÑĢÐµÐ´ Ð¸
Ð² Ð¾Ð½
ĠÐŀÐ±Ñĭ ÑĩÐ½Ð¾
Ð¸Ð½ ÑģÑĤÐ²Ð¾
ĠÐ¿ÑĢÐ¾Ð´Ð° Ð²
Ñı Ð½Ð¾
ĠÑĥ ÑĤÐµ
Ð¾ Ñı
ĠÑģÐ¾ ÑĩÐ¸Ð½
ĠÑģÑİ Ð¶ÐµÑĤ
ĠÐ¿ÑĢÐ¾Ð´ÑĥÐº ÑĤ
Ñī ÑĥÑİ
==== ====
ÑĥÑĪ ÐºÐµ
ĠÐ¿ÑĢÐµ Ð·Ð¸Ð´ÐµÐ½
107 3
ĠÐ¿ÑĢÐ¾ÑģÑĤÑĢÐ°Ð½ ÑģÑĤÐ²Ð°
ĠÐ»Ðµ ÑĤÐ¾
Ġg row
ĠÐºÐ°Ð¶Ð´ ÑĥÑİ
ÑĥÑī Ð¸Ðµ
ĠÐ¾Ð± Ð¾Ð·
ĠÑģÑĤÐ¸ ÑħÐ¸
ĠÑģÐ¾Ð·Ð½Ð° Ð½Ð¸Ñı
ĠÐ½ Ð¾Ð³Ñĥ
ĠÑĤ Ð°ÑĢÐ¸
ĠÐ¸Ð½ Ð½Ð¾Ð²Ð°
ĠÐºÐ¾Ð¼ Ð¸ÑĤÐµÑĤÐ°
ĠÐĵ Ð¾ÑĢÐ¾Ð´
is on
ĠÐĹÐ°Ðº Ð¾Ð½
wit ter
ĠY ork
Ġatt ack
Ð¶ Ð¸ÑĤÑĮ
ÑĩÑĥ ÑĤÑĮ
ĠÑĢÐµ Ð°Ð³Ð¸
ĠÐ¼Ð¸Ð»Ð»Ð¸ Ð¾Ð½Ð°
ĠÑģÐ¾Ð¼ Ð½ÐµÐ½Ð¸Ñı
Ð¾Ð¿ Ð¾Ð»ÑĮ
uth or
Ġor ig
ĠÑĤÐ¾Ð²Ð° ÑĢÑĭ
ĠÐ¿Ð¾Ð²ÐµÐ´ ÐµÐ½Ð¸Ñı
ĠÐ¼Ð½Ð¾Ð³ Ð¾Ð¼
ĠÐ±ÑĢÐ¸ Ð³Ð°
ÑģÐ¾ ÑĢÐ°
Ġoffic ial
ĠÐ¸ÑģÐ¿Ð¾Ð»ÑĮÐ· Ð¾Ð²Ð°Ð½Ð¸ÐµÐ¼
ĠÑĢÐµÐ³ÑĥÐ»ÑıÑĢ Ð½Ð¾
Ð»Ñı ÑİÑĤÑģÑı
ĠÑĥ ÑĩÐ¸Ð»Ð¸
Ð½Ñı ÑİÑĤ
ĠÑģÐ¾Ð»Ð½ ÑĨÐ°
ĠÐĶ ÐµÑĤ
ĠÐ¾ÑĤ Ð´Ð¾Ñħ
ĠÑģÑĥÑīÐµ ÑģÑĤÐ²ÑĥÑİÑĤ
u ed
ĠÑģÐ¾Ð± Ð»ÑİÐ´
ĠÑĢÐ°Ð· ÑĥÐ¼ÐµÐµÑĤÑģÑı
ĠÑĪ Ð°Ð½Ñģ
ĠÐł ÐµÐ¹
ĠÑģÑĤÐ°ÑĤÑĮ Ñİ
ĠÑģÑĤÐ¾Ð» Ð¾Ð¼
Ð¼ ÐµÐ»ÑĮ
on y
ĠÑģÐ¾Ð¾Ð±ÑīÐ¸ Ð»Ð¸
ĠÐ¿ÑĢÐ¸ Ð´ÑĥÐ¼
Ġ200 3
ĠÐ¿ÑĢÐµÐ´ÑģÑĤÐ°Ð² Ð»ÐµÐ½Ð¸Ñı
ĠÐ½Ð°ÑĩÐ¸ Ð½Ð°Ñı
ĠÐ´ÑĢÑĥÐ³ Ð¾Ð¼Ñĥ
ĠÐ± Ð¾Ð¶Ðµ
p or
a ug
ĠÑģÑĤ ÑĢÐ¾Ð³
ĠÑģÐ¾Ð± Ð»Ñİ
if ied
ĠÐ¸Ð¼Ðµ Ñİ
ĠÐľÐ° ÑĤÐµÑĢÐ¸
Ð²Ðµ ÑĨ
ĠÐ§ Ð¸
ĠÐ¿Ð¾Ð¼ Ð¸Ð¼Ð¾
Ð»Ñı Ð»Ð¸
ĠÐ±ÑĥÑħ Ð³Ð°Ð»
ĠÐ¿Ð¾Ð²ÐµÐ´ ÐµÐ½Ð¸Ðµ
ĠÑģÑĢÐµÐ´ Ð½ÐµÐ³Ð¾
________ ________
ĠÑĥÑģÐ»ÑĭÑĪ Ð°Ð»
ĠÐĺÑģÐ¿ Ð°
: <|
ĠÐ²Ð¼Ðµ ÑĪ
ĠÐ´Ð¾ÑĩÐµ ÑĢÐ¸
ĠÐ½Ð¾ ÑĥÑĤ
Ġper cent
ĠÐļ Ð»Ð¸
Ġall ow
ĠÑĢÐ° ÐºÐµÑĤ
107 9
B ut
Ñĭ ÑĢ
ĠÑħÐ²Ð° ÑĤ
ÑĤÐµÑħ Ð½Ð¸
ĠÐ¾ ÑħÑĢÐ°Ð½
ĠÐ¾ÑĤÐ²ÐµÑĤ Ñĭ
ĠÐ½Ð¾Ð² Ð¾Ð³Ð¾Ð´
Ġwom en
ÑĤÑı Ð½Ñĥ
ĠÑģÐ¿Ð¾ÑģÐ¾Ð± Ð½Ð¾ÑģÑĤÐ¸
ÑĤ ÑĢÐ¾
Ð¸ÑĤ ÐµÐ»Ñİ
Ðľ Ðµ
ur ch
ÑĢÑı Ð¼
g in
ĠÑĥÐ»ÑĭÐ± Ð½ÑĥÐ»Ð°ÑģÑĮ
ĠÐ¿ÑĢÐ¸ Ð´ÑĥÐ¼Ð°
ĠÐ¿ÑĢÐ¸ ÑĪÐ»Ð¾
ĠS te
ÑĢÐ° ÑģÑĤÐ°
ĠÑģÑĤÐ°Ð± Ð¸Ð»ÑĮ
Ñĩ ÐµÐ½Ð¸Ð¹
ÐŀÐ´ Ð½Ð°ÐºÐ¾
amp le
Ð¾Ð¿ Ð¾
ĠÐĹÐµÐ¼ Ð»Ð¸
enc es
ĠÑĢÐµÑģÐ¿ÑĥÐ±Ð»Ð¸ ÐºÐ¸
ĠÐŀ Ð´Ðµ
ÐŁ Ð¾ÐºÐ°
ÑıÑī Ð°Ñı
o le
ĠÐ¸Ð·Ð±Ð° Ð²Ð¸ÑĤÑĮÑģÑı
Ġ z
ĠÐ¿ÑĢÐ¸ ÑĢÐ¾Ð´Ðµ
ĠÐ¿ÑĢÐ°Ð² Ð´Ñĥ
ĠÐ²ÑĤÐ¾ ÑĢÐ°Ñı
ĠÐ¢ Ð°Ð¹
ĠÐ¡ Ð°Ð¼Ð°
ĠÐ¸Ð½ Ð²Ð°Ð»Ð¸
Ġor der
ĠÐ·Ð° ÑģÐ»ÑĥÐ¶
ĠÐ²Ð· ÑĢÑĭÐ²
ĠI II
Ð¡ ÐºÐ°
" .<|
ĠÑģÐµÑĢÑĮ ÑĳÐ·
ÐĴ Ðµ
ĠÐºÑĥÑĢ ÑģÐµ
Ð¼Ð°ÑĢ ÑĤ
Ð¾Ð¿ÑĢÐ¸ ÑıÑĤ
ĠÑĤÑĢÐ°Ð´Ð¸ ÑĨÐ¸Ð¸
Ðº Ð½Ñĥ
ĠÐ¼ÐµÐ½Ñı ÑĤÑĮ
ĠÐ½Ð°Ð· Ð²Ð°Ð½Ð¸Ñı
ĠÐ²ÑĭÑģÐ¾Ðº Ð¾Ð³Ð¾
Ð³Ñĥ Ð»Ð¸
ĠÐĳ Ð¾Ð»
ĠÐ» Ð°Ð²
ÑĩÐ° ÑģÑĤÑĮÑİ
ĠÐ½Ð°ÑĪ Ð»Ð°
ĠÐ²Ð¾Ñģ ÑħÐ¸
ĠÐŃ Ð¹
ĠÐ°Ð²ÑĤÐ¾Ð± ÑĥÑģ
ĠÐ½ÐµÐ± ÐµÑģ
ĠÑĩÐµÑĢ ÑĤ
ĠÐ¿Ð¾Ð½ ÐµÐ´ÐµÐ»ÑĮ
ÑĤÐ¸Ð» Ð»Ðµ
ĠF l
ĠÐľÐµÐ´ Ð²ÐµÐ´
Ð¡ Ðļ
ĠÐĳ Ðµ
ĠÑĪÐº Ð¾Ð»Ð°
ĠÐ¿Ð¾ÑģÐ»ÐµÐ´ Ð½ÐµÐ¹
ĠÐ´Ð°Ð»ÑĮÐ½ÐµÐ¹ ÑĪÐµÐ¼
ĠÐ²Ñĭ ÐºÐ»Ñİ
ĠÐ¿ÑĢÐ¾ÑĦ Ð¸Ð»Ð°Ðº
ĠÐ¿ÐµÑĢÐµÐ´Ð° ÑĩÐ¸
ĠÐ¼ÑĥÐ·Ñĭ ÐºÐ°
ĠÐ¿Ð¾Ð´Ð½Ñı Ð»ÑģÑı
ĠÐ¿ÑĢÐ°ÐºÑĤÐ¸ ÐºÐµ
Ð´ Ð¾Ðº
at t
Ġt est
ĠÐºÐ°ÑĢ ÑĤÑĥ
ĠÐ»Ð¸ ÑģÑĤ
8 9
ĠÐ»Ðµ Ð¶Ð°
] ,
ĠÐ³Ð»Ð°Ð² Ð½Ð¾Ð¹
ĠÐ±Ð¾Ð»ÑĮÑĪÐ¸Ð½ ÑģÑĤÐ²Ðµ
ÑģÑĤÐ²ÐµÐ½ Ð½Ð¾ÑģÑĤÑĮ
Ð¸Ð½ ÐºÐ°
ĠÐ¿Ð°Ð»ÑĮ ÑĨÑĭ
O n
ĠÐ¿Ð¾ Ð½Ð¸Ð¼Ð°Ð»
ĠÑģ Ð¸Ñı
ĠÐľ Ð¸ÑĢ
ĠÐ¡ ÐµÐ²
ĠÐĽ Ð¾Ð½Ð´
ĠÐĿÐ° ÑĪ
ĠÐ¼Ð³Ð½Ð¾Ð² ÐµÐ½Ð¸Ðµ
ĠÐ¼ Ð¾Ðº
ĠÐºÐ¾Ð¼Ð¿Ð° Ð½Ð¸Ñİ
Ġm ust
ĠÑģÑĢÐµÐ´ Ð½ÐµÐ¼
it ions
ĠÑĢÐ°ÑģÐ¿ ÑĢÐµÐ´ÐµÐ»
ĠÐ²Ð¾Ð· Ð³Ð»Ð°
ÑĩÐ¸ Ð²Ð°Ñı
ÑĩÐµÑģÐº Ð¾Ð¼Ñĥ
Ġf ree
ĠÐ¼ Ð¸Ð»Ð¾
ÐĽ ÑĥÑĩ
ĠÐºÐ¾Ð¼Ð¼ÐµÐ½ÑĤÐ° ÑĢÐ¸Ð¹
6 5
h od
ÐµÐ½ Ð´
ĠÑĤÐµÐ¾ ÑĢÐ¸Ð¸
ÑĥÐ¿ ÑĢÐ°Ð²
ĠÐ¾ ÑĤÐ¾
ÑģÑĤÐ¸ Ðº
Ð²Ð°ÑĢ ÑĤÐ¸
ĠÐºÐ° Ð¶Ð´Ð°Ñı
ĠÐ²Ð°ÑĪ ÐµÐ¼Ñĥ
ĠÐ±Ð»Ðµ ÑģÑĤ
: )
ĠÐ¼Ð° ÑģÑĤÐµÑĢÐ°
ĠÐŁÐ¾Ð¼ Ð¸Ð¼Ð¾
Ð± Ð°Ñģ
ĠÐ²Ð¾Ð·Ð± ÑĥÐ¶Ð´
Ð³Ð¾ ÑĢÐµ
i ans
ĠÐ¿ÑĢÐ¸ Ð²Ñı
ĠÑıÑĢ ÐºÐ¾
ĠÐ¿ÑĢÐ¾Ð´Ð° Ð¶Ð¸
ĠÐľ Ðĺ
Ð¼Ñĥ ÑĢ
ĠÑģÐ»ÑĥÑĪ Ð°ÑĤÑĮ
Ð½Ñı Ñħ
ĠÐ·Ð°Ð¼ÐµÑģÑĤ Ð¸ÑĤÐµÐ»ÑĮ
ĠÐ²Ð¾Ð² ÑĢÐµÐ¼Ñı
ĠÑĥ ÑģÐ¸Ð»Ð¸Ñı
ÑĤÐ¸Ð² Ð½ÑĭÐ¼
ĠÐ¸Ð½ ÑģÐ¿ÐµÐº
Ġp ost
ĠÑĥÐ¿ Ð°Ð»
ĠÐĴÐ»Ð°Ð´Ð¸Ð¼Ð¸ ÑĢÐ°
ĠÑĢÐ°Ð· Ð²Ð¾Ð´
Ġc ame
ÑıÑĤÐ¸ Ðµ
ĠÐ¸Ð·Ð²ÐµÑģÑĤ Ð½ÑĭÐ¹
ÑģÑĤÑĥÐ¿Ð° ÑİÑĤ
ĠÐ¸Ð·Ð± ÑĢÐ°Ð½
ĠÐº Ð¾Ðº
ĠÐ¸Ð· ÑĥÐ¼
Ð¾Ñĩ Ð¸Ð»
ĠÑĪ ÑĤÑĥÑĢ
" ;
Ð½Ñı ÑĤ
ĠÐ½Ð¸ ÐºÑĥÐ´Ð°
ĠÑħÐ¾ÑĢÐ¾ÑĪ Ð°Ñı
ÑĢÐ¾Ð²Ð°Ð½ Ð½Ð°Ñı
ĠÑĤ ÐµÐ½Ð¸
ÑģÑĤÐ° ÑĢ
ĠÑģÑĤÑĢÐ° Ð½Ð¸ÑĨÐµ
ÐĻ Ð¾ÑĢ
ĠÐ¿Ð¾Ñĩ ÑĤ
ĠÑĪ Ð¾Ñĥ
ĠÑĦÐµÐ´ÐµÑĢÐ° Ð»ÑĮ
ĠÐ·Ð° Ð²Ðµ
ĠÐ¿ÐµÑĢÐµ Ð¼ÐµÐ½
ĠÐŀÑĤ ÐºÑĢÑĭ
ĠÑĢÐ°Ð·Ð¼ ÐµÑĢÐµ
ĠÐĿÐ¸ Ð¶
ĠÑģÐ»ÑĥÐ¶ Ð±Ñĥ
ĠÐ¼Ð¾Ð»Ð¾Ð´ ÐµÐ¶
ĠÐ¿Ð¾Ñħ Ð¾ÑĢÐ¾
ĠÐ»Ð¸ÑĤÐµÑĢÐ° ÑĤÑĥÑĢÑĭ
ĠÑģÐ¸Ð¼ Ð¿ÑĤÐ¾Ð¼
ĠÐķ Ð³Ð¸
ĠÐĲÐ´ Ð¼Ð¸Ð½Ð¸ÑģÑĤÑĢÐ°
Ð² Ð°Ð»Ðµ
ĠÐ²Ð¾Ðº Ð·
ĠÐ¿Ð¾Ð» ÐµÑĤ
ĠÐĵ ÑĢÑĥ
ĠÐºÐ°Ð±Ð¸Ð½ ÐµÑĤ
Ð²Ð¸ ÑĨÐ°
oc r
ĠÐ´Ð¾Ð² ÐµÑĢÐ¸
ĠÑģÐ¾Ð±ÑĢÐ° ÑĤÑĮ
ĠÐĿÐµ ÑĥÐ¶ÐµÐ»Ð¸
ĠÐ¾ÑĤ Ð¼ÐµÐ½
ĠÐĿ ÐµÐ´
ĠÐ¼ÐµÑĤÐ¾Ð´ Ñĭ
Ð°ÑĢ Ð´
ĠÐ´ÐµÑĢÐµ Ð²Ð¾
ĠÑģÐ¿Ð¾ÑģÐ¾Ð± Ð½Ð¾ÑģÑĤÑĮ
ĠÐ²Ð· ÑıÐ»Ð¸
ĠÑģÐµÐ¼ ÑĮÑİ
Ð»Ðµ Ð¿
Ġto ok
ÑĢÐ¸ÑĤ ÑģÑı
ÑĥÐ´ Ð¸ÑĤÑĮ
ĠÑįÐ»ÐµÐ¼ ÐµÐ½ÑĤÑĭ
8 1
Ġp at
ĠÐ¿ÑĢÐ¾Ð³Ñĥ Ð»
ĠÐ¾ÑĤ Ð¾Ð¿
Ð¼Ñĥ Ð»Ñı
ĠÐ¿ÑĢÐ¾Ð²Ð¾Ð´ Ð¸ÑĤÑģÑı
ĠÐ¾ ÐºÑĥ
al f
pl oy
ĠÑĥ Ð±Ð¾ÑĢ
ĠSt ates
ĠÑģÐ¾ ÑĨÐ¸Ð°Ð»Ð¸
Ð» Ð¾Ð±
ÑĢÐ¸Ñı Ñħ
Ð¶Ð´Ð° ÑİÑĤ
ĠÐ½ÐµÐ¿Ð¾Ð½ ÑıÑĤ
Ð¸Ð¼ ÑĭÐµ
ÐµÑĢÐµ Ð¼Ð¾
ĠÑģÑĤÑĢÐ° ÑħÐ°
ĠÐĶ Ð¶Ðµ
ĠÐ´ Ð°ÑĤ
Ð¿Ð° Ð·
Ñĳ Ð²
Ð¾ Ñī
ĠÐ¿Ð¾Ð´ ÑĢÑĥÐ³
ĠÑģÐ²Ð¾ ÑĳÐ¼
ĠÐ²ÑĢÐ° ÑĩÐ°
ĠÐ¾ÑĤÐ´ÐµÐ»ÑĮ Ð½Ð¾
in c
ĠÑĩÑĥÐ²ÑģÑĤÐ² Ð¾Ð²Ð°Ð»
ĠÑĤÑĢ ÑĳÑħ
Ð¡ Ðŀ
ĠÐ±ÐµÑĢÐµÐ¼ÐµÐ½ Ð½Ð¾ÑģÑĤÐ¸
Ð½Ñĥ Ñģ
Ð¿ Ð¿
Ñĭ ÑģÐº
ĠÑĥÑģÑĤÑĢÐ¾Ð¹ ÑģÑĤÐ²Ð¾
ĠÐ² Ð»Ð¸
Ñı Ð²Ð¸ÑĤÑĮ
ĠÐ´Ð¾Ð»Ð¶ Ð½Ð¾ÑģÑĤÑĮ
ĠÐ¿ÑĢÐ°Ð·Ð´ Ð½Ð¸Ñĩ
ĠÐ¼ÑĥÐ·Ñĭ ÐºÑĥ
ĠÐ¿Ð¾ ÑĢÐ°Ð¶
ĠÑĤÐµÐ°ÑĤ ÑĢÐ°
ĠÐĴ Ð°Ð»Ðµ
ĠÑģÐµ ÑģÑĤÑĢÐ°
ĠÐ¸Ð½ÑĦÑĢÐ° ÑģÑĤÑĢÑĥÐº
ĠÐ¿ÐµÑĢÐ¸ Ð¾Ð´Ð°
ĠÑĤÐµÑĢ Ð¼Ð¸
ĠÐ³ÑĢÑĥ Ð½
ĠÐľ ÐĴÐĶ
ĠÐ±ÑİÐ´Ð¶ ÐµÑĤÐ°
ĠÐ´Ð¸Ð·Ð° Ð¹Ð½
ÑĢÐ¾ ÑĪÐµÐ½
ĠÐ¿ÑĢÐ¾Ðº ÑĥÑĢÐ°
E S
Ð´Ð° ÑĤÑĮÑģÑı
C h
ĠÐ²Ð½Ñĥ ÑĤÑĢÑĮ
Ð°Ð½ ÑĤÑĭ
ĠÐĴ Ðŀ
ĠÐķ Ð»ÐµÐ½Ð°
Ð² ÐµÐ»Ð°
ÑĢ Ð¾Ð»
ĠÐĳ Ð¾Ð»ÑĮÑĪÐµ
st and
9 2
ert ain
Ġl i
ĠÐ³Ð¾ÑĢÐ¾Ð´Ð° Ñħ
Ð´ Ð²Ð°
in ing
ĠÐ´Ð¾Ð³ Ð¾Ð²Ð¾ÑĢÐ¸
ĠÐ¢Ð°Ðº Ð¾Ðµ
ĠÐ¸Ð½ÑĤÐµÐ»Ð»ÐµÐº ÑĤÑĥ
ĠÐ¾Ð± ÑĢÐµ
ĠÐºÐ²Ð°Ð´ ÑĢÐ°ÑĤ
ĠÐ¼Ð¾ÑĢ Ð¾Ð·
ĠÑģÐ¾Ð¼ Ð½Ðµ
ĠÑģÐ¾Ð·Ð´Ð° Ð²Ð°ÑĤÑĮ
ĠÐ½Ðµ ÑģÐ¿
ĠÐµ Ñİ
ĠÑĥÑģÐ¿ ÐµÑħÐ°
ĠÐ·Ð°Ð±Ð¾Ð»Ðµ Ð²Ð°Ð½Ð¸Ð¹
ĠÐľÐ¸ÑħÐ°Ð¹ Ð»Ð¾Ð²
ÑģÑĤÐ°Ð½ ÑĨÐ¸Ð¸
ĠÐº ÑĥÐº
Ð²ÑĪ ÐµÐ¼Ñĥ
ĠÑģÐ¾ÑģÑĤÐ° Ð²Ð°
Ġin formation
Ġa ff
ĠÐ¿ÑĢÐ¾Ð¿ Ð°Ð³Ð°Ð½
ÑĪÐ¸ Ð½Ñĭ
ac y
ĠÐºÑĥ ÑĢÐ¾ÑĢ
ĠÐĴÑĭ Ñģ
Ð°Ð½ Ñı
Ġ199 0
ĠÑĢÐ°Ð·Ð´ ÑĢÐ°Ð¶
ÑĢÐµ ÑĤÑĭ
Ð² ÑĪÐµÐµ
Ð¾Ñģ Ð¸Ð¿
ĠÐ¿Ð¾Ð¿ ÑĢÐ¾ÑģÐ¸Ð»
ĠÐ»Ð° Ð´Ð¾
ĠÐ¢ ÐĲ
ĠÑĢÐ°ÑģÑģÐºÐ° Ð·ÑĭÐ²Ð°ÐµÑĤ
ĠÐ¿ÑĢÐ¾Ð²ÐµÑĢ ÐºÐ¸
ÑĢÑı Ð·
ĠÐ¿ÑĢÐµÐ´ Ð¾ÑĤÐ²ÑĢÐ°
6 7
ĠÐ¿ ÑĥÐ±Ð»Ð¸Ñĩ
ĠÑĢÐµÑĪ Ð°ÑĤÑĮ
ĠÐ½Ð° ÑĤ
ĠÐľ Ð°Ð»ÑĮ
ÑĤÐµ Ñģ
ÑĢÐµÐ´ ÐºÐ¾
ĠÐ¾ÐºÐ°Ð·Ð° ÑĤÑĮÑģÑı
Ð³ Ð¾Ð¹
ÐºÐ¾Ð² ÑĭÐ¹
Ð²Ð° Ð¶Ð°
ĠÐ¶ÐµÐ»ÐµÐ· Ð½Ð¾Ð´Ð¾ÑĢÐ¾Ð¶
Ġfil m
r or
Ð² ÑĳÑĢ
ĠÑĩÐ° ÑģÑĤÐµÐ¹
ĠÐłÐ°Ð½ ÐµÐµ
c he
Ġ occ
ĠÑįÑĤÐ° Ð¿Ðµ
Ð»Ðµ Ð±
ĠÑĢÐµÑģÑĥÑĢ ÑģÐ¾Ð²
ĠÐ´Ð° ÑģÑĤ
Ð³Ð¾ Ñģ
ĠÐ²ÑģÑĤÑĢÐµ Ñĩ
ĠÐ¿ÐµÑĢÐµÐ½ Ð¾Ñģ
Ġke ep
ĠÐ´Ð¾Ð¶Ð´ ÑĮ
oun g
Ġch ang
ĠÑģÐºÐ° Ð·Ð°Ð½Ð¾
ĠÐ·Ð°Ð¼ÐµÑĤ Ð¸Ð»Ð°
Ð± Ñİ
Ġm ar
ĠÐ±Ð°Ð½ ÐºÐ¸
ĠÐ»Ð¸ Ð±Ðµ
ĠÑģÐ¼Ð¾Ð³ Ð»Ð°
ĠÑĢÐµ Ð°Ð»ÑĮÐ½Ð¾ÑģÑĤÐ¸
ĠÐ´Ð¾ÑģÑĤÐ° ÑĤÐ¾Ñĩ
Ð³ Ð½ÑĥÐ»
e b
Ġf ield
ĠÐĿ Ð°ÑĤÐ°Ð»ÑĮ
ĠÐ· Ð½Ð°Ñı
end ed
ĠÐ¿Ð¾ÐºÐ¾Ð» ÐµÐ½Ð¸Ñı
ĠÑĢÐ° ÑĨÐ¸Ð¾Ð½
ÑģÑĭ Ð»Ð°
ĠÑģÐ¿ÑĢÐ¾ÑģÐ¸ ÑĤÑĮ
ĠÐ·Ð°Ð¼ÐµÑĤ Ð½Ð¾
r am
Ð¼Ð¸ ÑĤÑĮ
ĠÑĥÐ¿ Ð°ÐºÐ¾Ð²
ĠÐºÑĢÑĭ Ð»ÑĮ
Ð· Ð¾
ĠÐ¸ Ð½ÑĭÑħ
O S
ĠÐ¿Ð¾ ÑĨÐµÐ»
ĠÐ²Ð°ÑĢÐ¸Ð°Ð½ ÑĤÑĭ
w ork
er man
ĠÐ¿ÑĢÑı Ð¼Ñĭ
ĠÑģÑĤÐ°ÑĤÑĮ Ñı
ÐµÐ»ÐµÐ½ Ð½Ð¾Ð¹
ĠÑĢÑĥÐºÐ¾Ð²Ð¾Ð´ ÑģÑĤÐ²Ð¾Ð¼
ĠÑģÑĤÐ°ÑĤÑĥ Ñģ
ĠÐĽ ÑĮ
ĠÐ°Ð² ÑĤ
ĠÐ´Ð¸ ÑģÐ¿
ĠÐ³Ð¾ÑĢ Ð¾Ð´Ñĥ
ĠÐ¶ ÑĥÑĤ
ĠÐ´ÐµÐ²Ð¾ ÑĩÐºÐ¸
ĠÐµ Ð´Ñĥ
ĠÐ½Ð¸ ÑĩÐµÐ¼
ÑģÑĤ Ð½Ð°Ñı
ĠÐ´ÑĥÐ¼Ð° ÐµÑĤ
ĠÑįÑĤÐ° Ð¶
ĠÐ³Ð»Ð°Ð² Ð½ÑĭÑħ
ÐµÑĢ Ñı
ÑĩÐ° Ñİ
ĠÐ½Ð°Ð·Ð½Ð° ÑĩÐµÐ½Ð¸Ñı
ĠÑĥÐ± Ð¸ÑĤÑĮ
ĠÐ¿ÑĢÐµÐ´ÑĥÑģ Ð¼Ð¾ÑĤÑĢÐµÐ½
an a
ag ue
ĠÑį Ð¿Ð¸
ide o
Ð²Ð¸ Ñı
ĠÐ¿ÑĢ Ð¾Ð»
ĠÑģÐµÐ· Ð¾Ð½Ð°
ĠÐ¿Ð¾Ð» Ð½Ð¾Ðµ
Ð°Ð»Ð¸ ÑĤÑĮ
ĠÐ¾Ð³ÑĢÐ° Ð½Ð¸Ñĩ
ĠÐ¾Ð±ÑĬÐµÐº ÑĤÐ°
Ġe as
ain ed
ĠÐ±Ð»Ð¾Ðº Ð¸
ÑĨÐ¸ Ðº
ĠÐºÐ¾Ð¼Ð¿Ð° Ð½Ð¸ÐµÐ¹
ĠÑĢÐ¾Ð² Ð½Ð¾
ĠÐ´ÐµÑĢÐµÐ² ÑĮÐµÐ²
ĠÐ¸Ð·Ð²ÐµÑģÑĤ Ð½ÑĭÑħ
ĠÐºÐ¾Ð½ ÑĨÑĥ
ĠÐ¼Ð°Ð³Ð°Ð·Ð¸ Ð½Ð°
Ð¾ Ð¾
ĠÐºÐ¾ÑĢÐ°Ð± Ð»Ñı
ĠÑĢÐ°Ð±Ð¾ÑĤ Ð¾Ð¹
ĠÐ¾Ð±Ð¾ Ð¸Ñħ
ĠÐ±Ñĭ Ð²ÑĪÐ¸Ð¹
ĠÐľÐ° ÑĢÐ¸Ñı
ĠM r
ÑĢÑĥ Ð³Ð¸
ĠÐ²Ð·Ð´Ð¾Ñħ Ð½ÑĥÐ»
ĠÐ³Ð¾ÑĢÐ¾Ð´ ÑģÐºÐ¾Ð³Ð¾
Ġ3 7
ĠÐºÐ¾Ð¼Ð¼Ñĥ Ð½Ð¸
Ð½Ð¾Ð´ ÑĥÑĪ
ÑĢÐ° Ð´Ð¸
ÐµÐ½ÑĮ ÐºÐ°
ÑĨÐ¸ Ð¾Ð½Ð°
ĠÐ¿ÐµÑĢÐµ ÑģÑĤÐ°
http s
s ide
ĠÐľ ÐµÑĢ
ĠÐ°Ðº ÑĤ
ÑĢ Ñį
Ðº Ð°Ð»
ent ion
ÐĿÐĺ Ðķ
ĠÐ£ Ð¶
ĠÐŁ Ð¾Ð»ÑĮ
ÐµÐ´ Ð¸Ð¸
ĠÑĢÑĥÐºÐ¾Ð²Ð¾Ð´ ÑģÑĤÐ²Ð¾
ÑĪÐ¸ ÑĢ
** *
Ġ ve
ĠÑĦÐ¸Ð³ ÑĥÑĢ
ĠÑģÑĤÐ° ÑĢÑĭÐµ
Ġbus iness
ĠÐ² Ð¿ÑĢÐ¾ÑĩÐµÐ¼
ĠÐ¾Ð± ÑĥÑĩÐ°
ĠÐ½Ð°Ñĩ Ð°Ð»Ð¾ÑģÑĮ
ĠÐºÑĥÑħ Ð½Ðµ
Ġ es
Ðŀ ÑĩÐµÐ½ÑĮ
ĠÑĢÐµÐºÐ»Ð° Ð¼Ñĭ
ĠÐ¾ÑĤÐºÐ°Ð·Ð° ÑĤÑĮÑģÑı
ĠÐĶ ÐµÐ¹ÑģÑĤÐ²
Ġear ly
ĠÐ¢ Ð¸Ñħ
Ð»Ð° Ð½Ð°
ĠÐ±Ð»Ð¸Ð¶Ð°Ð¹ ÑĪÐµÐµ
ĠÐ· Ð°Ð»Ð°
ĠÐŁÐ°Ð² ÐµÐ»
ĠÐ¿ÑĢÐ¸ Ð³Ð¾Ð´
m a
ĠW ar
ĠÐ¿ÑĢÐµÐ´ÑģÑĤÐ°Ð² Ð»ÐµÐ½Ñĭ
ĠÐ³Ð» ÑĥÑħ
ĠÐ°ÑģÑģ Ð¾ÑĢÑĤÐ¸
ÑģÑĤ ÑģÑı
ĠÐ¾Ð±Ðµ ÑīÐ°
ĠÐ¾ÑĪÐ¸Ð± ÐºÐ¸
ĠÑģ ÑĢÐ¾ÑĩÐ½Ð¾
ĠÐ½ÐµÐ¿Ð»Ð¾ ÑħÐ¾
ĠÐ¨ ÑĤÐ°
ĠÐ· Ð¾Ð»
ĠÐ± Ð¾Ð´
Ġw ww
Ð¸ÑĩÐµÑģÐº Ð¸Ðµ
ĠF acebook
ĠÑģÑģÑĭÐ» ÐºÐ¸
ĠÑĢÐ°Ð· Ð½Ð¸ÑĨÐ°
ÑĩÐ° ÑĤÑĮÑģÑı
6 4
Ġpro ject
ĠÑģÐº Ð¾Ð½
ĠÐ¾Ð³ Ð½Ñı
ĠÐŃ ÑĢ
ĠÑģÐµÐºÑĥÐ½ Ð´Ñĥ
Ġfor mer
Ġloc al
r act
ÑģÑĤ ÑĭÑħ
Ð¶Ð¸ Ð²Ð°ÑĤÑĮ
ĠÐ·Ð°ÐºÐ° Ð·Ð°
ĠÑģÑĤÑĢÐµ Ð¼Ð¸
ĠÐ±ÐµÐ» ÑĭÐ¹
ĠÐ±ÐµÐ· ÑĥÐ¼
ĠÑĢÐ° ÑģÑĤÐ²
ĠÐ¿Ð¾Ð´ Ð·ÐµÐ¼
Ñį ÑĤÐ°Ð¶
ÐµÐ¼ Ðµ
ĠÐ·Ð° ÑıÐ²Ð»Ñı
ĠÐ½Ð°Ð¿ÑĢÐ°Ð² Ð»ÐµÐ½Ð¸Ðµ
Ð²Ð° Ð½Ð°
ĠÐ¿Ð¾Ð¹ Ð´ÐµÑĤ
ĠÐ¼Ð¸Ð½Ð¸ ÑģÑĤÐµÑĢ
id d
ĠÐºÑĢÐµ ÑģÑĤÑĮÑıÐ½
Ð°Ð½ Ð¾Ð¼
ÑģÑĤ Ð¾Ð³Ð¾
ĠÐ¡ÑĤ Ð°Ð»Ð¸Ð½
Ð»Ðµ Ñģ
o o
ĠÐºÐ° Ð·Ð°
ĠÐ¿Ñĭ Ð»ÑĮ
ic le
ĠÐ¿Ð¾Ð»Ð¾Ð¶ ÐµÐ½Ð¸Ð¸
ĠÐ¾ÑĢ Ð³Ð°Ð½
ĠÑĤÐµÐº ÑģÑĤÐ°
Ð¾Ð² ÐµÑĤÑĥ
ĠÐ°Ð´ÑĢÐµÑģ Ñĥ
ÑĢÐ¾Ð´ ÑĥÐº
Ġre se
ĠÐ°Ð²ÑĤÐ¾ ÑĢÐ¸ÑĤ
ÑĪ ÐµÐ½Ð¸Ð¹
ĠÐ¢ Ðŀ
ĠÐ· Ð¾Ð½Ñĭ
Ġal ong
Ðļ Ð¾ÑĢ
Ġ x
ap er
ĠÐ½Ðµ Ð¾ÑĤ
ĠÐŃ Ð»ÑĮ
ĠÑģÐ¾Ð²Ð¼Ðµ ÑģÑĤÐ½Ð¾
Ð²Ðµ ÑĢÐ¸
ĠÐ¿Ð¾ÑģÑĤÐ°Ð² Ð¸Ð»
ĠÑĥ ÑħÐ°
ĠÐ¿Ð¾ Ð¸Ð½ÑĤÐµÑĢÐµÑģ
ĠÑģÐ¿Ð° ÑģÑĤÐ¸
Ð¶Ð¸Ð¼ Ð°
ĠÐļ ÑĥÐ·
ĠÐļ Ð½Ð¸
ĠÐ¿Ð¾Ð´ Ð¿
ĠÑĤÐµÐ¼Ð¿ÐµÑĢÐ° ÑĤÑĥÑĢÐ°
ĠÐ¿Ð°ÑĢ ÑĤÐ¸Ð¹
end ing
Ð¸Ð¼ ÑĭÐ¹
ĠÐ² ÐµÑĤÐµ
ĠÑģÐ»Ð¾Ð¶ Ð½Ð¾ÑģÑĤÐ¸
ĠÐ¡Ð¸ ÑģÑĤ
Ġan al
ĠÐ¿ÑĢÐµÐ¾Ð´ Ð¾Ð»
ĠÐ½Ð° ÑĢÐµ
ĠÐ± Ð»ÐµÐ´
Ð½Ð° ÑģÑĤÐ¾Ñı
ÑĢÐµ Ñħ
ĠÐ² ÐµÐ·
ĠÐ´Ð¾Ð»Ð¶ Ð½Ð¾ÑģÑĤÐ¸
âľ Ĥ
ĠÐĵ ÐµÐ½ÐµÑĢÐ°
Ð¶Ðµ ÑĪÑĮ
ĠÐ´Ð° Ð²Ð°Ð¹
ĠÑĦ Ð¸Ð»Ð¸
Ð°Ð½ ÑģÐºÐ¾Ð¹
ĠÐ´ÐµÐ» Ð°Ð¼
ĠÑĥ ÑħÐ¾Ð´Ð¸ÑĤ
ĠÐ± ÑĥÐ»ÑĮ
ĠÐ¿ÑĢÐµÐ¼ ÑĮÐµÑĢ
ĠÑģÑĤ Ð²Ð¾Ð»
ar n
ap s
ĠÐ¿Ð»Ðµ ÑĩÐ¾
ĠÐ¾ÑģÑĤÐ°Ð² Ð¸Ð»
ĠÐºÐ¾Ð½ÑĦÐµÑĢÐµÐ½ ÑĨÐ¸Ð¸
ĠÐ¿ÑĢÐµÐ´Ð»Ð¾Ð¶ Ð¸ÑĤÑĮ
ÑĦÐ¸ ÑĨ
ĠÐ¼Ñĭ ÑģÐ»Ñı
ĠÑĤÑĢÐ°Ð½ÑģÐ¿ Ð¾ÑĢÑĤÐ°
Ñī Ð¸Ð»
ĠÐºÐ¾Ð» Ð¾
ĠÐ³ÑĢÐ°Ð´Ñĥ ÑģÐ¾Ð²
Ð³ ÐµÐ½ÑĤ
ĠÐ¼Ð°ÑĢ ÐºÐµÑĤ
ĠÑĤÐ°Ð± Ð»Ð¸
ĠÐ²Ð·ÑĢÐ¾ÑģÐ» ÑĭÑħ
ĠÐ° ÑĤÐ¾Ð¼
ĠÑģÑĤ ÑĢÑĥ
ĠÑģÑĤÑĢÐ° Ð½Ð¸ÑĨÑĭ
ÐŃ Ðº
ĠÐ´Ð¸Ñģ ÑĨÐ¸Ð¿
Ġ200 2
ur ity
ĠÐ²Ð¾Ð·Ð¼Ð¾Ð¶Ð½Ð¾ ÑģÑĤÐµÐ¹
A s
Ðĵ ÐĲ
ĠÐ°Ð»ÑĮ Ð±Ð¾Ð¼
ĠÐ±Ð° Ð·Ñĭ
ĠÐ²ÑģÐ¿Ð¾Ð¼ Ð½Ð¸Ð»
ĠÐ½Ð°ÑĩÐ°Ð»ÑĮ Ð½Ð¸ÐºÐ°
ÑĩÐ° ÑıÐ½
ĠÐ¿Ð¾Ñģ ÑĥÐ´
ĠÐĿÐ° ÑĪÐ°
ĠÐ½Ð°Ð· Ð²Ð°Ð»
ĠÐ¸Ð¼Ñĥ ÑīÐµÑģÑĤÐ²Ð°
ĠÐ½ Ð°Ð»Ð°
Ġl and
ĠA m
Ġcon c
Ñĩ Ð½Ð¸Ðº
Ġa way
ĠÐ¢Ðµ Ð±Ðµ
Ġ194 1
ĠÑĤ ÑĮ
ĠÐ¶ÐµÐ½ Ð¾Ð¹
ÑģÑĤÐ° Ð¸
Ġe conom
ĠÐ¿Ð¾Ð¼Ðµ ÑīÐµÐ½Ð¸Ðµ
Ġf riend
ĠÐ±Ð¾Ð»ÑĮÑĪÐ¸Ð½ ÑģÑĤÐ²Ð°
Ġb ased
ĠÑģÑĤÐ° ÑĢÐ¸Ð½
ĠÐ¿ÑĢÐ¾ÑĪ Ñĥ
Ġfe el
ĠÐ¶Ð¸Ð»ÑĮ Ñı
Ðľ ÑĥÐ¶
ĠÑĢ Ð¾Ð¶
read y
ĠÐ¿ÑĢÐ¸Ð±Ñĭ Ð»Ð¸
Ġop t
ĠÑģÐ¾Ð± Ð°ÐºÐ¸
ĠÑģÐ¾ ÑĨ
Ġch ange
Ð»Ð° Ð¶
Ðĵ Ð»Ð°Ð²
ĠÐ¤ Ð¾ÑĤÐ¾
Ð° Ð½Ð¸
ÑģÐ¿ Ð¸
ĠÐ¿ÑĢÐ¸Ð³Ð¾ÑĤÐ¾Ð² Ð»ÐµÐ½Ð¸Ñı
ÑĨÐ¸Ð¾Ð½ Ð½Ð¾Ðµ
ĠÐ¾Ñģ Ð½Ð¾Ð²Ñĭ
ĠÐ¡ Ð¼
is ing
al d
ÐĲ ÐĲ
ĠÐ¿Ð°ÑĢÐ° Ð»Ð»
ĠÐ¿ÐµÑĢÐµ ÑģÐµ
ĠÑģÐ¾Ð±ÑģÑĤÐ²ÐµÐ½ Ð½ÑĭÑħ
ĠÐ¿ÑĢÐ¸Ð½Ð°Ð´Ð»ÐµÐ¶ Ð¸ÑĤ
Ð»Ð¸ Ð²ÑĭÐ¹
ÑĪ Ð¸Ð»
ĠÐ¿ÑĢÐ¸ Ð´ÐµÑĤ
10 00
ĠÐ¿Ð¾ÑĤ ÑĢÑı
ĠÐ¿ÐµÐ´Ð°Ð³ Ð¾Ð³Ð¸
ĠÐ¡ÑĤÐ¾ Ð¸Ð¼Ð¾ÑģÑĤÑĮ
ĠÐ°Ð»ÑĮ ÑĤÐµÑĢÐ½Ð°
ĠÐ¶ Ð´ÑĥÑĤ
ĠÑĦÐ¸Ð»ÑĮ Ð¼Ñĭ
Ð¿ Ð»Ð¾
ĠÐŁ ÑĢÐ¾Ð³ÑĢÐ°Ð¼
Ð¶Ð° ÐµÑĤ
ĠÐ¿ Ð°Ð»Ðµ
ÑĤ ÑĢÐ°Ð½
ÑģÑĤÑĢÐµ ÑĩÑĥ
ĠÐ³ ÑĢÐ¾
ĠÐ¼Ðµ Ð±ÐµÐ»Ð¸
ĠÐ¸Ð· Ð±Ð¸ÑĢÐ°
ĠÐ¸Ð½ÑĤÐµÑĢÐµÑģ Ñĭ
ĠÐ²ÑģÑı ÐºÐ¸Ñħ
Ġ200 1
ĠÐ³Ð¸Ð¼ Ð½Ð°
ĠÐ¿ÑĢÐ¸Ð±Ñĭ Ð»ÑĮ
Ġp ay
ĠÐ´ÑĭÑħÐ° Ð½Ð¸Ðµ
ĠÐĳ Ð¾Ð¶Ðµ
Ð¾ÑĢ ÑĤÑĥ
ĠÐ¿ÑĢÐ¾ÑĨÐµÐ´Ñĥ ÑĢÑĭ
ĠÐ³ÐµÑĢ Ð¾Ð¹
ĠÐº Ð°Ð»ÐµÐ½
Ð° Ð´Ð°
Ġ vers
ÐµÐ½ Ð¾Ðº
l ish
Ð¸Ð¼ Ð¾Ð²
ĠM c
ĠÐ¿ÑĢÐ¾Ñĩ Ð¸Ñħ
ĠÐºÐ°Ð´ ÑĢÐ¾Ð²
Ġapp ear
ĠÐĿ Ð°ÑĢÐ¾Ð´
ĠÐ¿Ð¾Ð½Ð¸Ð¼Ð° ÐµÑĪÑĮ
ĠÑģÐ¾Ð²ÑĢÐµÐ¼ÐµÐ½ Ð½Ð¾Ð³Ð¾
ÐºÐ¾ Ð½Ð°
ĠÐ§Ð° ÑģÑĤÑĮ
Ð½Ð°Ð´ ÑĨÐ°ÑĤÐ¸
ĠÐ¿ÑıÑĤÑĮ Ð´ÐµÑģÑıÑĤ
ĠÐĴÐ¾ ÑģÑĤÐ¾
ĠÐ¸Ð½Ð¸ ÑĨÐ¸
ĠÐ¿ÑĢÐµÐ´Ð¿Ð¾Ñĩ ÑĤ
ĠÐ´ÐµÐ¼Ð¾Ð½ ÑģÑĤÑĢÐ¸
ĠÐ¥ Ð¾Ð»
our ce
Ð½Ð¸Ð¼Ð° Ð½Ð¸Ðµ
ĠCom m
Ġimport ant
ĠÐ¿ÑĢÐ¸ Ð´Ð°
ĠÐºÐ°Ðº Ð¸Ð¼Ð¸
ĠÑĤÐµÑĢÑĢÐ¸ÑĤÐ¾ ÑĢÐ¸Ñİ
ĠÐĴÐ° ÑĪÐµ
ĠÑģÑĤÐ¾Ð» ÐµÑĤ
ĠÐ± ÑĢÐ¾Ð´
ĠÐ´Ð¸ Ð°Ð¼ÐµÑĤ
ĠW indows
ĠÑĥ ÑĪÐ¸
ĠÐĽ ÐµÐ²
ĠÐ» Ð¾Ð¿
ĠÐ¸Ð´ ÐµÐ¹
Ñģ Ð²Ð¾
ĠÐ¿Ð°ÑĢ Ðº
ĠÑĩÐµÑĤ ÐºÐ¾
ĠÐ¿ÑĢÐ¾Ð³ Ð½Ð¾Ð·
ĠÐºÐ¾ÑĢÐ¿Ñĥ ÑģÐ°
Ð´ Ð²Ð¾
ĠÐ· Ð´ÑĢÐ°
ĠÐ° ÑģÐ¿ÐµÐº
o int
ĠÐºÐ¾Ð½ÑĨ ÐµÑĢÑĤ
ĠÐ² ÐºÐ»Ð°Ð´
ĠÐ¸ÑĤÐ¾Ð³ Ð°Ð¼
ĠÐĶ ÐµÐ½Ð¸
ĠÐŁÐ¾ ÑģÐºÐ¾Ð»ÑĮÐºÑĥ
ÑĪ ÐµÐ½Ð¸ÐµÐ¼
ĠÐ¿ÑĢÐµÐ´ÑĥÐ¿ ÑĢÐµÐ´
ĠÑĦ Ð°Ð±
ĠÐ¿Ð¾Ð¿ÑĭÑĤ ÐºÐ¸
ĠÐ´Ð¾Ð± ÑĢÐ¾
ĠÐ²Ð¾ÑĢÐ¾ ÑĤÐ°
ĠÐ¾ÑĤÐ´ÐµÐ» ÐµÐ½Ð¸Ñı
ĠÐĸ ÐµÐ»
ĠÑĢÐ°ÑģÑĤ ÐµÐ½Ð¸Ð¹
Ġ old
Ġd i
ĠÐĲÑĢ Ñħ
Ð¥ Ð¾ÑĢÐ¾ÑĪÐ¾
Ð½Ð¸Ð¼ Ð°Ð»Ð°
Ð¾Ð»ÑĮ Ð½Ð¾Ð³Ð¾
ĠÐ¼Ð° Ð½Ð¸
Ð¡ ÐµÐ¹ÑĩÐ°Ñģ
ĠÐ¿ÑĢÐµÐ´ÑĥÐ¿ ÑĢÐµÐ¶Ð´
ÑīÐ°Ñı ÑģÑĮ
ĠÐ¿Ð¾Ð²Ñĭ ÑĪÐµÐ½Ð¸Ñı
ĠÐ¾ÑĤÐ½Ð¾ ÑģÐ¸
ĠÐ·Ð°Ñī Ð¸ÑĤÑĥ
ĠÑĢÐ°Ñģ ÑģÑĤÑĢÐµ
ÑģÑĭ Ð¿Ð°
ĠÐľÐ°ÑĢ Ðº
ĠÑĢÐµÐ³Ð¸ Ð¾Ð½Ðµ
ĠÐ± Ð¾ÑĢÐ¾ÑĤÑĮÑģÑı
Ñİ ÑīÐµ
109 5
ĠÐĲ ÐºÐ°Ð´ÐµÐ¼
ĠÐ´ÑĥÐ¼Ð° ÐµÑĪÑĮ
ĠÐŁÐµÑĤ ÑĢÐ¾Ð²
ĠÑģÐ¾Ð±Ð¸ÑĢÐ° ÐµÑĤÑģÑı
ĠÐ¾ÑħÑĢÐ° Ð½Ñĭ
ÑİÑīÐ¸Ð¼ ÑģÑı
ĠÐĲÐ½ Ð³
ĠÑĢ Ð¾Ðº
ĠÐ¿Ð¸Ñģ Ð°ÑĤÐµÐ»ÑĮ
ĠÑĦ ÑĢÐ°Ð·
ÑĤÐ¾ ÑĢÐ°Ñı
ĠÐłÐ¾Ð¼ Ð°Ð½
ĠÑģÑĥÐ¼ Ð¼Ð°
ĠÐ¾Ð±ÑĢÐ° ÑĤÐ¸Ð»ÑģÑı
ĠÐ´Ð¾Ð¿Ñĥ ÑģÐºÐ°
ĠÐ²ÑģÑĤÑĢÐµ ÑĩÐµ
ÑĦÐµÑĢ Ñĥ
ĠÑģÑĤÐ° ÑĢÐ¸
ĠÐ±ÐµÑģÐ¿ Ð¾ÐºÐ¾Ð¹
Ð½Ñı Ð»Ð¸
of f
ĠÑģÐ¼ ÐµÐ»Ð¾
ĠÐ·Ð° ÑģÐµÐ´Ð°
Ð¼Ð¾ ÐµÐ¼Ñĥ
w are
ÑĤÐµ ÑģÑĮ
ĠÐ°ÑĢ ÑħÐ¸
Ð·Ð° ÑĤÐµÐ»ÑĮÐ½Ð¾
ĠÑģÑĤÐ°Ð» ÐºÐ¸
ĠÐ¾ÑĤ ÑĢÑıÐ´
ĠÐ¿Ð¾ ÑĤÐµÑĢÐ¸
ĠÐ´ Ð¾Ð³Ð°
Ð¸Ð½ ÐºÑĥ
ÑģÑĤ Ð½Ð¾Ðµ
ĠÑĩÑĥÐ´ Ð¾
ĠG e
ÑħÐ¾ÑĤ Ð²Ð¾ÑĢ
" <|
ĠÐ¾ÑģÑĤÐ°Ð² Ð°Ð»Ð¾ÑģÑĮ
ĠÐ¿ÑĢÐ¾ ÑĤÐ¾Ðº
ĠÐ¿ÑĢÐµÐ´ÐµÐ»Ð° Ñħ
Ð¾Ð»ÑĮ Ð½ÑĭÐ¹
ĠÐ¡Ð¾ ÑİÐ·
ĠÑĢÐµÐ¼Ð¾Ð½ ÑĤÐ°
ĠÐ¿Ð° ÑĢÐ¾
ĠÐ¿ÑĢÐµÐ´ÑģÑĤÐ°Ð² Ð»ÐµÐ½Ð¸Ðµ
Ð¾ÑĤ Ñı
ĠÐ¿Ð¾Ð· Ð¸ÑĤÐ¸Ð²
E N
ĠP res
ĠÐ¿Ð°Ðº ÐµÑĤ
Ð¿Ð¸ Ð¸
ĠÐ²Ð°ÑĢÐ¸Ð°Ð½ ÑĤÐ¾Ð²
Ġv iew
Ð´ Ñİ
ĠÐ¡ Ð°ÑĢÐ°
ĠÐ´ÐµÐ² ÑĩÐ¾Ð½
ĠÐ¾ÑģÑĤ Ð°Ð»ÑĮÐ½Ð¾Ðµ
ĠÐł Ð°Ð¹
ĠÐĴ Ð°Ð¼Ð¸
ĠÐ±Ð»Ð° Ð³Ð¾ÑĢÐ¾Ð´
ĠÐ¿ÑĢÐ¸ ÐµÑħÐ°Ð»
ĠÐ¿ÑĢÐ¸ Ð·Ñĭ
Ġev ent
ĠÑģÐ¾ÑģÑĤÐ¾ Ð¸ÑĤÑģÑı
ĠÑģÑĤÐ° Ð´Ð¸
Ð½Ð¸ Ð²ÐµÑĢÑģ
ĠÐ¸ÑģÐºÐ»ÑİÑĩ ÐµÐ½Ð¸ÐµÐ¼
ĠA c
ĠÐĴÐ¼Ðµ ÑģÑĤÐµ
Ð¾Ð³ÑĢÐ°ÑĦ Ð¸Ñı
Ġst ory
a ign
ÐµÐ´ Ðµ
Ð± ÑĢÐ¸
... âľĤ
Ñĥ ÑĢÐ¾
ÑĢÐ¾Ñģ Ð¾Ð²
Ð±Ð° Ð¼Ð¸
Ð¡ ÐµÑĢ
w h
Ð½Ð¾ ÑıÑĢ
ĠÐ¼Ð°Ð»ÐµÐ½ÑĮ ÐºÐ¸Ðµ
ĠÐ²Ð¾ ÑĪÐµÐ»
ub e
ac es
ĠÐļ Ð°Ð»
ĠÐºÐ¾Ð¼Ð°Ð½ Ð´Ñĥ
ĠÐ´Ð°Ð² Ð»ÐµÐ½Ð¸Ðµ
ĠÐ¿Ð¾Ð²ÐµÐ· Ð»Ð¾
ĠÐ¡Ð¸ ÑĢÐ¸Ð¸
ĠÐŁ Ð¾Ð»Ð¸
Ġmod el
ĠÐ³Ð¾Ð´ Ð¾Ð¼
ĠÐ°Ð½Ð°Ð»Ð¸ Ð·Ð°
ĠÑģÐºÐ° Ð¶ÐµÐ¼
Ġwith in
ĠEuro pe
y a
ĠÐ¾ÑĦÐ¸ÑĨÐ¸Ð°Ð»ÑĮ Ð½Ð¾
Ð° Ð½Ñĭ
Ġ0 9
ÐµÑĤ ÐºÐ¸
ĠÑģÑĥÑīÐµÑģÑĤÐ² Ð¾Ð²Ð°Ð½Ð¸Ñı
ĠÐľ Ð°Ð½
ÑĢÐ° Ð»Ð¸
ĠÑĥÑģÑĤ Ð°Ð»Ð¾
ĠÐ³Ð¾ ÑģÑĤ
ĠÐĲ Ñģ
ĠÐ»Ð¸ ÑĨÑĥ
ĠÐ¡ÑĤÐ¾ Ð¸ÑĤ
ĠÐ¿Ð¾Ð» Ð½Ð¾Ð³Ð¾
ÐºÑĥ Ñģ
ĠÐĿÐµ ÑģÐºÐ¾Ð»ÑĮÐºÐ¾
ĠÐ¿Ð¾Ñģ Ð¾Ð±
Ðŀ Ð¿
ĠÐ¶ÐµÐ½Ñī Ð¸Ð½Ðµ
ĠÑģÐ°Ð¹ ÑĤÐ¾Ð²
Ġstud y
ĠÐĲ Ð½Ð°
ĠÐ¿Ð¾Ð¿ ÑĢÐ¾ÑģÐ¸
ed er
Ġwor d
ÑİÑī ÐµÐ¼Ñĥ
b o
ĠÐ¸ ÑģÑĤÑĢÐµÐ±
Ð¸ÑĩÐµÑģÐº Ð¾Ð¹
ĠÐĺÐ½ÑĤÐµÑĢÐµÑģ Ð½Ð¾
Ð» Ð¾Ñģ
ĠÑĥÐ³ Ð»Ñĥ
Ð» Ð¾Ð³
ĠÐļ ÑĥÐ´Ð°
ÐµÑģ Ð¾
ĠÐ³Ð»Ð° Ð´
ĠÑĤÐ°Ðº ÑģÐ¸
ĠÐºÐ»Ð°Ð´ Ð±Ð¸
ĠÐ¿Ð¾Ñħ ÑĥÐ´
ÐµÐ½ ÐºÐ°
Ġbec ame
ĠÐłÐ° Ð±Ð¾ÑĤ
ĠÐ¿Ð¾ÑĤÐµÐ½ ÑĨÐ¸
ĠÐ¾Ð± Ð¸Ð´
ot o
Ġinte rest
ĠÑģÐ¾ ÑĨÐ¸
Ġsuc cess
ĠÐ¾ÑĤÐ¿Ñĥ ÑģÐº
Ð¾Ð² Ð°Ð»Ð¾ÑģÑĮ
ĠÐ´ÐµÑĢÐµÐ² Ð½Ðµ
ĠÐ¾ÑĤ Ð²ÑĢÐ°
ĠÐ¿Ð¾Ð´Ð¾Ð± Ð½Ð¾Ð³Ð¾
Ð½Ð° Ð¿ÑĢÐ¸Ð¼ÐµÑĢ
Ðµ Ð¶Ð¸
Ð´Ð¸ ÑĤÑĮÑģÑı
ĠÐ°ÑĢ ÑĤÐ¸Ð»Ð»Ðµ
ĠÑĢÐ°Ð·Ð¼Ðµ ÑĢÐ°
ĠÐ¾Ð¿Ð»Ð° ÑĤÑĭ
ĠÐ¾Ð´ Ð½Ð¾Ðº
ĠÐ¿ÑĢÑıÐ¼ Ð¾Ð¹
ĠÑģÑĥÑīÐµ ÑģÑĤÐ²ÐµÐ½Ð½Ð¾
ĠÐ²Ð¸ ÑĢÑĤÑĥ
ĠÐ±ÑĥÐ´ ÑĥÑĩÐ¸
ĠÐ´ÐµÐ²ÑĥÑĪ ÐµÐº
ĠÐ¥ ÑĢÐ¸ÑģÑĤÐ°
ĠÐµ Ð´Ñĭ
ĠÐ¸Ð·Ð¾Ð± ÑĢÐ°Ð¶ÐµÐ½Ð¸Ñı
ĠÑģÑĩÐ¸ÑĤ Ð°Ð»
ĠÐ¸Ð¼ ÐµÐ»Ð°
ĠÐ¡Ñĥ ÑīÐµ
ĠÐ» Ð¸Ñħ
6 8
Ð»Ñı ÐµÐ¼
ÐµÑĢÐµ ÑĤÑĮ
ĠÐ²ÑħÐ¾Ð´ Ð°
ĠM an
ĠÐ¿Ð¾Ð¿ÑĭÑĤ Ð°Ð»ÑģÑı
ĠÑģÐ¿ Ð¸ÑĢ
ĠÐļ Ð¾ÑĢÐ¾
ÑĩÐ¸ ÑģÐ»Ð¸
Ð±Ð¸ÑĢÐ° ÑĤÑĮ
Ð²Ñĭ ÑĪÐµ
ra w
Ð¶ Ð½Ð°Ñı
ÑĢÐ¸ ÑĤÑĮÑģÑı
Ð¾Ðº Ð¾Ð¼
ÑģÑĤÑĭ Ð¼Ð¸
ĠÐ° ÑĦ
tern et
Ð»ÐµÐ½ Ð½ÑĥÑİ
Ð±ÑĢÐ° ÑģÑĭ
ĠÐ¿Ð¾Ð»Ð¸ÑĤÐ¸ÑĩÐµÑģÐº Ð¾Ð¹
ĠÐ¡ ÑĤÐµÐ¿
" ...
ÐĶ ÐµÐ²
ĠÐ·Ð°Ð½Ñı ÑĤÐ¸Ð¹
ĠÑį Ð¼
Ð¾Ð² Ðµ
Ñĩ ÐºÐ°Ð¼Ð¸
Ð¾ÑĢ Ð³Ð°Ð½Ð¸
ĠÐ¢ ÐµÐ»Ðµ
ÑģÑĤ Ð¾ÐºÐ°
ĠÑģÑĤÐ°Ð½ ÑĥÑĤ
ra ft
Ġk ill
ĠÐĺÑĤÐ°Ð»Ð¸ Ð¸
Ñħ Ð¾Ð·ÑıÐ¹
ĠÐ²Ð¾ Ð¾Ð±
ĠÐ½ÐµÐ¸Ð· Ð±ÐµÐ¶
ĠÐĺ ÑģÐº
ĠÑĩÐµÑĢ Ð½ÑĭÐ¹
ÑĩÐ° Ñħ
ĠÐ¸Ð½Ð¶ÐµÐ½ ÐµÑĢ
ĠÐ´ Ð¾Ð·
ĠÑģÐ¼ Ð¾Ð³Ñĥ
ĠÐ´Ð° Ð¹
l er
Ġal ways
ÐµÑĤ Ð½Ð¾
ĠÑĢÐ°Ð·Ð´ÐµÐ» Ðµ
ĠÑģÐ¾ÑĨÐ¸Ð°Ð»ÑĮ Ð½Ð¾
ĠÑģÐ¾Ð¾ÑĤÐ²ÐµÑĤ ÑģÑĤÐ²ÑĥÐµÑĤ
ĠÐ¾ÑĤ ÑĢÐ°Ð¶
ĠÐ® ÑĢÐ¸Ð¹
ĠÑĢÐ°ÑģÑĤ ÐµÐ½Ð¸Ñı
ĠÐķ ÑīÑĳ
Ġen g
ĠÑĢÐ°Ð· Ð²Ð»Ðµ
ĠÑĤÐµÐ¼ Ð¸
ĠÐ¿Ð¾Ð»ÑĥÑĩÐ° ÑİÑĤ
ÐºÐ° Ñģ
ĠÐ¼Ð¸Ð½ ÐµÑĢÐ°
ĠÐ¿Ð¾Ð¿ Ð°Ð´
ĠÐ²Ñĭ ÑĢÐ°Ð¶ÐµÐ½Ð¸Ðµ
ĠÐ²Ð¾ ÑĪÐ»Ð¸
ĠÐ¼ÑĥÐ·Ñĭ ÐºÐ°Ð½
ĠÑĤÐµÑħÐ½ Ð¾Ð»Ð¾Ð³Ð¸Ñı
ĠÐ¸Ð¼Ð¿Ðµ ÑĢÐ¸Ð¸
Ð³ ÑĢÑĭ
ĠÑĢÐ°ÑģÑħÐ¾Ð´ Ñĭ
Ð½ ÑĳÐ¼
Ðĵ Ð¾Ñģ
ĠÐ²Ð¾Ð¿ÑĢÐ¾Ñģ Ð¾Ð¼
ĠÐĿÐ° Ð¿
ĠÑģÑĥÐ´ Ñı
ĠÑģÑĤÐ¾Ð» Ðº
ĠÐŃ Ð»
ĠÐ¿ÑĢÐµ Ð¾Ð±ÑĢÐ°Ð·
ĠM e
Ð»Ð° ÑģÑĤÐ¸
ĠÑĢÐ¸ Ð¼
ÐŃ Ð¡
ĠÐ² ÑģÑĤÐ°Ð²
Ð¿Ð° Ð¼Ð¸
ĠÐ²Ñĭ Ðº
Ð´Ð¸ Ð²
ĠÐ²Ð¾Ð·Ð´ÐµÐ¹ÑģÑĤÐ² Ð¸Ñı
Ġl ist
Ġpol ice
ĠÑĦÑĥÐ½Ðº ÑĨÐ¸Ð¾Ð½Ð¸
Ñĥ Ð¼Ð¸
ĠÐ²ÐµÑĢ ÑģÐ¸Ñı
" ),
ĠÑģÐº Ð»Ð¾
er gy
ĠÐ´ÐµÑģÑıÑĤÐ¸ Ð»ÐµÑĤ
ĠÐº ÑĢÐ¾Ð²Ð°ÑĤÑĮ
ĠÐļÐ¸ ÑĢÐ¸Ð»
a f
Ð¾Ð¹ Ð´ÑĥÑĤ
ĠÐ½Ð°Ð´Ðµ ÑİÑģÑĮ
ĠÑģÐ²ÑıÐ·Ð°Ð½ Ð½ÑĭÐµ
ĠÑħÐ°ÑĢÐ°ÐºÑĤÐµÑĢÐ¸ ÑģÑĤÐ¸ÐºÐ¸
re w
ĠÑĥ Ð²Ð»Ðµ
ĠÑģ ÑĩÐµÑĤÐ°
ĠÑģÐ¸Ð»Ð° Ð¼Ð¸
Ġd ays
ĠÐ¸Ð¼ÐµÐ½ ÐµÐ¼
Ð¢ Ð¡
Ñĳ ÑĪÑĮ
ĠÑģÐ² Ð¸Ð½
ĠÐ½Ð° ÑĢÑı
ĠÑįÐº ÑģÑĤ
ĠÐ´Ð¸Ð·Ð°Ð¹ Ð½ÐµÑĢ
ĠÐ´ÑĢÐ° Ð³Ð¾
ĠÑĤÐ¾ ÑĩÐºÑĥ
ĠÑĨ ÐµÑĢÐµÐ¼Ð¾
ĠÐ²Ð¾Ð¿ÑĢÐ¾Ñģ Ñĥ
ĠÑĤÐµÐ¼Ð¿ÐµÑĢÐ° ÑĤÑĥÑĢÑĭ
ĠÐ·Ð°Ð¼ÐµÑĤ Ð¸ÑĤÑĮ
ĠÐ¿Ð¾ÐºÑĥÐ¿ ÐºÐ¸
ĠÐºÐ²Ð°ÑĢÑĤÐ¸ ÑĢ
ĠÐ¿ÐµÑĢÐµ Ð´Ð°ÐµÑĤ
ĠÐ»ÐµÐ¹ ÑĤÐµÐ½
ÑģÑĤÐ¸ ÑĩÐµÑģÐºÐ¾Ð¹
ĠÐºÑĢÐ° Ñİ
ĠÐ´Ð² ÐµÐ½Ð°
ĠÐļ Ð°Ð½
Ð¾Ðº ÑĥÐ¿
ÑĥÑİÑī Ð°Ñı
uc k
ĠÑĤÐ¾Ñĩ Ð½ÐµÐµ
ĠÐ± Ð°Ð½Ð´
ĠÐºÐ¾Ñģ Ð¼Ð¾Ñģ
ÑģÐ¾ÑĨÐ¸Ð° ÑĨÐ¸Ð¸
ĠÐ¾ÑĤÐ²ÐµÑĢ ÑģÑĤÐ¸
6 9
Ġ ÑĢÐ¸ÑĤ
ĠÐľ Ð°Ð³
ĠÐ¾ÑĤ ÑģÑĤÐ°Ð²
ĠÑĥÑĩÐ°ÑģÑĤ Ð½Ð¸ÐºÐ¸
ĠÐ¸Ð½ÑĦ ÐµÐº
Ġf ore
ĠÐ± Ð¸ÑĢ
Ñī ÐµÐ½Ð½ÑĭÐ¹
ĠÐ¿Ð¾ÑıÐ² Ð¸ÑĤÑģÑı
m ost
ĠĠĠĠĠĠĠĠ ĠĠĠ
Ġ ru
Ġser ies
ĠÐĺÐ²Ð°Ð½Ð¾Ð² Ð¸Ñĩ
ÑģÑĤÐµ ÑģÑĤÐ²ÐµÐ½Ð½Ð¾
Ġ3 3
Ð¾Ð± Ð°
Ġb as
ĠÑĤÐµ Ð¾ÑĢÐµ
Ð¾Ð» Ð°Ð´
ĠÐ¡ Ð²Ñı
ĠÐ¸Ð½ÑģÑĤÑĢÑĥ Ð¼ÐµÐ½ÑĤ
Ð¿ ÐµÐ½
Ð´Ð° Ð²Ð½Ð¾
ĠÐĵ Ð¾Ð´
ĠÑģÐº Ð¾Ð»ÑĮÐ·
Ðķ Ðľ
Ð¾Ð»ÑĮ Ð½ÑĭÑħ
Ð²Ð¾ ÑĢÐ¾ÑĤ
ĠÐ¿Ð¾Ð´Ð¾Ð± Ð½Ð¾Ðµ
ĠÐ¿ÐµÑĢÐµ Ð´Ð°ÑĤÑĮ
ÑģÑĤÐ°Ð½ Ðµ
ĠÑģÐ» ÐµÐ¿
ĠÐ·Ð°ÑıÐ² Ð»ÐµÐ½Ð¸Ñı
ÑĪ Ð¸ÑĤ
ÑĢÐ°Ð¶ Ð´Ð°Ð½
Ġab le
ÑīÐ° Ð¼Ð¸
ĠÑĥ Ð³Ð°
ĠÐ²Ð°ÑĪ Ð¸Ð¼
ĠÐ¾Ð¿Ð°Ñģ Ð½Ð¾ÑģÑĤÐ¸
ĠÑĤ ÑĢÐ¾Ðµ
ĠÐ´Ð¾Ð¼Ð°ÑĪ Ð½Ð¸Ñħ
ĠÐ¾ ÑģÐº
ĠÐľ Ð¸Ð»
ĠÐ·Ð°Ð¼ Ð¾Ðº
ĠÐ²Ðµ Ð¶
u a
ĠÑĥ ÐºÑĢÑĭ
Ġof ten
if y
Ñĩ Ð¸Ð»Ð¾ÑģÑĮ
ÑĢÐ¾Ñģ Ð»Ð°Ð²
ĠÐļ Ð°Ð²
ĠÐ½Ð°ÑģÐµÐ» ÐµÐ½Ð¸Ðµ
Ð´ Ð¸Ð¹
Ġal ready
ĠÐ¶Ð¸Ð² Ð¾Ð¹
Ð¾Ð» ÐµÐ¼
ĠÐ¯Ð¿Ð¾ Ð½Ð¸Ð¸
Ġth ough
201 1
ĠÑĦÐ¸Ð»ÑĮ Ð¼Ðµ
Ð°Ð» ÐºÐ¸
ĠÐ¸Ð· Ð²Ð¸
Ð¿Ð°ÑĢ ÑĤÐ°
ĠÐ¸Ð· Ð´Ð°Ð½Ð¸Ñı
ĠÐ¾ÑģÑĤÐ° Ð²Ð°ÑĤÑĮÑģÑı
ĠÑĥÐ¶ Ð¸Ð½
ĠÐĲÐ½Ð³Ð»Ð¸ Ð¸
ĠÐĶ Ðŀ
ĠÐ¿Ð¸ ÑīÐ¸
ÐµÐ² ÑĭÐµ
ĠÐºÐ¾ÑĢ Ð¾Ð»Ñı
ĠÐ¸Ð½ÑģÑĤÐ¸ÑĤÑĥ ÑĤÐ°
duc ed
ĠÑįÐºÑģÐ¿ ÐµÐ´Ð¸
Ð½Ð¸ ÑĪÑĮ
ĠÐ¾ÑĤÐ²Ðµ ÑĩÐ°ÑĤÑĮ
ĠÐ² ÐµÐ½ÑĤÐ¸
ÐĶ Ðµ
Ð¾Ð»ÑĮ Ð½Ð¾Ð¹
ĠÐ¸Ð½Ð¸ ÑĨÐ¸Ð°
Ñī ÐµÐ½Ð¸Ñİ
ĠÑģÑĥÐ¼ Ð¼Ñĭ
ĠÐ´ÑĥÑĪÐµ Ð²
ĠÐ§ ÐµÑħ
ĠB rit
Ġdid n
ÐµÐ½ Ð½Ð¾Ð¼Ñĥ
Ð¿ ÐµÐ»
ĠÐļ Ð¾Ñģ
ĠÐ°Ð´Ð° Ð¿
ĠÐ¿ÑĢÐ¾Ðº Ð»Ñı
ĠÐ¾Ð±Ñĭ ÐºÐ½Ð¾Ð²
ĠÑģÑĤÑĢÐ° ÑħÐ¾Ð²
ĠÐ²Ð¸Ð´ Ð¸ÑĤÐµ
Ð²Ð¸ Ð»Ð¸ÑģÑĮ
it her
ĠÐĶ Ð¾Ð½ÐµÑĨ
ĠÑĥÑĩÐ°ÑģÑĤ ÐºÐ°
Ð¾ÑĤ Ð²Ð¾ÑĢ
ÑĦÐ¾ÑĢ Ð¼Ñĭ
ĠÑĢÐµÐ¶Ð¸Ð¼ Ð°
Ġf ull
ĠÑĥÐ»ÑĭÐ± ÐºÐ¾Ð¹
ĠÐĵ Ð»Ð°
ÑģÑĤ Ð½ÑĭÐ¼
ĠÐ²Ð¾Ð´ Ð¸ÑĤÐµÐ»ÑĮ
ĠM in
ĠÐ¾Ð± ÑģÐ»ÐµÐ´
ĠÐ½Ð°ÑĨÐ¸Ð¾Ð½ Ð°Ð»ÑĮÐ½Ð¾Ð¹
ĠÐ¿ÑĢÐ¸ Ð¹ÑĤÐ¸
ÑģÑĤ ÐºÐ°
Ġcl aim
er y
ĠÐºÐ°Ð¶Ð´ Ð¾Ðµ
ĠÐ¶ Ð´Ð°Ð»
ĠÑĥÑĩ ÐµÑĤÐ°
ĠÐ¿ÑĢÐ¸ÑģÐ¾ ÐµÐ´Ð¸
re et
ÑĢ Ñħ
ĠÑģÑĤÐ°ÑĢ ÑĪÐµ
ĠÐ°ÐºÐºÑĥ ÑĢÐ°ÑĤÐ½Ð¾
ĠÐµÐ¶ÐµÐ´ Ð½ÐµÐ²Ð½Ð¾
n a
ĠÑĢÐµ ÐºÐ¾Ð½
ĠÑģÐ¿ÐµÑĨÐ¸Ð°Ð»ÑĮ Ð½ÑĭÐµ
Ñħ Ð¸ÑĤ
ĠÑĢÐµÐ±ÐµÐ½ ÐºÑĥ
ĠÑģÐµÑĢ ÑĤÐ¸ÑĦÐ¸ÐºÐ°
ĠÐºÐ¾Ð½ ÑĦÐ¸
ĠÐ²ÐµÐ» Ð¾ÑģÐ¸Ð¿
ĠÐĴÐ° ÑĪÐ¸
Ð·ÑĭÐ²Ð° ÑİÑĤÑģÑı
8 3
ĠÑįÐ½ÐµÑĢÐ³ ÐµÑĤÐ¸ÑĩÐµÑģÐº
e red
ĠÐ¥ Ð°ÑĢ
Ġm oney
ĠÐ¿ Ð¾Ð³Ð¾
P h
Ġth ought
ĠÐ¢Ð°Ðº Ð°Ñı
ĠÐĿÐ° Ð¿Ð¾Ð¼
Ð½Ðµ Ðº
R e
ĠÐ½Ð¾ÑĥÑĤ Ð±Ñĥ
Ðĳ ÐµÐ·
ĠÐ¿Ð¾Ð½Ñı Ð»Ð¸
ward s
Ð¾Ð» ÐµÐ½
ĠÑĢÑĥÑģ ÑģÐºÐ¾Ð¼
ĠÐ²ÐµÑĢ ÑĤÐ¸Ðº
Ð´Ð¾Ð² Ð°Ð»
ĠÐ½ÐµÐ²ÐµÑĢÐ¾ ÑıÑĤ
Ġde b
ĠÐ´Ð² Ð¸Ð½Ñĥ
al es
ÑĢÐ¾Ð¼ Ð°
ĠÑĨ ÐµÐ½Ð¸
ĠÑģÐ°Ð¼Ð¸ Ñħ
ÑĢÐ¸ ÐºÐµ
Ð³ Ð°Ð¼
Ð¢ Ð¾Ð³Ð´Ð°
or ies
ĠÐŁ ÐµÐ½
ĠÐ¾Ð±ÑģÐ»ÑĥÐ¶Ð¸ Ð²Ð°Ð½Ð¸Ñı
ĠÐ¾ÑģÑĤ Ð¾ÑĢÐ¾Ð¶
ĠÐ¾Ð±ÑıÐ·Ð°Ð½ Ð½Ð¾ÑģÑĤÐ¸
ÐłÐ¾ÑģÑģÐ¸ Ñı
ĠÑĢÐ°Ð·ÑĢÐ°Ð±Ð¾ÑĤ ÐºÐ¸
ĠÐ²Ð¸Ð· Ñĥ
ĠÐ²Ð¾ ÐµÐ½Ð½Ð¾Ð³Ð¾
ĠÑģÐµÑĢÐµ Ð±ÑĢÑı
Ðľ Ð¡
Ð¾ ÑħÑĢÐ°
' re
ĠÐ°Ð¿ Ð¿Ð°ÑĢÐ°ÑĤ
ĠÐ¿ÑĢÐµÐ´Ð¿ÑĢÐ¸Ð½Ð¸Ð¼Ð° ÑĤÐµÐ»ÑĮ
Ñī ÐµÐ½Ð½ÑĭÐµ
ĠÐ¼Ð°Ð»ÐµÐ½ÑĮ ÐºÐ°Ñı
ĠÑģÐ¾Ð·Ð´Ð° Ð½Ð¸Ð¸
ĠÐ¿ÑĢÐ¾ÐµÐº ÑĤÐ¸
Ð·Ð¸ Ð½Ð°
Ð·Ð° Ð´Ð¸
ÑģÑĤÑĢÐ° Ñħ
ĠN ational
ĠÐ¾Ð³ Ð½Ðµ
ĠÐ¶ Ð°Ð»ÑĮ
ĠÐ¿ÑĢÐ¾Ð² ÐµÐ»Ð¸
Ñĥ Ð»Ð°
ÑİÑī ÐµÐ¼
ĠÐ¡ Ð»Ð¾Ð²
ĠÐ±Ð°ÑģÑģ ÐµÐ¹
ĠÑĥÑĩÐ¸ÑĤ ÐµÐ»Ñı
ĠÐ¿ÑĢÐµ Ñģ
Ð¼ÐµÐ½ ÑĤÐµ
ĠÐ¼ÐµÐ½ Ñİ
ĠÑģÑĤÐ° ÑĤÐµÐ¹
ĠÑįÑĤÐ° Ð¿
ĠÐ¿ÑĢÐ¸Ð½Ð¸Ð¼Ð° ÐµÑĤ
ÑĤÑĮ Ñı
ĠÐ¿ÑĢÐ¾ÑĤÑı Ð½ÑĥÐ»
ĠS o
ĠÐ½Ð° Ð´ÐµÐ»
ĠÑģÐ¿ÐµÑĨÐ¸ ÑĦÐ¸
ĠÐļ Ð¸ÑĤÐ°
Ð¶Ð° Ð²
ĠÐ±Ñĭ Ð²ÑĪÐµÐ³Ð¾
B C
ĠÐ¿ ÑĥÐ»ÑĮ
ÑĢÐ° Ð´
ĠÐ¾Ð±ÑĬÐµÐº ÑĤ
ir l
ÑĦ Ð°Ð»ÑĮ
ÐµÐº ÑģÐ¸
Ñĩ Ð½Ðµ
ĠÐ¾ÑĤÐ»Ð¸ ÑĩÐ°ÑİÑĤÑģÑı
ĠÐ¼ÑĥÐ·Ñĭ ÐºÐ¸
Ġl ate
ĠÐ¸Ð½Ð¸ÑĨÐ¸ Ð°ÑĤÐ¸
Ð»Ð¸ Ð·Ð°
Ġt ell
U S
Ð§ Ð°
i ol
ĠÑģÑĤÐ¾Ð»Ð¸ ÑĨÑĭ
Ġle ast
ĠÐ¿ÑĢÐ¾ÑħÐ¾Ð´ ÑıÑĤ
ĠÐ¿Ð¾Ñģ Ð¾Ð²ÐµÑĤ
ĠÐ¿Ð¾Ð¿ ÑĭÑĤÐ°
ĠÐ·Ð´ÑĢÐ° Ð²Ð¾
ĠÑħÑĢÐ°Ð½ ÐµÐ½Ð¸Ñı
ĠÐ·Ð°ÐºÐ° Ð·Ð°ÑĤÑĮ
ĠÑģ ÑĢÐ°Ð¶
ĠÐ² Ð¸Ð½Ð¾Ð²
Ð´ ÑĳÑĤ
ĠÐºÐ°ÑĢÑĤÐ¸ Ð½Ñĥ
Ð¸ ÑĨÑĭ
ĠÑĢÐµ ÑĪÐ°
Ġpro per
ĠÑģÑĤÑĢÐ¾ Ð¸ÑĤÑĮ
Ġpres ident
ĠÐ¿Ð¾Ð» Ð½ÑĥÑİ
Ð·Ð¸ Ñİ
Ġare a
ĠÐ·Ð° Ð´ÑĥÐ¼Ñĭ
ĠÑıÐ¹ ÑĨÐ°
ĠÑĢÐ°Ñģ ÑģÐµ
ĠÐ´ Ð¾Ð½
Ġde v
ĠÐ¿ÑĢÐ¾Ð²ÐµÐ´ ÐµÐ½Ð¸Ðµ
ĠÐ¿ ÐµÐ¹
ÑĤÐµÐ»ÑĮ Ð½Ð¾ÑģÑĤÑĮ
Ġc ost
ĠÐ»ÐµÐ¶ Ð°Ð»
ĠÐ·Ð° ÑĩÐ°ÑģÑĤÑĥÑİ
ak en
Ġw ent
Ðĳ ÑĥÐ´
ĠÑģÐº Ð»Ð°
Ġsh ort
ĠÐ¾ÑĤ Ð´Ð°ÑĤÑĮ
ab ility
ĠÐ¿ÑĢÐ¸Ð¼ÐµÐ½ ÐµÐ½Ð¸Ðµ
ĠÐ±Ð¸Ð±Ð»Ð¸ Ð¾ÑĤ
ĠÐĳ ÐµÐ½
ĠÐ·Ð² ÐµÐ·Ð´Ñĭ
ĠÐ²Ðµ ÑĩÐ½Ð¾
ĠÐ¿ÑĢÐ¾ ÑĪÐµÐ¿
Ġt imes
7 9
ĠP ar
ĠÑĨÐµÐ½ Ñĥ
Ð°Ð»Ð¸Ð· Ð¼
ĠCh rist
ĠÐ¿Ð¾Ð² ÐµÑĢÐ¸
Ġrep res
Ð½ Ð³
5 00
ÑģÐ» Ð¾Ð¼
ĠÐĳÑĭ Ð»
ÑĥÐ´ Ð¾Ð²
ĠÐ¥ ÑĢÐ¸ÑģÑĤ
Ġl im
Ð°ÑĢ Ñı
Ð¾Ñģ Ð¾Ð±Ñĭ
ĠÐ¿Ð¾Ð»Ð¸ÑĤ Ð¸ÐºÐ°
ĠÑĩ Ð»ÐµÐ½Ñĭ
anc es
o e
ĠÑı Ð³Ð¾Ð´
ĠÐ½Ð° ÑģÑĤÐ¾Ð¹
Ðĵ Ð°Ð·
ĠÐ´ÐµÑĤ ÑģÐºÐ¸Ñħ
Ð²Ð°ÐµÐ¼ ÑĭÑħ
Ġbe come
ĠÑĢÐ°ÑģÐ¿ Ð¾Ð»
Ġs it
ĠÐ²Ð´Ð¾Ñħ Ð½Ð¾Ð²
Ġn et
Ġw ater
Ġg ive
Ġme an
ĠÑĩÐµÐ»Ð¾Ð²Ðµ ÑĩÐµÑģÑĤÐ²Ð°
ĠÐ» ÑĳÐ³
ĠM us
ÑĤ ÐºÑĥ
Ġm ag
ĠÐ¶ÐµÑĢÑĤ Ð²
ĠÐºÑĢÐµÐ¿ ÐºÐ¾
Ð¼Ð° Ñı
ĠÐ²Ð· Ð¾ÑĢ
ĠÐŁ ÐłÐŀ
Ð½Ðµ ÑĪ
ĠÐ¸Ð¼ Ð¼Ñĥ
ĠÑĤÐ¾ÑĢÐ³Ð¾Ð² Ð»Ð¸
ĠÐļ ÑĢÐµ
ĠÑģÐ¸ Ð´ÐµÐ»Ð¸
ĠÐ¼ÐµÐ´ Ð²ÐµÐ´
ĠÐ¿Ð¾Ð± ÐµÑĢÐµÐ¶
ĠÐ§ ÐµÐ³Ð¾
Ð±Ð° Ñħ
ĠÐ¿ÑĢÐ¸ Ð¿
ĠÑħÐ²Ð°ÑĤ Ð°Ð»Ð¾
ÑĪÐµÐ½ Ð¾
ĠÐ¼ÐµÑģÑĤ Ð½ÑĭÐµ
ĠÑĥÐ¿ Ð¾Ð¼Ñı
ĠXI X
ĠÐĿÐµ Ð¾Ð±ÑħÐ¾Ð´
7 4
ĠÐŃ Ð´
ĠÐĵ Ð¾
Ð³ Ð½ÑĥÑĤÑĮ
Ð¸ÑĩÐµÑģÐº Ð¾Ð³Ð¾
Ðµ ÑĩÐ°
ĠÐºÑĢÐ°ÑģÐ¸ Ð²ÑĭÐµ
ĠÐ¸ ÑģÑĤÐ¸
ÑĥÑĪ ÐµÐº
t i
ĠÐ¾ÑĤÐºÑĢÑĭ ÑĤÐ¸Ñı
ÑĤ Ð½ÑĥÑİ
Ġcon d
ĠÐ¸Ð³ ÑĢÑĥÑĪ
c hed
108 1
Ðľ Ð¸
Ġf ive
ĠÐ¾Ð¿Ð¸ÑģÐ° Ð½Ð¸Ðµ
b ack
ÑĢÐ°Ð²Ð¸ Ð»Ð¸ÑģÑĮ
ĠÐ¿Ð¾ Ð¾Ð±Ðµ
ĠÐłÐ¾ÑģÑģÐ¸ ÐµÐ¹
ĠÐ±Ð¾ÐµÐ² ÑĭÑħ
ĠÐ¼Ð¸Ð½Ð¸ ÑģÑĤÑĢ
ĠÐĵ Ð¾Ð²Ð¾ÑĢ
ot s
ĠÐº Ð¾Ð·
ĠÐ¿Ð¾Ð½Ð¸Ð¼Ð° ÑİÑĤ
ĠÐºÑĥÑħ Ð½Ð¸
ĠÐ¼ Ñį
ĠÑģÑĤÐ° ÑĢÑĭÑħ
ĠÑĪ Ð»Ñı
ĠÐ¼Ð°Ñģ ÑģÑĭ
ĠÐ²ÑĤÐ¾ ÑĢÐ¾Ðµ
ĠÐ¿Ð¾Ð±ÐµÐ´ Ñĭ
ĠÐĳ ÐµÐ»Ð¾ÑĢÑĥÑģ
ĠÑģ Ð¼Ð¾ÑĤÑĢÐµÐ»Ð¸
ĠÑģÐ¾Ð²ÑĢÐµÐ¼ÐµÐ½ Ð½ÑĭÐµ
ĠÐĴ Ð¾Ð¹
ĠÐ¼Ð¾ ÑĤÐ¸Ð²Ð°
ĠÐ²Ðµ Ð±
ĠÐ½Ð°Ð¿Ð¾Ð¼Ð¸Ð½Ð° ÐµÑĤ
Ð´Ð° ÐµÐ¼
ĠÐ´Ð¸ Ðº
6 2
ÐµÐ² Ð¾Ð³Ð¾
ĠÐ¡ Ð¸Ð½
ĠÐ¿Ð¾ÑģÑĤ ÐµÐ»Ð¸
ĠÐ¼ ÐµÑĤÐ°
ĠÑĨ ÐµÐ½Ð½Ð¾
Ñĩ Ð¸Ð¼
ĠÑĦÐ¾ÑĤÐ¾Ð³ÑĢÐ°ÑĦ Ð¸Ñı
Ð¾ ÑĩÐµÐº
ĠÑĢÐ°ÑģÑģ Ð¼Ð¾ÑĤÑĢ
ĠÐ¾ÑĤÐ¿ÑĢÐ°Ð² Ð¸Ð»ÑģÑı
ĠÐ¾ ÑĦÐ¾ÑĢÐ¼Ð¸
ĠÑį Ð»ÑĮ
Ð¼ ÑĥÑİ
ĠÐ¾Ð±Ñī Ð¸Ð¹
Ð½Ð¾Ð² Ðµ
ĠÑįÐ¿ Ð¸Ð·
Ð¡ Ð¾Ð²
ĠÐ¼Ð¾ ÑĤÐ¾
Ñĩ Ð½Ð¸ÐºÐ°
ĠÐ¿ÑĢÐµÐ´ ÑģÑĤÐ¾Ð¸ÑĤ
ĠÐ· Ð´Ð°Ð½Ð¸Ð¹
ĠÐ¾Ð±ÑīÐµ ÑģÑĤÐ²ÐµÐ½Ð½Ð¾Ð³Ð¾
Ġstr ong
ĠÑģÐ¾Ð±ÑģÑĤÐ²ÐµÐ½ Ð½ÑĭÐµ
ĠÐ¿ÑĢÐ¾Ð¸Ð·Ð²ÐµÐ´ ÐµÐ½Ð¸Ñı
ĠÑĪ Ð°Ð³Ð°
) .<|
ĠÐ²ÑĭÐ± ÑĢÐ°Ð½
ĠÐ½Ð°ÑĢÐ¾Ð´ Ñĥ
8 4
Ð¾Ð³ Ð»Ð°
Ġ )))
ĠÐ¼Ñı ÑģÐ°
ÑĦ ÐµÐº
Ð¿ÑĢÐ¸ Ð·
Ðľ Ð°ÑĢ
ĠÐ¿ÑĢÐµÐ´Ð¼ÐµÑĤ Ñĭ
av a
re m
Ð¾Ð² Ð¾Ð¼
ĠÐ¿ÑĢÐ¾Ð´Ð° Ð¶Ðµ
Ġm aking
Ð¼Ð° Ð½Ñĭ
ol ution
ad a
Ġt alk
; .
ĠÐ¿ÑĢÐ¾ ÑģÐ¿ÐµÐº
ĠG u
ĠÑģÐ»ÐµÐ´ ÑĥÑİÑīÐµÐµ
Ð¾Ñĩ ÐµÑĤ
Ð¡ ÐĲ
ĠÐĵ Ð»Ð°Ð²Ð°
ĠÑģ Ð¼Ð°ÑĢÑĤ
Ġp ubl
ĠÑģÐ»ÐµÐ· Ñĭ
Ð²Ðµ Ð¶
ĠÐ½ÐµÐ± Ð¾Ð»ÑĮ
it ive
Ð¦ Ðĺ
ĠÑģ Ð´ÐµÑĢÐ¶
ĠÑģÑĤÐ°ÑĤÐ¸ ÑģÑĤÐ¸
Ðº ÐµÑĢ
Ð´Ð¸ Ð»Ð°
ĠE d
ĠÐŀÑĤÐµÑĩÐµ ÑģÑĤÐ²ÐµÐ½Ð½Ð¾Ð¹
ĠÐ²ÑħÐ¾Ð´ ÑıÑĤ
Ñĩ ÐµÑĤÐµ
ĠÑĢÐ° ÑģÑĤÑı
Ðļ Ð°ÑĢ
ĠÑģÐ¾Ð± Ð°ÐºÐ°
ĠÑģ ÑĩÐ°ÑģÑĤÑĮÑİ
ĠÑģÑĤÐ¾ ÑıÑĤÑĮ
ĠÑĢÐ¾ÑģÑģÐ¸Ð¹ ÑģÐºÐ¸Ð¹
il ar
Ġmem bers
ĠÐ³ Ð°Ð´
ĠÐ¦ ÐµÑĢÐºÐ²Ð¸
Ġ( Â«
ĠÐ´Ð° Ð²Ð°Ð¹ÑĤÐµ
ĠÐ¿ÑĢÐ¾Ð³ ÑĢÐµÑģ
ĠÑĩÐ¸ÑĤ Ð°Ð»
ĠÐł Ð¾Ð¶Ð´Ðµ
ĠÐ²Ð¾Ð· Ð²Ñĭ
ĠÐºÐ°Ð½ Ð°Ð»
ĠÑĤÐ° ÑĢÐµÐ»
ĠÐ²Ð½Ð¸Ð· Ñĥ
ĠÐ²Ð½ÑĥÑĤÑĢÐµÐ½ Ð½ÐµÐ¹
ĠÐ¿Ð° Ñĥ
ĠÐ°Ð²ÑĤÐ¾Ð¼Ð° ÑĤÐ¸ÑĩÐµÑģÐºÐ¸
ĠÐºÐ¾ÑĢ ÑĢÑĥÐ¿
ĠÑĩÑĥÐ´ Ð¾Ð²Ð¸
Ð¶ Ð°Ð»Ð°
ĠÑģÑĤÐ° Ð²Ð¸ÑĤÑĮ
ĠÑĥÐ²ÐµÑĢ ÐµÐ½Ñĭ
ĠÐ¿ÑĥÐ½Ðº ÑĤ
Ð¾Ñģ ÑģÐµ
ĠÐºÐ¾Ð» ÐµÐ½Ð¸
ÑģÐ° Ð¹
ĠÑĦÐ¾Ð½ Ð´Ð°
ÑĤ Ð²Ð¾ÑĢ
Ð¾Ð»ÑĮ Ð½ÑĭÐµ
ĠÑģÐµÐ¼ Ð¸
ĠÐºÐ¾Ð»Ð»ÐµÐº ÑĤÐ¸Ð²
Ġ2 50
ĠÐĿÐ¾Ð² Ð¾ÑģÐ¸Ð±Ð¸ÑĢ
ĠÐ»Ð¸Ð½ ÐµÐ¹
ĠÐºÑĢÑĥÐ¿ Ð½ÐµÐ¹
Ð± ÐµÐ´
Ð»ÑĮ Ð¿
Ð¾Ð¿ Ð¾Ð´
ĠÑĨÐ¸ ÑĢ
ĠÑĥ Ð²Ð»ÐµÐºÐ°
ĠÐ¸ÑģÐ¿ Ð°Ð½
ÑħÐ° ÑĢÐ°
Ġm ult
Ð° ÑĢÑĭ
y ear
Ð´ ÐµÐ½Ð°
ĠÐ¿Ð¾ÑĤÐµÑĢ ÑıÐ»
ĠÐŃÐº ÑģÐ¿
Ġchild ren
ĠÐ· Ð¾Ð½
Ð»Ð¾Ð¶ ÐµÐ½Ð¸Ñı
ĠÐ¿Ðµ Ñī
ĠÐ¸Ð½ÑĤÐµÑĢÐµÑģ Ð¾Ð²
ĠÐ¾ÑĤ Ð¾Ð·
Ġl ight
Ð°ÑĤ ÑģÑı
ĠÐ¸Ð½ÑĤÐµÑĢÐµÑģ Ð½ÑĭÐµ
Ð¸Ð½ ÑģÐºÐ¸Ð¹
Ġgiv en
Ð¶ ÐºÐ°
Ġth ing
Ð¸Ð» Ñĭ
am ed
ĠÑĥÐ´Ð° ÑģÑĤÑģÑı
u x
ÑīÐ¸Ñħ ÑģÑı
ĠÑģÑĤÑĢÐµ Ð»ÑĮ
ĠÐĶ Ð°ÑĢ
ĠÐ´Ð¾Ð» Ð³Ð¾Ð²
ĠÐ¼Ð¾ ÑģÐº
ĠÐ¾Ð¿Ñĭ ÑĤÐ¾Ð¼
Ġp ast
Ġfollow ing
ĠÑģÑĢÐµÐ´ Ð½ÐµÐ¹
ÐĿ Ðļ
ĠÐ¸ Ð´ÐµÐ½
Ġd et
ĠÑĤÑĢÑĥÐ± ÐºÑĥ
ĠÐ¼Ð°Ð¼ Ñĭ
Ġc lear
ĠÑĥ ÑĪÐ»Ð°
ore d
ĠÑģÐºÐ° ÑĩÐ°ÑĤÑĮ
ĠÐ¿ÑĢÐ¾ÑĤÐ¸Ð²Ð¾ ÑģÑĤÐ¾Ñı
Ð· Ð¸Ð¹
pl ay
ĠÐĲ Ð¼
ĠÐºÑĢÐ¸ ÑĤÐµÑĢÐ¸
ÑĢ Ð½ÑĭÑħ
ĠÐ²ÑĭÐ±Ð¸ÑĢÐ° ÑĤÑĮ
ĠÐ¿Ð¾ÑıÐ² Ð»ÐµÐ½Ð¸Ñı
ĠÐ¿Ð¾Ð¼Ðµ ÑīÐµÐ½Ð¸Ð¹
ĠP ol
ĠÐļÐ° ÑĢÐ°
ĠÐĶ ÐµÐ¼
ĠÐ½ Ð¾ÑĤ
Ġp ot
ÑĢÐ¾Ð² ÑĭÐµ
6 3
Ġhe alth
Ñĥ ÑīÐµÐ³Ð¾
ĠÐ½Ðµ Ð¾Ð¿
ĠÐ¿ÑĢÐ¾ÐµÐº ÑĤÑĭ
Ð¾Ð²Ð°ÑĤ ÐµÐ»Ð¸
ĠÐ¿ÑĭÑĤ Ð°Ð»Ð¸ÑģÑĮ
ĠÐ³ ÑĥÐ¼Ð°
ĠÐ°Ð²ÑĤÐ¾Ð¼ Ð°ÑĤÐ¸
Ðµ ÑģÐ°
ĠÐ¿Ð¾ÑıÐ² Ð¸Ð»Ð¾ÑģÑĮ
ĠÐ¿Ð¾Ð²ÐµÑĢ Ð½ÑĥÐ»ÑģÑı
ĠÐ°Ð²ÑĤÐ¾ Ð½Ð¾Ð¼
ĠÐ½Ð° Ð²ÐµÑĢÑħ
ĠÐŀ Ð±Ñı
ĠÐ½Ðµ ÑĢÐ°Ð·
ÑĢÐ¾ Ð½Ð°
ĠÐķÐºÐ°ÑĤÐµÑĢÐ¸ Ð½
ĠÐ¿ÑĢÐ¾Ð´ Ð°ÑĤÑĮ
ĠÐ¿Ð¾Ð» ÑĤÐ¾ÑĢÐ°
7 2
ĠÑĢÐµÐ±ÐµÐ½ ÐºÐ¾Ð¼
ĠÐ¼ÐµÐ¶Ð´ÑĥÐ½Ð°ÑĢÐ¾Ð´ Ð½ÑĭÑħ
ĠÐ½Ð¾Ñģ Ð¸ÑĤÑĮ
ĠÐ¿ÑĢÐ¾Ð¸Ð·Ð²Ð¾Ð´ Ð¸ÑĤÐµÐ»ÐµÐ¹
ĠÐ¿Ð¾ ÑĢÑĭ
ĠÑģÐ²Ð¾Ð± Ð¾Ð´Ñĥ
Ġsing le
ĠÐ²Ð¿ Ð¾Ñģ
ĠÐ±Ð¾ ÑİÑģÑĮ
ĠÐĿ Ðĺ
ĠÐº Ð»Ð¾
Ġam ong
Ð°ÑĤÐµÐ»ÑĮ Ð½ÑĭÑħ
ĠÐŁ ÑĢÐ¾Ñģ
ĠÐ´Ð¾Ð³ Ð°Ð´
ÑĥÐ¼ Ð°Ð»Ð¸
ĠM ic
ĠÐ¶ÐµÐ½ Ñĥ
ĠÐ¿Ð¾Ð·Ð´ Ð½ÐµÐµ
Ð¾Ñĩ Ð½Ð¾Ð³Ð¾
ĠÑĥÑģÐ¿ ÐµÐ»Ð¸
ĠÑħÑĢÐ° Ð¼Ð°
ĠÐ¼Ð¾ ÑģÑĤ
ĠÐ¿ Ð¸Ðº
ĠÐ·Ð° ÑģÑĤÑĭ
ĠÐĹÐµÐ¼ Ð»Ðµ
ĠÐķÐ²Ð³ ÐµÐ½Ð¸Ð¹
ĠÐ± ÑĢÐ°Ðº
ĠÐ¼Ð°Ñģ ÑģÑĥ
r ing
ĠÐ² Ñĥ
Ġj ob
ĠÐºÑĥ Ð·
ĠÐ¿ÑĢÐ¸Ð³Ð¾ÑĤÐ¾Ð² Ð¸ÑĤÑĮ
ĠÑģÐ²ÑıÐ·Ð°Ð½ Ð½ÑĭÑħ
Ġ0 8
Ġen ough
ĠÑģÑĤÐ° ÑĢÐ¾Ð¹
on es
ÑĤÐ¾Ñĩ ÐºÑĥ
ĠÐºÑĢÑĥÐ¿ Ð½ÑĭÐµ
iv ing
ÑĦ Ð¾Ð¼
ÐµÐ»Ñı Ð±Ð¸Ð½
Ð¾Ð´ Ð½Ð¾
Ðļ Ð¾
ÑģÑĤÐ²Ð° Ð¼Ð¸
Ġ201 9
Ð¾Ð¼ Ð½ÐµÐ½Ð½Ð¾
ĠÑģÐ¸ÑģÑĤÐµÐ¼ Ð¾Ð¹
Ñħ Ð¾Ð¶
ĠÐºÐ¾ Ð¾ÑĢÐ´Ð¸Ð½Ð°
ĠÐ¼ÐµÑĤ Ð¾Ð´Ð°
Ð²Ð¾ ÑĢÐ¾
ur g
Ð°Ð² Ð»Ð¸
Ð²Ð¾Ð· Ð¼Ð¾Ð¶
ÑĩÐµÐ½ Ð½Ð¾Ð³Ð¾
ĠÑĢÐ° ÑģÑĤÐ²Ð¾
Ġha ving
ĠÑģÐ¸Ð»ÑĮ Ð½ÑĭÐ¹
Ð¸Ð½ ÑģÐºÐ¾Ð³Ð¾
ĠÐ¿ÑĢÐ¸ÑĩÐ¸Ð½Ð° Ð¼
ĠÐ¼Ð°Ð»ÑĮ ÑĩÐ¸ÐºÐ°
ĠÐ´Ð¾Ð¿Ð¾Ð»Ð½Ð¸ÑĤÐµÐ»ÑĮ Ð½ÑĭÐµ
Ġs ide
ÑĩÐµÐ½ Ð½ÑĭÐ¼
ÐµÐ´ Ð¸Ñı
ĠÐ¼Ð½Ð¾Ð³ Ð¾Ðº
Ð¿Ð¸ ÑĪ
Ð¾Ð²Ð° ÑĤÐ¾
Ġe ver
ĠÐ¿Ð¸ÑĪ ÑĥÑĤ
ĠÐ²ÑĭÑģÐ¾Ðº Ð¸Ðµ
ĠO b
Ð¸Ð· Ð¼Ð°
ĠSt ate
ĠÐ½Ð°ÑĪ ÐµÐ¼Ñĥ
ĠÐ¸Ð· Ð»Ð¸
ĠÑıÐ·Ñĭ ÐºÐ¾Ð¼
Ð±ÐµÐ¶ Ð°Ð»
I T
ĠÐ·Ð´Ð¾ÑĢ Ð¾Ð²Ð¾
ĠÐ¾Ð±Ñī Ð°ÑĤÑĮÑģÑı
c ript
ĠÐ½Ð°Ð² ÑģÑĤÑĢÐµÑĩÑĥ
ĠÐ½Ð° Ð²Ðµ
Ġpolit ical
ÑĩÐ° ÑģÐ°
ĠÐ¼Ð¾Ð»Ð¾Ð´ ÑĭÐµ
Ġk ind
ĠÐ²Ð¿Ð¾Ñģ Ð»ÐµÐ´ÑģÑĤÐ²Ð¸Ð¸
ÑĢÐ° ÑģÐ¿
ĠÑĥÑģÑĤÐ°Ð½Ð¾Ð² Ð»ÐµÐ½
ÑĢÑı Ñħ
Ð¶Ð° Ñħ
ĠÑĩÑĥÐ²ÑģÑĤÐ² Ð¾Ð²Ð°ÑĤÑĮ
ĠÑįÐ»ÐµÐ¼ ÐµÐ½ÑĤÐ°
ĠÐµ Ð¼
ĠÐ¿Ð¾Ð»Ð¾Ð² Ð¸Ð½Ñĥ
ĠÑħÐ¾ ÑĤÐ¸Ð¼
ĠÐ¾Ð´ Ð½
ÐļÐ°Ðº Ð°Ñı
ĠÐ·Ð° ÑĢÑıÐ´
ĠA ust
ĠÐ½Ð°ÑħÐ¾Ð´ Ð¸Ð»Ð¸ÑģÑĮ
ĠÑģÑĤÐ° ÑĢÐ¾Ð³Ð¾
ĠÐ´ÐµÐ²ÑĥÑĪ ÐºÐµ
ĠÐĳÐ¾ÑĢÐ¸ Ñģ
ĠÑĢÐ°ÑģÑĤ ÐµÑĤ
ĠÐ¸Ð· Ð´Ð°
ÐĿÐ¸ ÑĩÐµÐ³Ð¾
ĠÐ¶Ð¸ Ð²ÑĭÑħ
ĠÐ¼Ð¾Ð¼ ÐµÐ½ÑĤÑĭ
ĠÐ½Ð°ÑģÑĤÐ¾Ñı ÑīÐµÐ³Ð¾
ĠÐ¿Ð¾ÑģÐµÑĤ Ð¸ÑĤÐµÐ»ÐµÐ¹
Ðļ ÑĢÐ°Ñģ
ĠÐ¾Ñģ Ð»Ð°Ð±
ĠÐ¿Ð¾Ð» ÑİÐ±
ĠÐ¸Ð·Ð´ÐµÐ» Ð¸Ð¹
ÑģÑĤ Ð¸Ð»ÑģÑı
ĠÐ´Ð² ÐµÑĢÐµÐ¹
ĠÐ¿ÑĭÑĤÐ° ÑİÑĤÑģÑı
ĠÑĥÑĩÐµÐ½ ÑĭÐµ
Ġ ))
ĠÐ¿ÑĢÐµ ÑĢ
ÑĨÐ¸Ð¾Ð½ Ð½ÑĭÐ¼
ĠÐ¾Ð±ÑĢÐ°Ð±Ð¾ÑĤ ÐºÐ¸
ĠÐ¿ÑĢÐ¾ÑĨ ÐµÐ½ÑĤ
ĠÐ· Ð¾Ð½Ðµ
ĠÐĳ Ð¾ÑĢ
Ðĳ Ð£
ĠÑģÑĢÐ¾Ðº Ð°
ĠÐ²Ð¾ ÐµÐ½Ð½ÑĭÐµ
Ð»Ñİ ÑģÑĮ
ĠÐ¿Ð° ÑĢÑĭ
Ġs k
ĠÐ² Ð¿ÑĢÐ°Ð²
ĠÐļÐ¾Ð½ÑģÑĤÐ°Ð½ ÑĤÐ¸Ð½
ÑĢÐµ Ð»ÑĮ
Ð°Ð» Ñı
Ġl ow
ut ure
ĠÐ´Ð²Ð¸Ð³Ð° ÑĤÐµÐ»Ñı
Ð³ ÑĢÐ¸
ĠÐ¿ÑĢÐ¾ ÑĩÐ¸Ðµ
ĠÐ¿Ð¾ÑıÐ²Ð»Ñı ÑİÑĤÑģÑı
Ð½Ð¸ Ñģ
ĠÑĢÐ°Ð·Ð¼ÐµÑĢ Ð¾Ð²
Ġcamp aign
ÑĢÐ°Ð±Ð¾ÑĤ Ð°ÑĤÑĮ
ĠÐºÐ¾Ð¼Ð¿Ð»ÐµÐº ÑĤ
ĠÐ¾Ð· ÐµÑĢÐ°
ĠÐļ Ð»Ð°
ĠÐĵÐ¾ÑģÐ¿Ð¾Ð´ ÑĮ
ÐŁÐ¾Ð´ ÑģÐºÐ°Ð¶Ð¸ÑĤÐµ
ĠÑĩÑĥÐ²ÑģÑĤÐ² ÑĥÑİ
ĠÐºÐ»Ð° Ð²Ð¸
ĠÐ²ÑĭÐ¿Ð¾Ð» Ð½Ð¸ÑĤÑĮ
ÑıÑī ÑĥÑİ
ĠÑįÐ¼Ð¾ ÑĨÐ¸Ð¸
ÐµÐ½ÑĮ ÐºÐ°Ñı
ĠÑĥÐ¼Ðµ ÐµÑĤ
ĠÐ½Ð°ÑħÐ¾Ð´ Ð¸ÑĤÑĮÑģÑı
Ġwh y
ĠÐ¸ÑģÑĤÐ¾Ñĩ Ð½Ð¸ÐºÐ¾Ð²
ĠÑĤÐ¾Ð²Ð°ÑĢÐ¸ Ñī
ĠÑĤÑĥ ÑĢÐ¸ÑģÑĤÐ¾Ð²
ÐµÑģ Ð½Ñı
ĠÑĥ Ð´ÐµÑĢÐ¶Ð¸
ĠÑĤÑĢÐµÐ± Ð¾Ð²Ð°Ð½Ð¸Ð¹
ĠÐ½ÐµÑģ ÐµÑĤ
ĠÐ·Ð°Ð½Ñı ÑĤÑĮÑģÑı
art ment
ĠÐ¿ÐµÑĢÐµ Ð±
ĠÑį Ð²
Ð½Ð¸Ñı Ð¼
ĠÐĿÐ° Ð´
ĠÑĢÐµÐºÐ¾Ð¼ÐµÐ½Ð´Ñĥ ÐµÑĤÑģÑı
ĠÑĢÐµÐ± ÑıÑĤ
Ġ7 5
ĠÐĽ Ð°Ð´Ð½Ð¾
ĠÐ¶ Ð¸Ð»Ð°
ĠÐ´ Ð¾Ð¶
ĠÐ³Ð¾ÑĤÐ¾Ð² Ð¸ÑĤÑĮ
ĠÐ²ÑģÑĤÑĢÐµ ÑĩÑĥ
ĠÐ´ÐµÐ»Ð° ÐµÑĤÑģÑı
ĠÑĤÐµ Ñģ
ĠÐĲÐ½ ÑĤÐ¾
ĠÑģÐ±Ð¾ÑĢ Ð½Ð¾Ð¹
Ġp riv
Ð¸ÑĤ ÐµÑĤÐµ
ĠÑĤÑĢÐµÐ½Ð¸ ÑĢÐ¾Ð²
Ðķ Ð²
ÑĦÐµÑģ ÑģÐ¸Ð¾Ð½
Ðµ ÑĢÐµÐ´
ĠÐºÐ½Ð¾Ð¿ ÐºÑĥ
ĠÐ³ Ð»Ð¸
ĠÐ¿Ð¾Ð± Ðµ
Ġm ass
ÐµÑĢÐµ Ð¼
ĠÐ¿ÑĢÐµÐ´ÑĥÑģ Ð¼Ð°ÑĤÑĢÐ¸
Ð¡ ÐŁ
ÑĢ Ð¾Ð¶Ð°
ĠÐ²Ð¾Ñģ Ð¿ÑĢÐ¾
Ġc rit
ĠÐĶ Ð°Ð»ÑĮ
ĠÐ±Ð° ÑĢÐ°
ĠO ne
Ã ©
ĠÐºÐ°ÑĢ ÑĤÐµ
ĠRep ublic
ÑĢÐ¾Ð² ÑĭÑħ
ĠÐ¼ÑĥÐ¶Ñĩ Ð¸Ð½Ñĥ
Ġgener al
ĠÐ¿ÑĢÐµÐ· ÐµÐ½ÑĤÐ°
Ð¾Ð»Ð¾Ð³Ð¸ ÑĩÐµÑģÐºÐ¸Ðµ
ĠÐ¸Ð· ÑĬ
ac ed
ur ther
9 3
ĠÐ² Ñı
ĠÑģÐ¸ Ð´ÐµÐ»Ð°
ĠÐ¿Ð°Ð»ÑĮ ÑĨÐµÐ¼
ĠÐ¿Ð¾Ð½Ñı ÑĤÐ¸Ðµ
ÑıÑīÐ¸Ñħ ÑģÑı
ĠÐ¿ÑĢÐ¸ Ð¼Ðµ
ĠÐ¿ÑĢÐ¾Ð´Ð¾Ð»Ð¶ Ð°ÑĤÑĮ
Ġ199 9
Ġf und
ĠÐľÐ¾ Ñı
ĠÐ·Ð°Ð± Ð»
Ð°Ð¹ÑĤÐµ ÑģÑĮ
Ð¼Ð¾ ÑģÐºÐ¾Ð²
ÑģÑĤÐ² ÑĥÑİÑīÐ¸Ñħ
ĠÐŁ ÑĢÐ¾Ðº
ĠÑģÐºÐ° Ð½
ĠÐºÐ¾Ð»Ð¸ ÑĩÐµÑģÑĤÐ²Ðµ
ĠÐ²ÑĭÐ· Ð²Ð°ÑĤÑĮ
ĠÑģ ÑĩÑĳÑĤ
Ð»Ñı Ñı
our s
ĠÐ½ÐµÐ»Ðµ Ð³
ĠÐ»Ð° ÑģÐº
ĠÐ¿Ð¾Ð±ÐµÐ´ Ñĥ
ĠÐ·Ð°Ðº Ð¾Ð½Ñĭ
ĠÐ¡Ð¸ Ð±Ð¸
ÑģÑĤ Ð¾Ð»ÐµÑĤ
ÑĢÐ¾Ð²Ð° Ñı
id ence
ĠÑģÐºÐ° Ð¶ÐµÑĤ
ĠÐºÐ¸ Ð¿
ĠÑħ ÑĢÑĥ
ĠÑģÐ»ÑĥÐ¶ Ð¸ÑĤÑĮ
in ation
ĠÐłÑĥ ÑģÐ¸
ĠÐ²Ð¾ÑģÐºÑĢÐµÑģ ÐµÐ½ÑĮÐµ
ÐĹ ÐĲ
ĠÐ½ÐµÐ¸Ð·Ð²ÐµÑģÑĤ Ð½Ð¾
Ġcont rol
Ð¾Ñĩ ÐºÐµ
ĠÐ¿Ð»Ð° Ð½ÐµÑĤ
n ews
ĠÐ¿Ð¾ ÑģÐ°
ĠÐŁÑĢÐ¸ Ð¼ÐµÑĢ
Ð± Ð»
ĠÑģÑĤÐµÐ½ Ñĥ
ĠÐ½ÐµÐ¾Ð´ Ð½Ð¾Ðº
9 4
ĠÑĢÐ°Ð±Ð¾ ÑĩÐµÐ³Ð¾
ĠÐ²ÐµÑĢ Ñİ
ĠÐļÐ¾Ð¼ Ð¿
ÑģÐ¿ Ðµ
ĠÐ¿ÑĢÐ¸ Ð¾ÑĢÐ¸ÑĤ
ĠÐ½ÐµÐ¿ ÑĢÐµÐ¼ÐµÐ½Ð½Ð¾
A L
Ġ3 8
Ñĩ ÐµÐ»
ĠÑĥÐ²Ð¸ Ð´ÐµÐ»Ð¸
ĠÐ± ÑĢÐ¾ÑģÐ°
ĠÑģÐ¾ÑģÑĢÐµÐ´ Ð¾ÑĤÐ¾
Ð§ ÑĤÐ¾Ð±Ñĭ
ĠÑĢÐ°ÑģÐ¿Ð¾Ð»Ð¾Ð¶ ÐµÐ½
ĠÐ¾Ð± Ð¾Ð¹ÑĤÐ¸
g o
Ð»Ðµ Ð³Ð°
ÑģÐµ Ð²
Ñī Ð°Ð»ÑģÑı
Ð¼Ð° ÑĤÑĮ
ĠÐ´ÐµÑĢÐµÐ² Ð½Ð¸
i pp
ĠÐ¼ÑĥÐ¶ ÐµÐ¼
Ð°Ð½ÑĮ ÑĪÐµ
ĠÐ¼ÑĥÑģ ÑĥÐ»ÑĮ
Ð¡ ÑĤÐ¾
ĠÐ²ÑĭÐ³Ð»Ñı Ð´ÐµÐ»
Ġwork ing
ĠÐ± Ð°ÑĤÐ°Ð»ÑĮ
ĠÐ½ÐµÐ´ÐµÐ» Ðµ
Ġt em
ĠÐ¾ÑĤ Ñģ
ÐĺÐ½ ÑĤÐµÑĢ
ĠÑģ Ð¼Ð¾ÑĤÑĢÑı
ĠÐ³ÐµÑĢ ÑĨ
Ġproble m
ĠÐ·Ð´ÑĢÐ°Ð²Ð¾ Ð¾ÑħÑĢÐ°Ð½
ĠÐºÑĥÐ¿ Ð¸Ð»
ĠÐŀÑĤÐµ ÑĨ
ĠÐ¿Ð¾Ð½Ð¸Ð¼Ð° ÐµÑĤÐµ
ÑĤÐ¾ ÑĩÐºÐ¸
ĠÐ¿ÑĢÐ¾ÑģÑĤ Ð¸ÑĤÑĥÑĤ
ĠÑģÑĤÑĢÑĥÐº ÑĤÑĥÑĢÑĭ
ĠÐŁÑĢÐµ Ð¶Ð´Ðµ
ĠÐ½Ð° Ð±ÑĢÐ°
ÑĦÐ¸Ðº ÑģÐ¸
ĠÐ»ÐµÑģÑĤ Ð½Ð¸ÑĨÐµ
ĠÐłÐ¾ ÑģÑĤÐ¾Ð²
ĠÐ¸ Ð¼ÐµÐ½Ð°
ĠÐ·Ð° Ð±Ð°
ĠÑĪÑĤÑĥ ÐºÐ°
ÑĪ ÐµÐ½Ñĭ
ĠÑĥ Ð¿Ð°
ĠÐ²Ð¾Ð¹ ÑĤÐ¸
u ff
ĠÐ»ÑİÐ±Ð¾Ð² ÑĮÑİ
ĠA ss
An d
Ð²Ð° Ñħ
ĠÐ²Ð¾ÑģÐ¿ Ð°Ð»
Ð§ ÐµÑĢÐµÐ·
ĠÑĢÐ°Ð·Ð²Ð¸ÑĤ Ð¸Ð¸
ĠÐ²Ð¾ÑģÑĮ Ð¼Ð¸
ĠÐºÑĢÐ¸ Ð·Ð¸
ĠÑĪÐµ Ð¿
ĠÑĤÐµÑĢÑĢÐ¸ÑĤÐ¾ ÑĢÐ¸
ĠÑĤÑĢ Ð¾Ð³
ĠÐº ÑĢÐµÑģ
ĠÑģÐ¾Ð²ÐµÑĤ ÑģÐºÐ¸Ñħ
Ñī ÐµÐ½Ð½ÑĭÑħ
Ð¾Ð¿ Ðµ
ĠÐĴ Ð¾Ð´
Ġh ouse
ĠÐ¼Ð¾Ð´ ÐµÑĢÐ½Ð¸
ĠÐĴ ÑĤ
ĠÐ³Ð» Ð¾ÑĤ
Ġinv ol
ÑģÐ¿ Ð¾Ð¼
ĠÐ¿ÑĢÐ¾ÑĨÐµÑģ ÑģÐ¾Ð²
ĠÐ½Ð°ÑĢÑĥ ÑĪÐµÐ½Ð¸Ðµ
ĠÐĽ ÐµÐ½Ð¸Ð½Ð°
ĠÑģÐ²ÑıÐ·Ð° Ð½Ñĭ
Ġ ÑīÐ¸ÑĤ
ĠÐ¼Ð½ ÐµÐ½Ð¸Ñı
ĠâĨ Ĵ
Ð¸Ñģ Ñģ
ĠÐ± Ð¾Ð³Ð¾
ir on
ĠÐ¿Ð¾ÑģÑĤÑĢÐ¾ Ð¸ÑĤÑĮ
ĠÑģÑģÑĭÐ» ÐºÐ¾Ð¹
ÑģÐ¸ ÐµÐ¹
ĠÑģ ÑĨÐµÐ½
ÑĪ Ð»Ð¾ÑģÑĮ
ĠÐ¾Ðº ÐºÑĥ
ĠÐľ ÐĲ
ĠÐ¾ÑĤÐºÑĢÑĭ ÑĤÐ¾
Ð»Ð°Ð³ Ð¾Ð´Ð°
ĠÑģÑĤ ÑĢ
Ð½Ðµ Ð¿
ĠÑĪÐµ Ñİ
ĠÐļÐ°Ðº Ð°Ñı
Ġd r
ĠÐ¶Ðµ ÑģÑĤÐ¾Ðº
Ð´Ð²Ð¾ Ð¸Ñĩ
ĠÑģÐ¾Ð² ÐµÑīÐ°
ĠÐ¿ÑĢÐ¸ Ð½Ð¾
Ñī Ð°Ð»Ð¸ÑģÑĮ
ĠÐ½Ð° ÐºÑĢÑĭ
ĠÐ²ÑĭÐ³Ð»Ñı Ð´ÐµÑĤÑĮ
ĠÐ±Ð°Ð± ÑĥÑĪÐºÐ°
is c
ĠÐ´ÐµÐ¹ÑģÑĤÐ² Ð¸ÑĤÐµÐ»ÑĮÐ½Ð¾ÑģÑĤÐ¸
Ð½Ð¾ ÑĢÐ¸
ĠÐ°Ð²ÑĤÐ¾ ÑĢÐ¾Ð²
Ġw rit
Ð¡ Ðł
ĠÐľ Ð°Ð¼Ð°
ĠÐ¿ÑĢÐ¸ Ð»Ð¸Ñĩ
Ð¸ÑĩÐµÑģÐº Ð¸Ð¹
Ðº Ð¾Ñģ
ĠÐ½ÐµÐ´ Ð°Ð»ÐµÐºÐ¾
Ñĩ ÐºÐ¾
ĠÐ¾Ð±ÑĢÐ°Ñī Ð°ÑĤÑĮÑģÑı
Ġn ight
ĠÐ¿Ð¾Ð»Ð¸ÑĤÐ¸ÑĩÐµÑģÐº Ð¸Ñħ
ĠÐ°ÑĢ Ð³Ñĥ
ÐĴ Ð¸
ĠÐºÐ°ÑĢ ÑĮÐµÑĢ
ĠÐ¿Ð¾Ð»Ð½Ð¾Ð¼ Ð¾
ĠÐ¡ÐµÑĢÐ³Ðµ Ñı
ĠÐ²ÑģÐµ Ð¾Ð±
ĠÐ¿Ð¾Ð³ ÑĢÑĥÐ·
ĠÐ¸Ð½ÑĤÐµÐ½ ÑģÐ¸Ð²
ĠÐ»ÑĥÑĩÑĪÐµ Ðµ
Ð½Ð° Ð´Ðµ
ĠÑģÑĥÐ´ÑĮ Ð±Ñĭ
ĠÐ¼Ð³Ð½Ð¾Ð² ÐµÐ½Ð½Ð¾
ĠÐľ Ð¸ÑĤ
ĠH ouse
a ff
Ð¿Ð¾ ÑģÑĤ
ĠC o
ĠÑĢÐ°Ð· Ð´Ð°
ĠÐ´ÑĢÐ° Ð¼Ð°
Ð» ÑĳÐ½
ÑĢÐµ Ð³Ð°
Ġse en
ĠÑģÐ¾Ð¿ ÐµÑĢ
ĠÐĶÐ° Ð²Ð°Ð¹ÑĤÐµ
ĠÑģÑĤÐ° Ð´Ð¸Ð¸
ĠÐ²ÑģÑı ÐºÐ¾Ð¼
ÐĿÐ° Ð´Ð¾
ĠÐĿÐ¾Ð² Ð³Ð¾ÑĢÐ¾Ð´
Ð²ÑĪÐ°Ñı ÑģÑı
ĠÐºÐ¾ÑĢ ÑĢÐµÑģÐ¿
ĠÐ¿ÑĢÐ¸ Ð´ÐµÑĢÐ¶Ð¸
Ġpartic ular
ĠÑĤ Ñĳ
ĠÑģ Ð¼Ð¾ÑĤÑĢÐ¸
ĠÐ¡Ð¾Ð² ÑĢÐµÐ¼ÐµÐ½
ĠS ec
ĠÐ¢Ð°ÑĤÑĮ ÑıÐ½Ð°
ÂłÂł Âł
ĠÐ¼Ð°ÑĤ ÐµÑĢ
Ð²ÐµÐ´ ÐµÐ½Ð¸Ñı
ĠÐ¿Ð¸ÑĤÐ° Ð½Ð¸Ðµ
ĠÐ¿Ð¾Ð´Ð°ÑĢ ÐºÐ¸
Ð¾Ð»Ð¸ ÑĩÐµÑģÑĤÐ²Ð¾
ĠÐ³Ð¾ÑģÑĥÐ´Ð°ÑĢ ÑģÑĤÐ²
ÑĨ ÐºÐ¾Ð³Ð¾
ĠÐ¸ÑģÐ¿Ð¾Ð» Ð½ÐµÐ½Ð¸Ñı
Ġ ]
Ġhum an
ĠÐ·Ð° ÑģÑĤÐ°Ð²Ð¸ÑĤÑĮ
Ġnew s
ĠÑĢÑĥÐºÐ¾Ð²Ð¾Ð´ Ð¸ÑĤÐµÐ»Ñı
ct ions
Ġde al
Ġ12 0
ĠÐĽÑİ Ð´
ĠJ an
ÑĦ Ð¾
ÑĮÑı Ð½
ĠÐ¿Ð¾Ð»Ð¾Ð¶ Ð¸Ð»
Ġact iv
ĠÑĢÐµÐ¹ ÑĤÐ¸Ð½
Ð¾Ð»Ð¾Ð³ Ð¾Ð²
ĠÐ´Ð²Ð° Ð¶Ð´Ñĭ
ĠÐ±ÐµÐ» ÑĭÐµ
ĠÐ½ÐµÑĤ ÐµÑĢÐ¿
ĠÑĪ ÑĤ
9 1
Ġt ax
ĠÐ·Ð° Ð¼ÐµÐ½Ð¸ÑĤÑĮ
Ġg ames
Ð³ Ð»Ð°Ð²
ĠÐ¿ÑĢÐµÐ´ÑģÑĤÐ°Ð²Ð»Ñı ÑİÑĤ
Ġpol ic
ĠÐĲ ÑĤ
ÑĥÑī ÐµÐ¹
it ary
ĠÑģÑĥÐ¿ ÑĢÑĥÐ³
ĠÐ¾ÑģÑĤÐ° ÑİÑĤÑģÑı
ĠÐ³Ð¸Ð³ Ð°Ð½ÑĤ
ĠÐ² Ð¾Ð»Ð¸
ĠÐ¿ÑĢÐµÐ¸Ð¼Ñĥ ÑīÐµÑģÑĤÐ²Ð°
ĠÑĢÐ°ÑģÑģÐºÐ° Ð·ÑĭÐ²Ð°ÑĤÑĮ
Ð¼ Ð¾Ð½Ð°
Ð¶ ÐºÑĥ
ĠÐ¿Ð¾Ð»ÑĥÑĩ Ð¸ÑĤÐµ
ĠÐ¾Ð±ÐµÑģÐ¿Ðµ ÑĩÐµÐ½Ð¸Ðµ
ĠÐ¾Ð±ÑĢÐ° ÑīÐµÐ½Ð¸Ñı
ĠÑģ Ð¼Ð¾ÑĤÑĢ
ĠÐ¿ ÑĮ
Ġ ident
ĠÑĢÐ°Ð±Ð¾ÑĤ Ð°Ð»Ð¸
ra in
ÑĥÑħ Ð¾Ð²
ĠÐ½Ð°ÑĥÑĩÐ¸ ÑĤÑĮÑģÑı
ag ed
Ð¸Ð» Ð»
at ors
ĠÐ¼Ð¸ ÑĢÐ¾Ð¼
ĠÐ´ÐµÐ»Ð° Ñİ
ĠÐ¿Ð¾Ð»Ð¾Ð² Ð¸Ð½Ñĭ
ĠÐ»Ð° Ð¿
ĠÐ±Ð¾Ð»ÐµÐ· Ð½ÑĮ
ĠÑģÐ¾Ð²ÐµÑĤ ÑģÐºÐ¾Ð¹
ÐµÐ¼ Ð¾Ðµ
ĠÑĥ Ð²ÐµÐ´Ð¾Ð¼
ĠÐ¿ÑĢÐ¾ÑĨ ÐµÐ´
ĠÐ¾Ð±Ð»Ð° Ð´Ð°
ĠÑģÐ¾Ð±Ð¸ÑĢÐ° Ð»ÑģÑı
Ð¿ Ð¾ÑĩÐµÐ¼Ñĥ
Ġd ri
ÑĢÐ°Ð·Ñĥ Ð¼Ðµ
ĠÐ¸ÑģÐ¿Ð¾Ð»ÑĮÐ·Ñĥ Ñı
Ġs ocial
Ð¢ ÐŁ
ĠÐºÐ¾ÑĢ Ð¾Ð»ÑĮ
ÑĨÐ¸ Ð´
ĠÐł ÐĺÐĲ
Ð¼ÐµÐ½ ÑĤÐ¾Ð¼
ĠÐĶ Ð¾Ðº
ĠÐ¾ÑĤÑĢÐ° ÑģÐ»Ð¸
ĠÐ²Ð¿ÐµÑĩÐ°ÑĤ Ð»ÐµÐ½Ð¸Ñı
ĠÐ² Ð»Ðµ
Ð¾Ñģ Ñģ
ÐľÐ¾ Ð¸
it ing
Ġinvest ig
ĠÐ¾ÑīÑĥÑī ÐµÐ½Ð¸Ñı
ĠÑĥÑĩÑĢÐµÐ¶Ð´ ÐµÐ½Ð¸Ñı
Ð¿Ð¸ ÑģÐ¸
ĠÐļ Ð¸ÑĢ
ĠÐ²ÑĭÐ¹ Ð´ÐµÑĤ
u k
ĠÑģÐ¾Ð´ÐµÑĢÐ¶Ð° Ð½Ð¸Ñı
Ġmet hod
ĠÐ¿Ð¾Ð´ Ð°Ð²
ĠÐ¿Ð¾Ð´Ð¾Ð± ÑĢÐ°ÑĤÑĮ
Ð½ ÐµÐ½Ð¸ÐµÐ¼
ĠÑį Ð²Ð¾Ð»Ñİ
ĠÐ¾ Ð»Ð¸
ĠÑĢÐ° Ð½ÐµÐ½
Ð²Ð°Ñİ ÑīÐµÐ³Ð¾
Ð½Ð°ÑģÑĤÐ¾Ñı ÑīÐµÐ¼Ñĥ
Ð¾Ñĩ Ð½Ð°Ñı
in o
ĠÑĤÑĢÐ° Ð³
ĠÑĥ ÑĢÐ¾Ð¶
ĠÐ¼Ñĥ Ð¶Ðµ
ĠÑģÐº ÑĢÐ¸Ð¿
ĠÑĤÐ° Ð¸Ð½
ĠÐ¿Ð¾ÐµÐ·Ð´ ÐºÐ¸
ĠÑģÑĢÐµÐ´ Ñĥ
ĠÐł Ð°ÑģÑģ
ĠB ar
Ġme as
ĠÑģÐ¼Ðµ ÑģÑĮ
ĠÐ½ÐµÐ´Ð° Ð²
ĠÐ½Ð°ÑĥÑĩ Ð½ÑĭÑħ
ĠÐ¿Ð°Ð»ÑĮ ÑĨÐ°Ð¼Ð¸
ĠÐ¿Ð¾ÑģÐ¿ ÐµÑĪ
ĠÐ¼Ð°Ð»ÐµÐ½ÑĮ ÐºÐ¸Ñħ
ĠÑĢÐµ ÐºÐ¾ÑĢ
ÑĤÐ¸ÑĩÐµÑģÐº Ð¸Ð¼
ĠÑģÐ½Ð° Ð±
Ġcol le
Ð°Ð½ Ð½ÑĭÐ¼Ð¸
Ð¸Ð¼ ÑĭÐ¼
ĠÐ¿ÑĢÐ¸ ÑģÐ¿Ð¾ÑģÐ¾Ð±
ĠÑĥ Ð»ÑĮ
ĠÐ¸Ð· Ð½Ð°ÑĩÐ°Ð»ÑĮÐ½Ð¾
ĠJ u
ĠÐ¾ÑĤÐºÐ°Ð· Ð°Ð»ÑģÑı
ĠÐ¿Ð¾Ð´ÑĢÐ¾Ð± Ð½ÐµÐµ
ĠÐ´Ð°Ð² Ð»ÐµÐ½Ð¸Ñı
ĠÐ¿Ð¾Ð¼ Ð½Ð¸ÑĤÑĮ
ĠÐ°ÑĢÐ¾Ð¼ Ð°ÑĤ
ĠÑĪ Ð¾ÑģÑģÐµ
ĠÐĿ Ð°Ð¹
ĠÑĢÐ¸ ÑĤÑĥ
Ñı Ð·Ñĭ
ĠÐ²Ñĭ Ð»ÐµÑĤ
ĠÑģÐ²Ðµ Ð¶Ðµ
ĠÑĦÐ¾ÑĢÐ¼Ð¸ ÑĢÐ¾Ð²Ð°Ð½Ð¸Ñı
ĠÑĥÑĩÑĢÐµÐ¶Ð´ ÐµÐ½Ð¸Ð¹
ĠÑģÐ´ÐµÐ»Ð° Ð½Ð¾
Ð¾ÑĤ ÐµÑĢÐ°
ĠC ity
ĠÐ°ÑĢÐ¼Ð¸ Ñı
ĠÑģÑĤÐ° ÑĢÐ¸Ðº
Ġfe at
ĠÑįÑĤÐ° Ð¶Ðµ
ĠÐºÑĢÐ°ÑģÐ¸ Ð²Ð°Ñı
ĠÑĪ Ð°ÑĢÐ¸
ĠÐ¿ÑĢÐ¸ ÐµÐ¼Ð°
ĠÐ¿Ð¾Ð·Ð²Ð¾Ð» Ð¸ÑĤÑĮ
ĠÐľÐ¾ Ð¸
Ġdesc rib
ĠÑĥ Ð¿Ñĥ
ĠÑĢÐµÐ´Ð°Ðº ÑĨÐ¸Ð¸
ĠÐ¿ÑĢÐ¾ÑĨÐµÑģ ÑģÑĭ
ÐµÑģ Ñģ
Ġc ertain
ÐµÑģÑĤ Ð½Ð¾
ĠÑģ ÑįÑĢ
ĠÐ¿ÑĢÐ¸Ð²Ñĭ Ðº
ĠÐ³ ÑĢÐ¾Ð±
ĠÐ²ÑĭÑģÐ¾Ðº Ð¸Ð¼
Ġte chn
ĠÐ¿ÑĢÐ¾Ð¸Ð·Ð²Ð¾Ð´ Ð¸ÑĤÑģÑı
ĠÑĢÐ¾ÑģÑģÐ¸Ð¹ ÑģÐºÐ¸Ðµ
Ñĳ Ðº
ĠÐ¾ÑĤÐ´ÐµÐ»ÑĮ Ð½ÑĭÐµ
P S
en ed
ĠÑģÐ²Ð¾Ðµ Ð¾Ð±ÑĢÐ°Ð·
ĠÐ±ÐµÑĢÐµ Ð³Ð°
ĠÐ¼Ð°ÑģÑĪÑĤÐ° Ð±
er ing
ĠÐ¿Ð¾Ðº Ð¾ÑĢ
ĠR es
ĠÐ¼Ð¾Ð´ ÐµÐ»ÐµÐ¹
ĠÑĦÐ¾Ð½ Ð´
ĠÑģÐ¸Ð¼Ð¿Ð° ÑĤÐ¸
ĠÐ¿ÑĢÐ°Ð² Ð¾Ð¹
ĠÐļ Ð¸ÑĤÐ°Ñı
ĠÑģÐ»ÑĥÑĩÐ° Ð¸
ĠÑģ Ð²ÑĭÑĪÐµ
ĠÐ° Ð½Ð°
ĠÐ¾Ð±ÑīÐµ ÑģÑĤÐ²ÐµÐ½Ð½ÑĭÑħ
ÑİÑīÐµÐ³Ð¾ ÑģÑı
ĠÐ·Ð°ÐºÐ¾Ð½Ð¾Ð´Ð°ÑĤÐµÐ»ÑĮ ÑģÑĤÐ²Ð°
ĠÐ·Ð°Ðº ÑĢÐ¸
ĠÑĨ Ð°
ĠM ed
ĠÑĥÐ²ÐµÐ»Ð¸ ÑĩÐ¸ÑĤÑĮ
ĠÐ·Ð° Ð¼Ñĭ
ĠÐĲÐ¼ÐµÑĢÐ¸ ÐºÐ¸
s el
Ġto w
ĠÐ¿Ð¾Ð¼ ÐµÐ½
ĠÐºÐ°ÑĢ ÑĤÐ¸Ð½Ð°
Ð·Ð° Ð½Ð¸Ñı
ĠÐ¿ÑĥÐ±Ð»Ð¸ÐºÐ° ÑĨÐ¸Ð¸
Ð¸ÑĤÐµÐ»ÑĮ Ð½ÑĭÐ¼Ð¸
ĠÐ¿Ð¾ÐºÐ°Ð· Ð°Ð»Ð¸
ĠÑģÐºÑĥ Ð»ÑĮÐ¿
ĠÐĽÐµÐ½Ð¸Ð½ Ð³ÑĢÐ°Ð´
ĠÐ±Ð¾Ðµ Ð²Ð¸
ĠÐ¼Ð¾Ð»Ð¾Ð´ Ð¾Ð³Ð¾
ĠÐ²ÐµÑĤ ÑĢÐ°
ĠÑģÑĤ Ð¾Ð¿
ĠÐ°Ð³ÐµÐ½ÑĤ ÑģÑĤÐ²Ð°
Y ou
ĠÑĤÑĢÐµÐ±Ñĥ ÑİÑĤ
ĠÑģÑĤÐ°ÑĢ ÑĪÐ¸Ð¹
ÑģÐ¾Ð² ÐµÑĤ
ĠÐ¯ Ð½Ð´
Ġ: )<|
y l
ĠÑģÑĤÑĢÑĥÐº ÑĤÑĥÑĢ
Ð¡ Ð¸
Ð³ ÐµÐ»ÑĮ
ĠÐ¿Ð¾Ð»Ð¾Ð² Ð¸Ð½Ðµ
ÑĢÐ¸ ÑģÐ¾Ð²
ĠÐł ÐµÐ´
ĠÑĥÑģÐ¿ ÐµÐ»Ð°
ÑĮ ÑıÐ²
ĠÑĤÐµÐ»Ðµ Ð²Ð¸Ð´
im ate
Ñĥ ÑĢÐµ
ĠÑģ Ð³
ĠÑĦÐ°Ðº ÑĤÐ¾ÑĢÐ¾Ð²
Ð± Ð¾Ð»ÑĮÑĪ
Ð°Ð»Ð¸Ð· Ð¼Ð°
ro id
The re
ÑĤ ÐºÐµ
ĠÑģÐ¾Ð±Ñĭ ÑĤÐ¸Ðµ
ĠÑģÐ»ÐµÐ´ÑĥÑİÑī ÐµÐ¼
ĠÐ¿ÑĢÐ¾Ð¸Ñģ ÑĪÐµ
ĠÐ¼Ð½Ð¾Ð³ Ð¸Ð¼
Ġ3 4
Ġar g
ĠÐ» Ð°Ðº
Ġadd ition
ĠD em
ĠÐ¿ÑĢÐ¾Ð¼ Ñĭ
Ð¶ Ð°Ð»Ð¸
Ð¾ÑĤ ÐºÑĢÑĭ
ĠÐ´Ð¾Ð³ Ð¾Ð²Ð¾
Ð°Ð½ ÑĤÐ¾Ð²
Ð¢ Ð°Ð¼
t a
Ð ģ
Ġf re
Ġp ress
ĠÐ³ÑĢÑĥÐ¿ Ð¿Ð¸
ÑĤ ÑĢÐ¾Ð¼
te red
ĠÐ¿Ð¾Ð²Ñĭ ÑĪÐµÐ½Ð¸Ðµ
ĠÐ±Ð»Ð¸Ð· ÐºÐ¸Ñħ
Ð± Ð¸Ð»Ð¸
ÑĥÑİ ÑīÐ¸Ð¼Ð¸
ĠÐ¿Ð¾Ð´ Ð»Ð¸Ð½
ĠÐĵÐµÐ½ ÑĢÐ¸
Ð¢ ÑĥÑĤ
ĠÐ¿ÑĥÐ±Ð»Ð¸ ÐºÑĥ
ĠÑįÐºÑģÐ¿ÐµÑĢ ÑĤÐ¸
ĠÐ±ÐµÑģÐ¿ Ð¾Ð»ÐµÐ·
ĠÐ¿Ð¸ ÑģÑĤÐ¾Ð»ÐµÑĤ
Ð±ÐµÑĢ Ð³
Ð³Ð»Ñı Ð´
Ð² ÐºÐ¸
ĠÐ¾ÑĨÐµÐ½Ð¸ ÑĤÑĮ
Ñī Ð¸ÑĤÑĮ
ĠÐ½ÐµÐ´Ð¾ÑģÑĤÐ° ÑĤÐ¾ÑĩÐ½Ð¾
ÑĥÐ¶Ð´ ÐµÐ½Ð¸Ðµ
ĠÐ´ ÐµÐ»Ð¸
ĠÐ¾Ð±ÑĬ Ñı
ĠâĢ ŀ
ĠÐ°Ð´ Ð²Ð¾Ðº
ĠÐĴÐµ ÑģÑĮ
ĠÐ²ÑģÑı ÐºÐ¾Ð³Ð¾
ĠÑģÐ¿ÐµÑĨÐ¸Ð°Ð»ÑĮ Ð½ÑĭÑħ
ĠÐ¼Ð¸Ð½Ð¸ ÑģÑĤÑĢÐ°
Ġsu per
ĠÐ¼Ðµ ÑĪÐ°ÐµÑĤ
ĠÐ¿Ð¾Ð·Ð¸ ÑĨÐ¸Ñİ
ĠÐ·Ð° Ð²Ð¾
ĠÐ´ Ñİ
ĠÐĲ Ð·Ð¸Ð¸
Ġv ar
ĠÐ½Ð°Ñģ ÑĩÐµÑĤ
ĠÐĳÐ¾Ð»ÑĮÑĪ Ð¸Ð½ÑģÑĤÐ²Ð¾
iv id
ĠÑĢÐ° Ð´Ñĭ
Ġfun ction
ĠÑĤÑĢÐµÐ±Ð¾Ð²Ð°Ð½Ð¸Ñı Ð¼
ĠÑģÑĤÐ¾ Ð¸Ð»Ð¾
ÐĲ Ð»ÐµÐºÑģ
Ġ199 1
ĠÑĤÐ°Ð¼ Ð¾Ð¶
ĠÐ¡ÑĤÐ° ÑĢ
ĠÐ¸ÑģÐºÑĢÐµÐ½ Ð½Ðµ
ĠÐŀ ÑĩÐµ
and s
ĠÐŁÐµÑĤ ÑĢÐ°
ĠÐĸ Ðļ
ĠÐ½Ð¾Ñģ Ð¸ÑĤ
ĠÐ¼ÑĭÑģÐ» ÐµÐ¹
ĠÐºÐ¾Ð» Ð»ÐµÐ³
ĠÐ¿Ð¾Ð¸ ÑģÐºÐ°
ĠÑģÐ¿ Ð¾
ĠÐ¿Ð¾Ðº ÑĢÐ¾Ð²
Ð¾Ð´ ÐµÐ»ÑĮ
ĠÐ±ÑĢÐ° ÑĥÐ·
ĠÐ¼ÐµÑĩ ÑĤÑĭ
ĠÐ¿Ð¾Ð´ ÑģÐºÐ°
Ġ \\
Ð»Ð¾ ÑĤÑĮ
ĠÐĿÐ¸ÐºÐ¾Ð» Ð°Ñı
ĠÑģÑĤÐµÐº Ð»Ð°
ÑģÑĤÐ° ÑĤÐ¾ÑĩÐ½Ð¾
Ð½ Ð¾Ð²Ð¾
ĠÐ²ÑĭÑħÐ¾Ð´ Ð½ÑĭÐµ
ĠW hen
ĠÐ±Ðµ Ð¶Ð°ÑĤÑĮ
ĠÐ²ÑĭÑģÐ¾Ðº Ð¸Ñħ
Ġ )<|
ĠÑĢÐµÐ³Ð¸ Ð¾Ð½Ð¾Ð²
ĠÐ·Ð½Ð°ÐºÐ¾Ð¼ ÑĭÑħ
re g
ĠÑĢÐµ Ð°Ð»ÑĮÐ½Ð¾ÑģÑĤÑĮ
ĠÑĢÑĥ Ð±ÐµÐ¶
ĠÑģÐ¿ÐµÑĨÐ¸Ð°Ð»Ð¸ ÑģÑĤ
fer ence
ĠÑĪÑĤÑĢÐ° ÑĦ
Ð¾ÑĢ Ð¼Ð¾ÑĤ
Ð¸Ð² ÑĪÐµÐ¹
ĠÑĢÐ°ÑģÑģ Ð¼Ðµ
ĠN orth
ĠÐµ Ð»
ĠÑħÐ¾ÑĢÐ¾ÑĪ ÐµÐ¹
ĠÐ¼ÑıÐ³ ÐºÐ¾
ĠÐ´ÐµÑĤ ÑģÐºÐ¾Ð¹
ÑĤÐ¸ Ð½Ñĥ
ĠÐŀÐŀ ÐĿ
Ð¿Ð¸ ÑģÐºÐ¾Ð¿
Ð¾Ð¼ ÐµÑĢ
ĠÐ¶Ð¸Ð»Ð¸ Ñī
ĠÐ·Ð°ÑĤ ÑĢÑĥÐ´
ĠÑģÑĥÐ±Ð±Ð¾ÑĤ Ñĥ
ĠÐĴÐ°ÑģÐ¸Ð»Ð¸ Ð¹
ÐĴ Ð°Ð¼
ÐºÐ¾Ð² ÑģÐºÐ¸Ð¹
ĠÑĤÐµÐ°ÑĤ ÑĢ
ĠÐ´ÐµÑģÑıÑĤ ÐºÐ¸
n ot
ĠÑİ Ð³Ð¾
ĠÑĥ Ð±Ñĭ
ĠÑįÑĦÑĦÐµÐºÑĤÐ¸Ð² Ð½Ð¾ÑģÑĤÐ¸
ĠÑĤÑĢÐµÑĤÑĮ ÐµÐ³Ð¾
ĠÑģÐ¿Ð¾ÑĢÑĤÑģ Ð¼ÐµÐ½
Ð´ Ð°Ðº
Ð¾Ð²Ð° Ð²
Ðĺ ÑĤÐ°Ðº
Ġposs ible
ÐºÐ¾Ð² ÑĭÐ¼
ĠÐ²Ð¸ Ð½Ð¾
ĠÐ´Ð¾ ÑģÑĤÑĥÐ¿Ð°
ĠÐ´ÐµÑĤ ÑģÐºÐ¸Ð¹
ĠÐĽÐµ Ð¾Ð½Ð¸
ĠÐĴ ÑĩÐµÑĢÐ°
ĠÐĴÐ° ÑĪÐµÐ³Ð¾
ĠÑĤÐµÑħ Ð½Ð¸ÐºÑĥ
ÐĴ ÐµÑĢ
Ð½Ð°Ñĩ Ð°Ð»Ðµ
Ð¸Ð½ Ð°Ð»
ĠÐºÑĢÐ°ÑģÐ¸ Ð²ÑĭÐ¹
Ð³Ð¾ÑĤ Ð°Ð²Ð»Ð¸
ĠÑħÐ»Ðµ Ð±Ð°
a ut
ÑĩÐµ ÑģÑĤÐ²Ñĥ
ĠÑģÐ¾ÑĢÐµÐ² Ð½Ð¾Ð²Ð°Ð½Ð¸Ñı
ÑģÑĤÑĢÐµ Ð¼Ð¸
Ġon ce
ĠÐ¿Ð¾Ð¸ ÑģÐºÐ°Ñħ
ĠÑĤÐµÐ»Ðµ ÐºÐ°Ð½
I C
ĠÑĢÐ°Ñģ ÑģÑĤÐ°
Ð± ÐµÐº
Ð³ Ð¾Ð»Ð¾Ð²
ĠÐ²Ð»Ð¸Ñı ÐµÑĤ
th ough
Ð½ÑĥÑĤ ÑģÑı
ĠÐ¿Ð¾Ð³ Ð»Ñı
ĠÐ¿Ð¾Ð¼Ð¾Ð³Ð° ÑİÑĤ
ĠÐ²Ñĭ ÑĪÐ»Ð¾
ĠÐ¿ÑĢÐµÐ´ÑģÐµÐ´Ð° ÑĤÐµÐ»Ñı
ĠÐ´ÐµÑĪÐµ Ð²Ð»Ðµ
ĠÐ¿ÑĢÐ¸Ð·Ð½Ð° ÑĤÑĮ
ĠÐ´Ð¾ÑĢ Ð¾Ð¶Ðµ
ĠÐĲ Ð·
ĠÐĴ ÐµÑĢÐ¾
ĠÐ³Ð¾ÑģÑĥÐ´Ð°ÑĢ ÑģÑĤÐ²ÐµÐ½Ð½ÑĭÐ¹
Ñĩ Ð°Ð½
Ġme et
Ġr ad
ĠÐ¾Ð¿ÐµÑĢÐ° ÑĨÐ¸Ð¹
ĠÐ´ÐµÐ¿ÑĥÑĤÐ° ÑĤÐ¾Ð²
Ð·Ð° ÐµÑĤ
Ġa uthor
le x
ĠÐ²Ð°Ð¶ Ð½Ð¾Ðµ
Ġsp ace
ĠÐ²ÑĭÐ±Ð¾ÑĢ Ð¾Ð²
ĠÐ·Ð² ÑĥÐºÐ¸
ĠÐ¿Ð¾Ð´ Ð½Ð¸Ð¼
ÑĢÑĥÐ¿ Ð¿Ð°
ĠÑĩ ÐµÐ»
ĠÐ¿Ð¾Ð½ÐµÐ´ÐµÐ»ÑĮ Ð½Ð¸Ðº
ĠÑģÐ¾Ð±ÑģÑĤÐ²ÐµÐ½ Ð½ÑĭÐ¹
ĠÐ¾ÐºÑĢÑĥÐ¶Ð° ÑİÑīÐµÐ¹
ĠÐ²ÑĭÐ±Ð¾ ÑĢÐµ
ĠS outh
ÐºÐ¾Ð² ÑģÐºÐ¾Ð³Ð¾
ĠÐ»Ðµ ÑĩÐµÐ±
Ġex ample
Ġt ri
ĠÐ¿Ð¾Ð¶ Ð¸Ð»
ĠÐ¼ Ð½Ð¾Ñİ
ĠÐ²ÐµÐ´ ÑĥÑĤ
oc us
ĠÐºÐ° Ð¿Ñĥ
ĠÐ²Ð¸ ÑĨÐµ
ĠÑĢÐ°ÑģÑģÑĤÐ¾Ñı Ð½Ð¸Ð¸
ĠÑĥ ÑģÐ°
ĠÐ¿Ð¾Ð´Ð´ÐµÑĢÐ¶ ÐºÐµ
ĠÐ½Ð¸ Ð±ÑĥÐ´ÑĮ
ver t
Ð¸Ð¼ Ð¾Ð³Ð¾
ĠÐ¾Ð³ÑĢÐ¾Ð¼ Ð½ÑĭÐµ
ĠÐ´ Ð°Ð»Ð°
ĠÐĴÐ¸Ð´ Ð¸Ð¼Ð¾
ĠÐ´Ð¾ÑģÑĤÐ°Ð² ÐºÐ¸
ĠÐºÑĥÑģ Ð¾Ðº
ĠÑĢÐµÐ·ÑĥÐ»ÑĮÑĤÐ° ÑĤÐ¾Ð¼
Ñģ ÑĥÐ´
ĠÑĤÐ²Ð¾ÑĢ ÑĩÐµÑģÑĤÐ²Ð°
Ð¼ Ñģ
ĠÐ»Ð¸ ÑĩÐ½Ð¾Ð¹
ĠÑĢÐ°Ð· Ð¾ÑĢ
ĠÑ ĳ
Ġpres ent
ĠÐ·Ð°Ð´Ð° ÑĩÑĥ
Ð¸Ð½Ð° Ð¼Ð¸
a ul
ÐĶ Ð¸
ĠÐ± ÑĢÐµÐ´
ĠÐ²ÑĤÐ¾ ÑĢÑĥÑİ
ie f
ÐĿ Ðĵ
os p
ĠÐ¿Ð¾ÑģÑĢÐµÐ´ ÑģÑĤÐ²Ð¾Ð¼
ir c
ĠÐ¤ Ð¡
Ð¾ÑĤ Ð²Ð¾ÑĢÐ¸
z e
ĠÐ° Ð½Ð¾
Ñī Ð°Ð»Ð°
ĠC al
ĠÐ¿ÑĢÐ¾Ð²Ð¾Ð´ Ð¸ÑĤ
ĠÐŁÑĢÐµÐ·Ð¸Ð´ ÐµÐ½ÑĤ
ĠH ar
ĠÐ³Ð¾ÑĢ ÑĮ
Ġh ig
ĠÑĢÐ°Ð² ÐµÐ½
ĠÐ¡ ÑĤÐµ
ÑģÑĤÐ² Ð¾Ð²Ð°Ð½Ð¸Ñı
ĠÑī ÐµÐ»
ÑĨÐ¸Ð¾Ð½ Ð½ÑĥÑİ
ĠÐĺ Ð¼Ðµ
ã ģ
Ġ er
ĠÐ¿ÑĢÐ¸ Ð¿Ð¾Ð´
Ġrele ased
ÑĢÐ¾ ÑģÐ»Ð¸
ĠÐ½ÐµÑĦ ÑĤÐ¸
ĠÑģÐ¿ ÑĢÐ°Ð²Ð°
Ġde ath
ĠÐ¾ Ð»Ð¸Ð¼
Ġsu gg
ĠÑĢÐ¾Ð´ Ð½Ð¾Ð¹
ĠÑģÐ¾ÑĤÑĢÑĥÐ´Ð½Ð¸ ÑĩÐµÑģÑĤÐ²Ð°
Ġbe gan
20 10
ĠÑģÐ¾Ð² ÐµÑĤÑĭ
Ð½Ñĥ ÑģÑĮ
Ð³ÑĢÐ° Ð¼
ĠÑħÐ¾ÑĢÐ¾ÑĪ Ð¸Ð¼
ĠÐĳ Ð¸
ĠÑģÑĥÑīÐµÑģÑĤÐ² Ð¾Ð²Ð°Ð½Ð¸Ðµ
ĠÐ·Ð° ÑĦÐ¸ÐºÑģÐ¸
ĠÐ¼Ð°Ð»ÐµÐ½ÑĮ ÐºÐ¾Ð¹
ĠÑĢÐµÐ±ÑĳÐ½ ÐºÐ°
ĠÐ±Ð» Ð¾ÐºÐ°
ĠÐ¾Ð±Ð½Ð°ÑĢÑĥÐ¶ Ð¸Ð»
Ð²Ðµ ÑĢÐ°
ÑĢÐµÐ´ Ð¸ÑĤÐ°
ĠÐ½Ð° Ð·ÑĭÐ²Ð°ÑĤÑĮ
ĠÐĴÐµÐ»Ð¸ÐºÐ¾Ð±ÑĢÐ¸ÑĤÐ° Ð½Ð¸Ð¸
ÑĢÐ¾Ð² ÐµÑĢ
ĠÐ²ÐµÑģ Ð½Ð¾Ð¹
Ġ6 00
ĠÐ¿Ð»Ð° Ð½Ð°
ĠÐ¸Ð¼Ðµ ÑİÑĤÑģÑı
ĠÐ¸ÑģÐºÑĥÑģ ÑģÑĤÐ²Ð¾
ĠÐ¿Ñĥ Ð·Ñĭ
ĠÐ¾ÑĤ Ñĭ
ĠÐ·Ð°Ð³ ÑĢÑĥÐ·
ĠÐ¼ÑĥÐ·Ðµ Ñı
ÑĪ Ð¸Ð½Ðµ
ĠÐ²ÑĭÑģÑĤÐ°Ð² ÐºÐ¸
ĠÑĦÐ¸Ð»Ð¾Ñģ Ð¾ÑĦÐ¸
ĠÑĥÐ´Ð¸Ð² Ð¸ÑĤÐµÐ»ÑĮÐ½Ð¾
Ð²Ð°ÑĢ ÑĮ
a ult
ÑģÑĤÐ¾ ÑĢÐ¸
ĠÐ²ÐµÐ´ÑĥÑī Ð¸Ñħ
Ġresult s
ĠÐ¥ Ð¾ÑĩÑĥ
ĠÐ¿ÐµÑĩÐ° ÑĤÐ¸
Ġ6 5
ĠÐ¾Ð´Ðµ Ð¶Ð´Ð°
ĠÐ±Ñĭ ÑĤ
ÐµÐ¼ ÑĭÐ¼
ĠÐł Ðŀ
Ð²Ð° Ð¸
Ð²ÐµÐ´ ÐµÐ½Ð¸Ðµ
ĠÐ·Ð°Ð¸Ð½ÑĤÐµÑĢÐµÑģ Ð¾Ð²Ð°Ð½
Ñĩ Ð½Ð¾Ð¼Ñĥ
i od
ĠÑĦ Ð°Ð»ÑĮ
ĠÑĤÐ²Ð¾ ÐµÐ³Ð¾
ĠÐ½Ð°Ð´ Ð¿Ð¸ÑģÑĮ
ĠÑĢÐ°ÑģÑģÐºÐ° Ð·ÑĭÐ²Ð°Ð»
**** ****
Ġn ational
ĠÐºÐ¾Ð¼Ð°Ð½Ð´Ð¸ ÑĢ
Ñĥ ÑģÑĤÑĢÐ¾Ð¹
ĠÑįÐºÐ¾Ð½Ð¾Ð¼Ð¸ÑĩÐµÑģÐº Ð¾Ð¹
ĠPres ident
ĠÐ¡ ÐµÑĢÐµ
ÑĢÐ¾ ÑģÐµ
ĠÑĤÐµ Ð¿Ð»Ð°
ĠÐ»ÑİÐ±Ð¸Ð¼ ÑĭÐ¹
Ð»Ð¸ Ð»
ĠÐĿ Ðŀ
ĠÐºÐ»Ð¸ ÐµÐ½ÑĤ
ÑħÐ¾ÑĤ Ñı
Ðµ ÑĦ
ĠÑģÐ²ÐµÑĤ Ð»Ð¾
ĠÑĤÑĢÐµÐ² Ð¾Ð¶
ĠÐ½Ðµ Ð´Ð¾ÑĢ
ĠÐŁÐ¾ÑģÐ»ÐµÐ´ Ð½Ð¸Ð¹
ĠÐ¿ÑĢÐ¸Ð² Ð»ÐµÐº
ĠÐĳÐ¾Ð»ÑĮÑĪ Ð¾Ð¹
ÑĢÐ¸ Ð»Ð°ÑģÑĮ
Ġdoes n
a pe
ĠÐºÐ¾Ð» Ð¾Ðº
ĠÐ²ÑģÑı ÐºÐ¸Ðµ
ĠÑģÐ´ÐµÐ»Ð° ÐµÑĤ
ĠÐ¼ÐµÑĤÐ°Ð» Ð»
Ð¿ Ð¾ÑĢ
Ð¤ Ð¾ÑĤÐ¾
ĠÐ¾ÑĤ ÑĩÐ°Ñı
Ñģ Ð°Ð»
ĠÐ¸ Ð½ÑĭÐµ
ÑĥÐ± Ð¸Ð¹
Ġ5 5
ĠÑģ Ð·Ð°Ð´Ð¸
ĠÑģÐ¿ Ð¸Ð½Ðµ
il t
ĠÐ´ÐµÐ¼Ð¾Ð½ ÑģÑĤÑĢÐ°
ĠÑģÑĢÐµÐ´ÑģÑĤÐ²Ð° Ð¼Ð¸
ĠÑĢÐ°Ð² Ð½Ð¾Ð´ÑĥÑĪ
ĠÐ¿ÑĢÐµÐ´ ÑĪÐµ
ĠÐ¥ Ð¾ÑĢÐ¾ÑĪ
ĠÑĢÐ°Ð· Ð½ÑĭÐ¼Ð¸
ĠÑĦÐ° ÑĪÐ¸
ĠÐ¶Ð¸Ð² Ñĥ
ĠÐ²Ð¿ Ð»Ð¾ÑĤÑĮ
um ent
ĠÑĢ Ð¾Ð¶Ð´
ĠÑĥÑĤ ÑĢÐµÐ½
ÑģÑĤÐ¾ Ðµ
ĠÑģÐ¼Ð¾ÑĤ ÑĢÑİ
Ðº Ð»Ð°Ñģ
ĠÐ¿Ð¾ÑģÑĤ ÐµÐ»ÑĮ
Ġst op
ÑĪ ÑĤÐµÐ¹
ĠÑĥÑģÐ¼ÐµÑħ Ð½ÑĥÐ»ÑģÑı
ĠÐ²ÑĭÑģ Ð¾ÑĤÐµ
ĠÐºÐ¾Ð½ ÑĤÐµÐº
ÑĥÐ¶Ðµ Ð±
Ð½Ñı ÑİÑĤÑģÑı
ÐŁÐ¾ÑĤ Ð¾Ð¼Ñĥ
ÑĤ Ð¾Ð»ÑĮÐºÐ¾
Ð¾Ð» Ð¾Ð³Ð°
ĠÐ¾ÑĦÐ¾ÑĢÐ¼ Ð»ÐµÐ½Ð¸Ñı
ĠÐ½Ð°Ð±Ð»Ñİ Ð´Ð°ÑĤÑĮ
Ġmus ic
ĠÐºÐ¾Ð½ Ð²ÐµÑĢ
ĠÑģÑĤ Ðµ
ĠÐ²ÑĭÑģÑĤÑĥÐ¿ Ð»ÐµÐ½Ð¸Ñı
ĠÐ¿Ð¾Ð» ÑĩÐ°ÑģÐ°
ĠÑĥÑĩÐ°ÑģÑĤ ÐºÐµ
Ġacc ording
Ð¼ÐµÑĤ ÑĢÐ¾Ð²
ĠÑģÑĩÐ°ÑģÑĤ Ð»Ð¸Ð²
ĠÐ¿Ð¾Ð´ Ð½ÑıÑĤÑĮ
Ġcharac ter
ĠÐ³ÐµÑĢÐ¾ ÐµÐ²
6 1
ĠÑĦÐ¸Ðº ÑģÐ¸
ĠÐ¾Ð± ÑīÐµÐµ
ĠÑĪ Ð¿Ð¸
ÑĢÐ¾Ð²Ð°Ð½ Ð½ÑĭÐ¼
ĠÐ¿ÑĢÐ¾ÑģÑĤÑĢÐ°Ð½ ÑģÑĤÐ²Ðµ
ĠÐ¡ Ð´ÐµÐ»
ĠÐĿÐĲ Ð¢Ðŀ
ĠÐ²ÐµÑĢ Ð½ÑĥÐ»Ð°ÑģÑĮ
ĠÑģÐ²Ð¾ Ñı
ĠÑĢÐ°ÑģÐ¿ Ð°Ñħ
ĠÐ¿ÑıÑĤ Ð½Ð¸ÑĨÑĥ
n ect
te ad
ĠÐķÐ²ÑĢÐ¾Ð¿ ÐµÐ¹
ÑĩÐ¸Ð²Ð¾ ÑģÑĤÑĮ
ĠÐ¿Ð°ÑĢ ÑĤÐ¸Ñı
ro ll
ĠÑĢÐ°ÑģÑģÐºÐ°Ð· Ð°Ð»Ð°
Ð¼Ð¾ ÑĢÐ°
ĠÑĥÐ¿ÑĢÐ°Ð² Ð»ÑıÑĤÑĮ
ĠÐ¿ÑĢÐ¾Ñĩ Ð¸Ð¼
ĠÐ¸Ð¼Ðµ Ñı
ĠÐ²Ð°Ð¶ Ð½ÑĭÑħ
an ted
ĠÐ³ÑĥÐ± ÐµÑĢ
Ġob s
ĠÐ¼Ð¸Ð»Ð»Ð¸ Ð¾Ð½
ĠÑĪÐ¸ÑĢÐ¾Ðº Ð¸Ð¹
ĠÐ½Ðµ ÑĢÐµÐ´ÐºÐ¾
Ð¾Ð± Ð½Ð¾Ð²
ĠÑģÐ¿Ð¾ÑģÐ¾Ð± ÑģÑĤÐ²ÑĥÐµÑĤ
ĠÑĦÐ°Ðº ÑĤÑĭ
ĠÐºÑĥÑħ Ð½Ñİ
Ġav ail
ĠÐ» ÐµÐ²Ð¾Ð¹
ĠÐ°Ð¼ÐµÑĢÐ¸ÐºÐ°Ð½ ÑģÐºÐ¸Ñħ
ÑĤÐ° ÑĤÑĮÑģÑı
f ic
l i
Ð¾Ð» ÐµÐ¹
ĠÐ½Ð° ÑĩÐ°
I f
ĠÐ¿ÑĢÐ¸Ð½ÑĨÐ¸ Ð¿Ð¸
ĠÐ¾ Ð¼
Ð· Ð²
ĠÑĩÐµÑĤÑĭ ÑĢ
ĠÐ¾ÑĤ ÑĬ
ĠÐ½Ð° Ð·ÑĭÐ²Ð°Ð»Ð¸
ĠÐ¿Ð¾Ð» Ð³Ð¾Ð´Ð°
ĠÑģÐ¿ Ð¾ÑģÐ¾Ð±Ñĭ
ĠG erman
ÑİÑīÐ°Ñı ÑģÑı
Ð°ÑĢ Ñħ
ĠÐĵ Ð¸ÑĤ
)))) <|
Ġed it
ĠÐ£ ÑģÐ¿
ĠÐ¸Ð·Ð³Ð¾ÑĤÐ¾Ð² Ð»ÐµÐ½Ð¸Ñı
ĠÐ¿ÑĢÐ¾ÑĪÐ»Ð¾ Ðµ
ĠÑģ Ð¼Ð°
Ð´Ñĥ Ð¼Ð°Ð½
Ġf oot
ĠÐ¾Ð¿ÑĢÐµÐ´ÐµÐ» ÐµÐ½Ð¸Ñı
pe cial
Ġy oung
ĠÐº Ð»Ñı
ÐµÐ½ ÑĤÐµ
ĠÐ¢ Ñİ
Ġd ue
ĠÐ¿Ð¾Ð²Ð¾ ÑĢÐ¾
ĠÐ²ÑĢÐ° Ð³Ð°
ĠÐ¿ÑĢÐ¾Ð± Ð¾ÑĢÐ¼Ð¾ÑĤ
o on
ĠÐ¿ÐµÑģ ÐµÐ½
ĠÐ±ÐµÐ·Ð¾Ð¿Ð°Ñģ Ð½Ð¾ÑģÑĤÑĮ
ĠÐ¡ÐºÐ¾ ÑĢÐµÐµ
Ġs ent
ĠÐºÑĥ Ð»Ð°Ðº
ÑĢÐ¸ ÑģÑĤÑĭ
ĠÐ²Ð»Ð° Ð´Ðµ
ÑĢÑı Ð¼Ð¾
ĠÐº Ð°Ð»Ð¸
Ġcommun ity
ĠÐºÐ°Ð¼ Ð½Ð¸
ĠÐ¾ÑģÑĤ ÑĢÐ¾
ĠÑģÑĤÐ° ÑĢÐ°ÑıÑģÑĮ
ĠÐļÐ¾Ð½ ÑģÑĤÐ¸ÑĤÑĥ
ĠÑģÑĢÐ°Ð² Ð½Ð¸
ĠÐ· Ð»Ð°
ÑģÑĤ ÑĢÐ¾Ð¼
ĠÐ¿Ð¾Ð´Ð´ÐµÑĢÐ¶Ð¸ Ð²Ð°ÑĤÑĮ
ĠÐ· Ð¼Ðµ
ĠÑģÑĤÐµÐ¿ ÐµÐ½ÑĮ
ĠÐĶ ÐµÐ»
ÑģÑĭÐ» ÐºÐ°
Ġ199 8
ĠÐŀÐ´ Ð½Ð¸Ð¼
ĠÐ» ÐµÐ½Ð¸
ang u
ĠÐ¿ÑĢÐ¸ ÑģÑĤ
ĠÐ¼Ð°Ð» ÑĭÑĪÐ°
Ð²Ð¸ Ð´ÐµÑĤ
I D
ĠÑĤ Ð²Ð¸ÑĤ
ĠÑģÐ» Ð¾Ð¹
ĠÑģÑĤÐ¾Ð»Ð¸ ÑĨÐµ
ĠÐ¸ ÑģÐºÐ°
ĠÐ¾Ð± ÑĥÑģÐ»Ð¾Ð²
ĠÑĩ ÐµÑģ
ÐµÐº Ð²Ð°ÑĤ
ĠÐ´Ð²Ð° Ð´ÑĨÐ°ÑĤÐ¸
ĠÐ¿ÑĢÐ¸ÑħÐ¾Ð´ ÑıÑĤ
ĠÐ´Ð¸ Ð°Ð»
ĠÐ³Ð¾Ð²Ð¾ÑĢÐ¸ ÑĤÐµ
ĠÐŁÐ¾Ð¶Ð°Ð»ÑĥÐ¹ ÑģÑĤÐ°
ĠÑģÑĤÑĢÐ° Ð½Ð¸ÑĨ
Ġplay ed
ĠÐ°Ð» Ð»ÐµÑĢ
ĠÑĢÐ¾Ð· Ñĭ
ĠÐ²Ñĭ Ð½ÐµÑģ
Ġdire ct
Ñĥ ÑİÑĤÑģÑı
ĠÑģÐ»ÐµÐ´ÑĥÑİÑī Ð¸Ð¼
ĠÐºÐ»Ð¸ Ð¼Ð°
os ed
ĠÐ³ÑĢÐ° ÑĦ
ĠÐŁ Ð°ÑĢÐ°
ĠÐ°Ð¿ ÑĤÐµ
Ñĥ ÑģÑĮ
Ð» ÑĥÐ¿
ĠÐ²ÑĭÐ±Ð¾ÑĢ Ñĭ
ĠÐ½Ð° Ð²Ð¾Ð´
ĠÑģÐ° Ð´Ñĥ
ĠÐĺ Ð¾Ð°Ð½
Ġd one
ĠÐŁ Ð»Ð¾
Ð½Ñĥ Ð½Ðµ
ĠÐ¢ Ð²Ð¾
ĠÐ·Ð°Ñī Ð¸ÑĤÐµ
A C
Ð»Ð¸ Ð¹
ĠÑģ ÐºÐ¾Ð²
] [
ĠÑħÐ¾Ð·Ñı Ð¸Ð½Ð°
ĠÐ½Ð°ÑĩÐ¸Ð½Ð° ÑĤÑĮ
ĠÑĩÐµÐ»Ð¾Ð²Ðµ ÑĩÐµÑģÐºÐ¾Ð³Ð¾
ĠÑĩÑĢÐµÐ·Ð²ÑĭÑĩÐ°Ð¹ Ð½Ð¾
Ġf ail
Ġprodu ct
ĠÐĿÐ°Ð¿Ð¾Ð¼ Ð½Ð¸Ð¼
ĠÑģÐ¸Ð»Ð° Ñħ
ĠÐ¿Ð¾Ð»Ð¸ÑĤ Ð¸ÐºÐµ
ĠÑĢÐ° Ð´Ð°
ĠÑĢÑĭ Ð±Ñĭ
ĠÐ½ÐµÐ¼ Ð°Ð»
ĠÐ°Ð²ÑĤÐ¾Ð¼Ð¾Ð± Ð¸Ð»Ð¸
pos ed
ĠÐ¿Ð° ÑģÐ¿Ð¾ÑĢÑĤ
ĠÐ´Ð¾Ð¿Ð¾Ð»Ð½Ð¸ÑĤÐµÐ»ÑĮ Ð½ÑĭÑħ
ĠÐĿÐ°Ð´Ðµ ÑİÑģÑĮ
7 3
ĠÐ¼Ð°Ð» ÐµÐ¹
Ð´ Ð¾Ð²Ð°ÑĤÑĮ
ĠÐ²Ð¾Ð· ÑĢÐ°Ð·
ĠÐ¿Ð¾Ð¿ Ð°Ð»Ð¸
ÑĢÐµ Ð¸
ĠÐº Ð°Ð»
ÑĤÐ¸Ð² Ð½ÑĥÑİ
ĠN e
ĠÐ´Ðµ Ð¶ÑĥÑĢ
ĠÑģÐ¾ÑģÑĤÐ¾Ñı Ð»ÑģÑı
Ð½ÐµÐ² ÐµÐº
ÑĢÐ°Ð±Ð¾ÑĤ ÐºÐ¸
Ġs ite
ĠÐ¾Ð±ÑĢÐ° ÑĤÐ¸ÑĤÑĮ
ĠÐ²Ð¾Ð» Ð½Ñĭ
ĠÐ»Ð¸ ÑĩÐ½Ð¾ÑģÑĤÑĮ
ĠÐ¾ÑĤÐ´Ð¾Ñħ Ð½ÑĥÑĤÑĮ
ĠÑĪÐ¾Ðº Ð¾Ð»Ð°Ð´
ĠÐ¼Ð¾Ð»Ð¾Ð´ ÐµÐ¶Ð¸
Ð· Ð¸Ð²
ĠÐļ Ñį
ĠÐ´ Ð¾Ð»ÑĮÑĪÐµ
ĠÐĿÐ° ÑĤÐ°
ĠÐ½Ð° Ð¶
ĠT o
ĠÐ²ÐµÐº Ð¾Ð²
ĠÐ¿ Ð¾Ð³Ð°
ĠÐ¶Ð°Ð» ÐºÐ¾
ĠÐ½Ð°ÑĪÐ¸ Ð¼Ð¸
ĠÐ±Ð¾Ð»ÑĮ Ð½ÑĭÑħ
ĠÐ²Ñĭ ÑĢÑĥ
ĠÐºÐ°Ð¼ Ð½Ñı
ĠÑįÐº Ð·ÐµÐ¼
ĠÐ£ Ðļ
ĠÑħÐ²Ð° ÑĤÐ¸Ð»Ð¾
ÑĨÐ¸Ð¾Ð½ ÐµÑĢ
ÑĢÑĭ Ð¼Ð¸
ĠÐ°Ðº ÑĤÑĢÐ¸
Ġpro b
ĠÐ¼Ð¾Ð» Ð¾ÐºÐ¾
ĠÐĽ Ð¸Ð½
Ð¾Ð´ Ð¾Ð²
ĠÐ¿ÑĢÐµÐºÑĢÐ°Ñģ Ð½ÑĭÐ¹
ĠÐ¿ÑĢÐ¸Ð¼ÐµÐ½ ÑıÑĤÑĮ
ĠÐ·Ð²ÑĥÑĩ Ð¸ÑĤ
Ġac ross
ĠÑĦÐ¾ÑĢÑĥ Ð¼Ðµ
ĠÐĴ Ð¾Ñģ
Ð¢ Ð£
Ð³Ð° ÐµÑĤÑģÑı
ĠÑĥÑĩÐ°ÑģÑĤÐ¸ ÐµÐ¼
Ð·Ð° ÑīÐ¸ÑĤ
ĠÐ½Ð°ÐºÐ° Ð½ÑĥÐ½Ðµ
ĠÐ¿ÑĢÐ¸ Ð³Ð¾Ð²Ð¾ÑĢ
ĠÐľ Ð°Ð»Ð¾
ĠÑĢÐ°Ð· ÑĢÐ°Ð±Ð°ÑĤÑĭ
Ð½Ñı Ð»Ð°
ĠÑĦÐ¸Ð»ÑĮ Ð¼Ð¾Ð²
ĠÐ¿ÑĢÐµÐ´Ð»Ð°Ð³Ð° ÑİÑĤ
ĠÐ¾ÑĤ Ð²Ð°
ĠÐ½ÐµÐ¿Ð»Ð¾ Ñħ
ĠÐŁÑĢÐ¸ Ð½
ĠÐ¼Ð° Ðµ
Ð¸Ð· Ð¾Ð»Ñı
ÐĶ Ð¾Ð¼
ĠÐ·Ð°Ð½Ð¸Ð¼ Ð°Ð»ÑģÑı
Ð²Ð°Ð» Ñı
Ð² Ð¾Ð´Ñĥ
ĠÐ´ÐµÐºÐ° Ð±ÑĢÐµ
Ð½Ð° ÑĨÐ¸Ð¾Ð½
ĠHow ever
ÐĹ Ð´ÐµÑģÑĮ
ĠÐ¿ÑĢÐ¸ ÐºÐ°
Ð¸ÑĤÐ° Ð½Ð°
a e
ÑĥÐ¶Ð´ ÐµÐ½Ð¸Ñı
as hing
ĠÑģÐ»ÑĥÐ¶ Ð¸ÑĤ
ĠÐ¿Ð°ÑĢ ÑĤÐ¸
ĠÑĦÑĢÐ¾Ð½ ÑĤÐ°
ĠÑĥÑģÐ»ÑĭÑĪ Ð°ÑĤÑĮ
Ð» Ð¾Ð³Ð¾
ĠÑĤÐµÐ» Ð¾Ð¼
ĠÐ¾Ð¶Ð¸ Ð´Ð°Ð½Ð¸Ñı
Ð´ Ð²
ĠG l
Ġ( )
ĠÑģÑĤÐ¸ ÑħÐ¾ÑĤÐ²Ð¾ÑĢ
ĠÐ£ Ñĩ
ĠÐ²ÑĭÑģÐ¾Ðº Ð°Ñı
ĠÑįÐºÑģÐ¿ ÐµÑĢÑĤ
ĠÑģÐµÐ² ÐµÑĢÐ¾
ĠÐ¿Ð¾Ð² ÐµÐ»
ĠÐ¿Ð¾Ð»Ð¾Ð² Ð¸Ð½Ð°
ĠÐ¿ÐµÑģ Ð½Ñı
ĠÐºÐ¾Ð¼Ð¿ ÐµÐ½ÑģÐ°
Ð¶ ÐµÐ½Ð¸Ñİ
Ġw ri
Ġl o
ĠÐ¿Ð¾Ð»ÑĥÑĩ ÐµÐ½Ð¸Ðµ
g ress
c her
ĠÐĵ Ð£
ÑĢ ÐµÐ½Ð°
ĠÑģÐ»ÐµÐ´ Ñĭ
ĠÑģÐ²Ð° Ð´ÐµÐ±
ĠÐĳ Ð°Ð¹
ĠÐ¸Ð´Ðµ Ñİ
ĠÐ²ÑĭÑıÑģ Ð½Ð¸Ð»Ð¾ÑģÑĮ
Ð½Ð¸Ðº Ð¾Ð²Ð°
ĠÑĢÐµÑģÑĤÐ¾ ÑĢÐ°Ð½
ĠÐ¿ÑĢÐµ Ð¿Ð¾Ð´
ĠÐ¿ÑĢÐµÐ´Ð»Ð°Ð³Ð° ÐµÐ¼
ĠÐ¾ÑģÑĤÐ°Ð½Ð¾Ð² Ð¸ÑĤÑĮ
ÐµÐ»ÑĮ Ñı
ĠÐ¾ÑģÐ¾Ð± Ð¾Ð³Ð¾
Ð¿ Ð»Ñı
ĠÐ¾ÑĤÐ·Ñĭ Ð²Ñĭ
Ðł Ð°Ñģ
v al
ĠÐ·ÑĥÐ± Ð¾Ð²
ĠH is
Ġtr ad
ĠÑģÐ¾Ð· Ð´Ð°Ð»
ÑĤ Ð½Ð¾Ð¼
row n
ĠÐ¿ÑĢ Ð¾ÐºÐ°
ĠÐ¿Ðµ ÑĩÐ°ÑĤ
ĠÐ¿ÑĢÐ¾Ñģ Ð¼Ð¾ÑĤÑĢÐ°
ĠÐ¿ÑĢÐ¸ÐºÐ°Ð· Ð°Ð»
Ð¼Ð¸ Ð»Ð¸
Ġh old
ĠÐ½Ð°Ðº Ð»Ð¾
ĠÐ¢ ÑĢÐµÑĤÑĮ
ĠÐ²ÑģÑĤÑĢÐµ ÑĤÐ¸ÑĤÑĮ
Ġcl ose
ÑģÑĤ ÑĢÐ¸Ð¸
Ñĥ Ñĥ
ĠÐºÐ¾Ð½ ÑĨÐµÐ½ÑĤÑĢÐ°
ĠÐ¾Ð¿Ð°Ñģ Ð½Ð¾ÑģÑĤÑĮ
ĠÐ²ÑĭÐ±Ð¾ ÑĢÐ°Ñħ
ĠÑĥÐ±Ð¸Ð¹ ÑģÑĤÐ²Ð°
ĠÐ¼Ð°ÑĤÐµÑĢÐ¸ Ð½
ĠÑģÑĤÐµÐº Ð»Ð¾
ĠÐ³Ð¾Ñģ Ð¿Ð¸ÑĤ
ĠÐ´Ð»Ð¸Ð½ Ð½ÑĭÐµ
ĠÐ°Ð³ÐµÐ½ÑĤ ÑģÑĤÐ²Ð¾
ĠÐºÐ¾Ð¿ Ð¸
ĠÑĢÐ°ÑģÑģÑĤÐ¾Ñı Ð½Ð¸Ðµ
ÐµÐ¼Ð¾Ð½ ÑģÑĤÑĢÐ¸
Ð¶ ÐµÑĤÐµ
Ġwhe ther
ĠÐ¿Ð¾ Ð½Ð¸
Ġa ut
ĠÐ¼Ð¾Ð½ ÑĤÐ°
ĠÐ°Ðº ÑĨÐ¸Ð¹
ĠÑĤÐµÐ¼Ð½Ð¾ ÑĤÐµ
ĠÐ´Ð¶ Ð¸Ð½
ĠÑĤÐµÑħ Ð½Ð¸ÐºÐ°
Ġann oun
ĠÑģÑĩÐ¸ÑĤÐ° ÐµÑĤÐµ
ĠÐĺ ÑĢÐ¸Ð½Ð°
ĠÐ¼ÐµÐ½Ñı ÐµÑĤÑģÑı
ĠÐ½Ð°ÑģÐ»Ð° Ð¶Ð´
Ð¿Ð¸ Ð°
ĠÑĥ Ð±ÑĢÐ°ÑĤÑĮ
ĠÐºÐ° ÑĪ
ĠÐ²Ð¸Ð´Ðµ Ð¾Ðº
ĠÐŀÐ´Ð½Ð° Ð¶Ð´Ñĭ
Ð°Ð»Ð° Ñħ
Ġm om
Ð¶ ÑĥÑĤÑģÑı
ĠÐ²Ð½ÐµÑĪ Ð½ÐµÐ¹
ÐĴ Ðķ
ĠÐ½ÐµÐ±Ð¾Ð»ÑĮÑĪ Ð¸Ðµ
Ġmed ia
ĠÑĢÐµÐºÐ¾Ð½ ÑģÑĤÑĢÑĥÐº
ĠÐ¾Ð± Ð¸ÑĤ
ĠÐĶ Ð¾Ð»
ÑģÐµÐ´ Ð½ÐµÐ²
ĠÐ²Ð¸ Ð´Ð¸ÑĪÑĮ
ĠÐ¾Ð¿ÑĥÐ±Ð»Ð¸ ÐºÐ¾Ð²Ð°
ĠS un
ĠÐ½ÐµÐ¾Ð´Ð½Ð¾Ðº ÑĢÐ°ÑĤÐ½Ð¾
ÑĤÐ¸ Ð²Ðµ
Ġmark et
Ðľ Ð¾Ð¹
ÑĪ Ð¾Ðº
ĠÑģÐ»ÐµÐ´ Ð¸ÑĤÑĮ
ep end
ĠÑĤÐ¾ÑĢ Ð¼Ð¾Ð·
ÑĤÐ°Ð» ÐºÐ¸
ĠÐ´Ð¾ÑĢÐ¾Ð³ Ð¸Ðµ
ort s
ĠÐ¿Ð°ÑĢ ÐºÐ¾Ð²
ĠÐ¿ÑĢÐµÐ´Ð¼ÐµÑĤ Ð¾Ð²
ĠÐļÐ¸Ðµ Ð²Ðµ
ĠÑĪÐ¸ ÑĢÐ¸
ĠÐ±Ð»Ð°Ð³Ð¾ ÑģÐ»Ð¾Ð²
ĠÐ¡ Ð°Ð²
ĠÑĢÐ°Ð±Ð¾ ÑĩÐ¸Ð¹
ĠÐ±ÑĥÑħÐ³Ð°Ð» ÑĤÐµÑĢ
y r
ĠÐ»Ð¸ ÑĩÐ½Ð¾Ð³Ð¾
ÑĩÐ¸ ÐºÐ°Ð¼Ð¸
ent al
ĠÐ¿Ð°ÑĨÐ¸ ÐµÐ½ÑĤÐ°
ĠÐ¶ÐµÐ½Ñī Ð¸Ð½Ð¾Ð¹
ĠÐĴÑĭ ÑģÐ¾Ðº
M S
ĠÑģ Ð±Ñĭ
ĠÐĳ Ð°Ð½
ĠÐĴ Ð°Ð½
ÑģÑĤ ÑĭÐ¼
ĠÐ½Ð¸ Ð³Ð´Ðµ
ÐµÐ² ÑĭÐ¼
ĠÐ½ Ñİ
ĠÐ¸Ð· Ð´Ð°Ð½Ð¸Ðµ
ĠÐ½Ð°Ð¿ÑĢÑı Ð¼ÑĥÑİ
ĠÐ¿ÑĢÐ¸ Ð¼ÐµÑĤ
c hes
ĠÐ¿Ð¾Ð½Ð¸Ð¼Ð° Ð½Ð¸Ðµ
ĠS up
ĠÑģÑĥ Ð¼Ð°Ñģ
!! !<|
Ġ4 2
Ð· Ð¾ÑĢÐ°
Ġpre vious
ĠÐ¾ÑĤÐ´ÐµÐ» ÐµÐ½Ð¸Ðµ
ĠÐľÐ¸Ð½Ð¸ÑģÑĤÐµÑĢ ÑģÑĤÐ²Ð°
Ð°Ð»Ð¸ Ð·Ð¸
ĠÑģÐµÐ»ÑĮ ÑģÐºÐ¾Ð³Ð¾
ĠÐĴÐ¼Ðµ ÑģÑĤÐ¾
ĠÐºÐ»Ð°Ñģ ÑģÐµ
ĠÐ¿Ð¾Ð´Ð¾ ÑĪÐ»Ð°
ÐĹ Ð°Ðº
ĠÐ¾ÑĤ ÑĩÐ°ÑıÐ½
ens ive
ĠÐºÐ¸Ð» Ð¾Ð³ÑĢÐ°Ð¼
ĠÐºÐ°ÑĤ Ð°Ð»
ĠT witter
Ðĳ ÐµÐ»
ÐĽ Ðµ
ÑģÑĤ Ð¸ÑĤ
ĠÐ½ÐµÐ·Ð°Ð²Ð¸Ñģ Ð¸Ð¼Ð¾
ĠÐ¿ÑĢÐ¾Ð³ÑĢÐ°Ð¼ Ð¼Ð¸
ĠÑħÐ¾Ð»Ð¾Ð´ Ð½Ð¾
Ð¾ÑĢ ÐµÐ½
ĠÑģÐ¾Ð¾Ð±ÑīÐ¸ Ð»Ð°
Ġstar ted
ĠÐ³Ð»ÑĥÐ± Ð¸Ð½Ðµ
ĠÐ¿Ð¾Ð´ÑĩÐµÑĢ ÐºÐ¸
ĠÐ·Ð° Ð¶
Ġother s
Ð¸ Ð´Ð°
Ð¼ÐµÐ½ Ñı
Ñĭ Ð²Ð°ÑĤÑĮ
ĠÐ¦ ÐµÐ»ÑĮ
ĠÐ·Ð° Ð±Ð¾
ĠÐºÑĢÐ¾Ð² ÑĮÑİ
ĠÐ¿Ð¾ÑģÐ»ÐµÐ´ Ð¾Ð²Ð°ÑĤÐµÐ»ÑĮ
ĠÐĴ Ð°Ð´
Ġhist ory
Ġl ove
ĠÐ·Ð¾Ð»Ð¾ ÑĤÐ¾
ÑģÐ¸ Ð´
ĠÑįÐ¿Ð¾ ÑħÐ¸
Ð± Ð°Ð¹
ĠÑĢÑĭ Ð±Ð°
ĠÑģÑİ ÑĢ
ĠÐºÑĢÐ¸Ð·Ð¸ ÑģÐ°
ĠÐ½Ðµ Ð±Ð°
ÑĥÑħ Ð¸
ĠÑģÐµÐ½ÑĤ ÑıÐ±ÑĢÐµ
ĠÑĢÐµ Ð¿ÑĥÑĤÐ°
ĠÑģÐºÐ¾ÑĢÐ¾ ÑģÑĤÑĮÑİ
Ġcour se
ĠÐĺ ÑģÑĤÐ¾ÑĢÐ¸Ñı
ec ted
ĠÐļÑĢÑĭ Ð¼Ð°
ĠÐ½Ð°Ð·Ð½Ð° ÑĩÐµÐ½
ĠÐ·Ð°Ðº Ñĥ
ĠÑģÐ»ÐµÐ´ Ð¾Ð²Ð°Ð»Ð¾
Ġy et
ĠÑĤÑı Ð¶Ðµ
ĠÐĴ Ñı
ĠÑģÐ¿ ÑĢÑı
ÑģÑĤÐ¸ Ð²
com m
ĠÐ¸Ð³ÑĢÐ° Ð»
ÑĢÐ°Ð²Ð¸ Ð»Ð°
ĠÐ»Ð¸ ÑģÑĤÑĮ
Ð¾Ñĩ ÐµÐ½ÑĮ
ĠÐ¿ÑĢÐ¾Ð¸Ð·Ð²Ð¾Ð´ ÑģÑĤÐ²Ðµ
ĠÑĦ Ð°Ð½Ð°
Ñį ÑĦÑĦÐµÐº
âĢĿ .
ĠÑĦ Ð°Ñģ
ĠÐ´Ð¸ÑģÐº ÑĥÑģ
ĠÐ§ Ð°ÑĢ
ÑĪ Ð½Ð¾Ð¹
ĠÐ¿ÑĢÐ¸Ð½Ñı ÑĤÐ¸Ñı
ĠO ct
ĠÑģÐ°Ð¼Ð¾Ð» ÐµÑĤÐ°
n ow
ÑģÐµ ÑģÑģÑĥ
ĠÐº Ð¸Ð½Ñĥ
Ð¾ ÑģÑĤÐ°
ĠÐ§ ÑĤ
ĠÐ¸Ð·Ð¾Ð± ÑĢÐ°Ð¶ÐµÐ½Ð¸Ðµ
ĠÐ²ÑĭÑģ Ð¾ÑĤÑĭ
ĠÐ¸Ð½ÑĤÐµÑĢÐµÑģ Ð½Ð¾Ðµ
ĠÐ¸Ð½ÑĦÐ¾ÑĢÐ¼Ð° ÑĨÐ¸ÐµÐ¹
ĠÐŁÐ°Ð² Ð»Ð¾Ð²
Ð¾ÑĢ Ð¼
ĠÐ¡ Ð¾ÑĤ
ÑĤÐ¾ ÑĢÐ¸Ð½
ĠÐ¾Ñģ ÐµÐ½ÑĮÑİ
ĠÐ¿Ð¾Ð¼Ðµ ÑīÐµÐ½Ð¸Ð¸
ĠÑģÐ»ÐµÐ´ÑĥÑİÑī Ð¸Ñħ
Ġbl ack
Ġto t
ĠÐ²Ð¾ ÑģÑĤÑĢÐµÐ±
ĠÑģÐ²Ð¾Ð±Ð¾Ð´ Ð½Ð¾
ĠÐ¿Ð¾Ð´Ð³Ð¾ÑĤÐ¾Ð² ÐºÐµ
ĠÑĢÐ°Ð·Ð³ Ð¾Ð²Ð¾ÑĢÐ°
ĠÑĤÐ¾Ð¿ Ð»Ð¸Ð²Ð°
Ġf uture
ĠÐ¿ÐµÑĢÐµ ÐºÑĢÑĭ
ÐºÐ¸ Ð´Ñĭ
ĠÐ¿ÑĥÑĤÐµÑĪÐµ ÑģÑĤÐ²Ð¸Ñı
ĠÐ¿Ð¾Ð´Ð²ÐµÑĢ Ð³
Ð½Ð° Ð³
ĠÐº Ð°Ð»ÑĮ
ĠÐ²Ð·Ð° Ð¸Ð¼Ð¾
ĠÐŁÐ¾Ð» ÑĥÑĩ
Ġj o
ĠÐ¿Ð¾Ñĩ ÑĤÑĥ
ĠÐŁÐµÑĢ Ð²Ð°Ñı
ĠÐ¿Ð¾Ð´ ÑħÐ²Ð°
Ð°ÑĤÐµÐ»ÑĮ Ð½ÑĭÐµ
ĠÐ¿ÑĥÑĤÐµÑĪÐµ ÑģÑĤÐ²Ð¸Ðµ
ĠÐ°Ð¿ Ð¿ÐµÑĤ
ĠÐ´Ð¾Ð±ÑĢÐ° ÑĤÑĮÑģÑı
ĠÑĢÐ°ÑģÑģ ÑĩÐ¸ÑĤ
Ġimp ro
ĠÐ½Ð°Ð» Ð¾Ð¶
ÑĢÐ¾Ð² ÐºÐµ
ÑģÑĤÐ² Ð¾Ð²Ð°Ð»Ð°
ĠÐ·Ð°ÑĢÐ°Ð±Ð¾ÑĤ Ð°ÑĤÑĮ
ĠÐ¿ÑĢÐ¾Ð²ÐµÐ´ ÐµÐ½Ð¸Ð¸
st it
ĠÐ¿Ð¾Ð´ ÑĢÐ°Ð·ÑĥÐ¼Ðµ
ĠÐ´ÐµÑĤ ÑģÐºÐ¾Ð³Ð¾
ĠÑĢÐµÐºÐ¾Ð¼ÐµÐ½ Ð´Ð°ÑĨÐ¸Ð¸
ĠÐĸ Ð¸Ð·Ð½ÑĮ
ÐľÐ¾ÑģÐº Ð²Ð°
Ð¾Ð· Ð´
ĠÐŁ Ð¾Ð³
ĠÐ½Ð° ÑģÑĤÑĢÐ¾Ð¹
ĠÑĪÐ°Ð³ Ð¾Ð²
ĠÐ½Ðµ Ð²Ð¸Ð½
ĠÑĥÐ²ÐµÑĢ ÐµÐ½Ð½Ð¾
Ñĩ ÑĮÑı
Ð²Ð°ÐµÐ¼ ÑĭÐµ
ĠÐ·Ð²Ð¾Ð½ Ð¾Ðº
ĠÐ¿Ð°ÑģÑģÐ°Ð¶Ð¸ ÑĢÐ¾Ð²
ÐĺÐ½ ÑĤÐµÑĢÐµÑģ
ĠÐ¾ÐºÐ° Ð¶ÐµÑĤÑģÑı
ĠÐĴ ÑģÐºÐ¾ÑĢÐµ
ĠÑĢÐµÐ°Ðº ÑĨÐ¸Ð¸
ĠÐ»ÑĥÑĩ ÑĪÐ¸Ð¼
ĠÐ¾ÑĤ ÑĨÐ¾Ð¼
ĠP art
get her
ĠÐłÐµÐ· ÑĥÐ»ÑĮÑĤÐ°
ĠÐ¡ Ð¾Ðº
ĠÐ´Ð¾ ÑģÑĤÐ°Ð»
ĠÐ¼Ð¸ ÑĦ
ÑĢÐ°Ð±Ð¾ÑĤ ÐºÐ°
ĠÑĦÐ¾ÑĤÐ¾Ð³ÑĢÐ°ÑĦ Ð¸Ð¹
ĠÐĳ ÑĢÐ°
Ġto gether
ĠÐ·Ð°Ð¿ Ð¸ÑģÑĭ
ÑģÑĤÐ¸ Ð¼Ð¾
ĠÐ¿ÑĢÐ¸Ð· Ð½
ĠÐ° Ð¹
ĠÑģÐ¾ÑģÑĤÐ¾Ñı Ð»Ð°ÑģÑĮ
ĠÑıÐ½Ð²Ð° ÑĢÐµ
ĠÐ¾Ð± Ð²Ð¸
ĠÐ¿Ð¾Ð» ÐºÐ°
ĠÑĤÑĥ ÑĢÐ¸ÑģÑĤÐ¸
ĠÐ¿ÑĢÐµÐ¼Ð¸ Ð¸
Ġb it
ĠA f
Ð½Ð¸Ð· Ð¼
Ġh alf
ĠÐ½ÐµÐ¶ ÐµÐ»Ð¸
ĠÐ±ÐµÑģ ÐµÐ´
ĠÑįÐºÐ¾Ð½Ð¾Ð¼Ð¸ÑĩÐµÑģÐº Ð¾Ð³Ð¾
ĠÐĵ Ð°Ð·
ĠÐ¼ÑĥÑģ Ð¾ÑĢ
ĠÐ·Ð² ÐµÐ·Ð´Ð°
ĠÑĢÐ°Ð±Ð¾ÑĤ Ð°Ð»Ð°
Ðķ Ð³Ð¾
re l
ĠÐľ ÐµÐ½
at tle
ĠÐ¿Ð¾Ð·Ð° Ð´Ð¸
ĠÐ¾ÑĤÐ¿ ÑĢÐ°Ð²Ð¸ÑĤÑĮ
ĠÐĶÐµÐ² ÑĥÑĪÐºÐ°
ĠÐ¿ÑĢÐ¾Ð¸ÑģÑħÐ¾Ð´ Ð¸Ð»Ð¾
ĠÐºÐ¾Ð»Ð¸ÑĩÐµ ÑģÑĤÐ²Ð¾Ð¼
Ð³Ð¾ Ð½Ð°
Ð²Ð¸ Ð·Ð¸Ð¸
Ð¼ ÐµÐ»
ĠÐ¿ÑĢÐ¾Ð´Ð¾Ð»Ð¶ Ð¸Ð»
ÑĢÐ¸Ð· Ð¼Ð°
ĠÐ¾ÑĤÐºÑĢÑĭ ÑĤÐ¸Ðµ
ÑĤÐ¾ ÑģÑĤÐ¸
ÑĢÐ°Ð½ Ð´Ð°
Ġact ually
ĠÑĨÐµÐ½ Ð½Ð¾ÑģÑĤÐ¸
Ð°Ð± Ð¸Ð»Ð¸
ĠÐĲÐ¼ÐµÑĢÐ¸ ÐºÐµ
Ðļ ÑĥÐ´Ð°
ĠÐĺÐ· Ð²ÐµÑģÑĤ
ĠÐ¿Ð¾ÑģÑĤÑĢÐ° Ð´Ð°
Ð²Ð°Ð¹ÑĤÐµ ÑģÑĮ
ĠÐ¾Ð¿ÑĢÐµÐ´ÐµÐ»Ñı ÐµÑĤÑģÑı
ÑīÐ° ÐµÐ¼
ĠÐ¾Ð± ÑĥÐ²
Ġquest ion
ÐĴ ÑģÑĳ
ĠÐ¶ÐµÐ» Ð°ÑĤÐµÐ»ÑĮÐ½Ð¾
ÑģÐ¸ ÑıÐ½
ÂłÂłÂłÂł ÂłÂłÂłÂł
Ð¾Ð»Ð¾Ð³Ð¸ ÑĩÐµÑģÐºÐ¾Ð¹
ĠÐ¡ Ð²ÐµÑĢ
ĠÐĲ Ð³Ð°
ĠÑģÐ» ÐµÐ²Ð°
ĠÐ°Ñģ ÑĦÐ°Ð»ÑĮ
ĠÑģÑĨ ÐµÐ½Ðµ
ĠÑĢÐ°Ð·Ð¼ÐµÑĢ Ñĭ
Ñĩ Ð°Ð»Ð¾
ĠÑį Ð»Ð¸
ĠÐ½ Ð¸ÑĤ
ĠÑĢÑĥÐºÐ¾Ð²Ð¾Ð´ ÑģÑĤÐ²Ð°
ĠÐ¾Ð±Ð»Ð° Ð´Ð°ÑİÑĤ
ĠÐ´Ðµ Ð¿Ð°ÑĢÑĤÐ°
ĠÑģÑģÑĭÐ» ÐºÐ°
ĠÐ½ÐµÐ´Ð¾Ð² Ð¾Ð»ÑĮ
ĠÐ¿ÑĢÐ°Ð·Ð´ Ð½Ð¸ÐºÐ°
r ay
ĠÐ²Ð»Ð¸Ñı Ð½Ð¸Ñı
ĠÐ²ÑĢÐ° ÑĩÑĥ
og raph
ĠÑģÐ¿ ÑĢÐ°Ð²Ð¸ÑĤÑĮÑģÑı
ĠÐ±ÐµÑģÑģ Ð¼ÑĭÑģÐ»
ĠÑģÐ¾ÑĨÐ¸Ð°Ð»ÑĮ Ð½Ð¾Ð³Ð¾
ĠÐ²Ñĭ ÑĤÑı
ĠÐ¸ÑģÐ¿Ð¾Ð» Ð½Ð¸ÑĤ
Ġmonth s
Ð»Ð¾Ð¶ ÐµÐ½Ð¸Ðµ
Ġs um
Ð°Ðº Ð¾Ð²Ð°
Ġto day
ĠÐ²Ð¾Ð·Ð³Ð»Ð° Ð²Ð»Ñı
ĠÐ¾Ð±ÑģÐ»ÑĥÐ¶Ð¸ Ð²Ð°Ð½Ð¸Ðµ
ĠÐ´ÐµÐ¿ ÑĢÐµÑģ
ĠÐ²ÑĢÐ° ÑĩÐ¸
Ġse x
ĠÑĥÑģÐ¸Ð»Ð¸ Ð¹
ĠÐ¿Ð¾Ð¼Ð¾Ð³ Ð°ÑĤÑĮ
ĠÐ¿ÐµÑģ Ð½Ñİ
ĠÐļ Ð¾ÑĤ
ute s
ĠÐ¿Ð¾ÑĤÐµÑĢ Ñı
Ġ198 0
Ðĳ Ð¾Ð»ÑĮÑĪ
ĠÐ¿ÑĢÐ°Ð²Ð¾ Ð¾ÑħÑĢÐ°
ĠÑįÐ½ÐµÑĢÐ³Ð¸ Ñİ
ĠÐºÐ¾Ð¼Ð°Ð½ Ð´Ðµ
ĠÐŀ Ðĳ
ĠÐ½Ð¾ÑĢ Ð¼Ñĭ
ĠÐ¿ÑĢÐ¾Ð¸ÑģÑħ Ð¾Ð¶Ð´ÐµÐ½Ð¸Ñı
ĠÐ½ Ð¾Ð³Ð°Ñħ
ĠÑĥÑĩÐµÐ½ ÑĭÑħ
Ð´Ð° ÑĩÐ°
ĠÑĥÐ¿ÑĢÐ°Ð¶ Ð½ÐµÐ½Ð¸Ñı
ĠÐ¾ÑĤÐº ÑĢÐ¾
ĠÐ¡Ð°Ð¼ Ð¾Ðµ
Ðº Ð°Ð»Ð¸
ĠÐ¾Ð±Ð½Ð°ÑĢÑĥÐ¶Ð¸ Ð»Ð¸
Ġrep orted
am s
ĠÐĸ Ð¸
ĠÐ¿Ð¾Ð¼ ÐµÑĪ
ÐĲ Ðº
ĠÐĵÐ°ÑĢ ÑĢÐ¸
ĠÐĳ ÑĥÐ´ÑĮ
ĠÐºÐ¾Ð» Ð»ÐµÐ´
ĠÐ¿Ð¾ÑıÐ² Ð»ÐµÐ½Ð¸Ðµ
7 1
ÑĪÐµÐ½ Ð½ÑĭÐµ
ĠÐ½Ð°ÑĩÐ°Ð» Ð¾Ð¼
ĠÐ¿ÑĢÐ¸Ð½ ÑĨÐµÑģ
b or
ÐĲ Ð»ÑĮ
ĠÐ·Ð°ÑģÐµÐ´Ð° Ð½Ð¸Ð¸
ĠÐ½Ðµ ÐºÐ¾Ð³Ð´Ð°
ĠÐ¿Ð¾ÑĤÑĢÑı ÑģÐ°
Ð´Ð° ÑĩÐ¸
Ð¾Ð± Ð¸Ð»Ð¸
ĠÐ¦ Ð²ÐµÑĤ
ĠÑĤ Ð²Ð¾Ðµ
ĠÐ½Ð°Ñĩ Ð°Ð»ÑģÑı
ul a
ĠÑĢÐ° ÑģÑĤÐ¸
ÐŁÐµÑĤÐµÑĢÐ±ÑĥÑĢ Ð³Ðµ
ĠÑĤÑĥ ÑĢÐµÑĨ
ob er
ĠÐ¿Ð¾Ð´Ð´ÐµÑĢÐ¶ ÐºÐ°
ĠÑĥÐ»Ñĭ Ð±Ð°
ĠÐĲÑĢ Ð¼Ð¸
ÐĶ ÐµÐ½ÑĮ
u ary
ĠÐ½ÐµÐ¿Ð¾Ð½ ÑıÑĤÐ½Ð¾
ĠÐ¡ Ð¸Ð´
ÑĪ ÐºÐ°Ð¼Ð¸
Ð» ÑĭÑħ
ĠÐ¼Ð¾Ð» Ð¾ÐºÐ°
l u
Ð¸Ð» Ð¾Ð²
Ð»Ñı Ñİ
Ñı Ð±ÑĢÑĮ
ĠÑĤÐ°Ðº Ð¾Ð¼Ñĥ
Ġme ans
ĠÐ°ÑĢÐ¼Ð¸ Ñİ
ĠÐ²ÑĭÑħÐ¾Ð´ Ð¸ÑĤÑĮ
Ð¿Ð° Ð´Ð°ÐµÑĤ
ĠÐ´Ð²Ð¸Ð³Ð° ÑĤÑĮÑģÑı
Ġunder stand
ĠÐ¿ÑĢÐ°Ð² Ð¾Ð¼
ĠÐŀ ÑģÑĤÐ°
ĠÐĴÐ¾Ð· Ð¼Ð¾Ð¶
ĠÐ¡Ð° ÑĪÐ°
ĠÐĺ Ð´Ðµ
ĠÑĢÐµÐ·ÑĥÐ»ÑĮÑĤÐ° ÑĤÐ°Ð¼
ĠÐºÐ¾ ÑģÑĤÐ¸
ĠÐĸ Ð°Ð½
Ð´Ð° Ð¹
ĠÑĥÑĩÐ¸ÑĤÑĭ Ð²Ð°ÑĤÑĮ
ĠÐ±ÐµÐ· ÑĥÑģÐ»Ð¾Ð²Ð½Ð¾
Ð¼Ð° Ð¼Ð¸
ÑĢÑĥ ÑİÑīÐ¸Ðµ
ĠÐ³ÑĢÐ° Ð½Ð¸ÑĨÑĥ
ĠÐ¿Ð¾Ð´ÑĤÐ²ÐµÑĢ Ð¶Ð´Ð°
l in
ĠÑĥÐ¿ ÑĢÐ¾
ĠÐ¾Ð±ÑĬÐµÐº ÑĤÑĭ
ÑģÑĤ ÑĥÑİ
Ġsim ilar
ĠÐ±Ð¾Ð»ÑĮÑĪÐµ Ð²Ð¸
ÑĢÐ¸ ÑĤÐµÐ»ÑĮÐ½Ð¾
ĠÑģÑĢÐµÐ´ Ðµ
ĠÐ¾Ð±Ñĭ ÑĩÐ½ÑĭÐ¹
ĠÐ»Ð¸ ÑĦ
ĠÑĤÑĢÐ° Ð¼
ĠÐ¡Ð¾Ð²ÐµÑĤ ÑģÐºÐ¾Ð³Ð¾
ĠÐ¿ÑĢÐ°Ðº ÑĤÐ¸ÐºÐ¸
ĠÑĥÐ¼ Ð¾Ð»
ĠÐ´Ð¾ÐºÐ° Ð·Ð°ÑĤÑĮ
al t
Ġspe cial
F or
ĠÐĿÐ° Ð¸Ð±Ð¾Ð»ÐµÐµ
Ð½Ð° ÑĤÐ°
ĠÐ½ÐµÐ¾Ð±ÑħÐ¾Ð´Ð¸Ð¼ ÑĭÑħ
ĠÐŁÐ¾Ñĩ ÑĤÐ¸
ĠÑĤÑĢÑĥ Ð±Ñĭ
ĠÑģÐ°Ð¼ ÑĭÐ¼Ð¸
ĠÑģÑĤÐµÐº Ð»ÑıÐ½
ĠÐºÑĢÐµ ÑģÐ»Ð¾
ÑĤÐµÐ»ÑĮ Ð½Ð¾ÑģÑĤÐ¸
ĠÐ¦ ÐµÐ½Ð°
ÐŁÑĢÐ¸ Ð²ÐµÑĤ
ĠÐ²Ð½ÐµÑĪ Ð½Ð¸Ð¹
ĠC ount
ĠÑģÑĤÐ¾ÑĢÐ¾ Ð½Ð°
ĠÑģÐ¸ Ð´Ñı
ĠÑĢ Ð²Ð°
ÑĢ Ð¾Ð»Ð¸
Ð¶ Ð½ÑĭÐ¼
ĠÐŁÑĢÐ¾ Ð¸Ð·Ð²Ð¾Ð´
ĠÐ¿Ð¾Ð² ÑģÐµÐ´Ð½ÐµÐ²
Ðĺ ÐĿ
Ġv ideo
ĠÐŀÐ´ Ð½Ð¾
ĠÑĥÑħ ÑĥÐ´
ĠÐ·Ð°Ð¼ Ð¾Ð»
ĠÑģ Ð¼Ð¸
ĠÐ´ÐµÐ¿ÑĥÑĤÐ° ÑĤ
ĠÐ²ÑĭÑĢÐ° ÑīÐ¸
ĠÐºÐ¾Ð½ Ð´Ð¸
ĠÐ¾ÑģÑĤÑĢÐ¾Ð² Ðµ
ĠÐłÑĥ ÐºÐ¾Ð²Ð¾Ð´
ĠÑģÐ¿ ÐµÑĢ
ĠÐł ÑĥÐ±
Ġv iol
b um
Ġc over
ĠÐ¾ ÑĩÐºÐ¸
ĠÐĿÐ°ÑĤÐ°Ð»ÑĮ Ñı
ĠÐ¿ÐµÑĢÐµÐ³Ð¾Ð²Ð¾ÑĢ Ñĭ
ĠÐ³ Ð²Ð°ÑĢ
ĠÐĺÑģÐ¿Ð° Ð½Ð¸Ð¸
ĠÑģÑĤÑĢÐ¾Ð¸ÑĤÐµÐ»ÑĮ ÑģÑĤÐ²Ðµ
ĠÑĥÐ´Ð¸Ð² Ð¸Ð»ÑģÑı
ĠÐ²Ð½ÐµÑĪ Ð½Ðµ
ĠÐ²Ð¾ÑģÐ¿Ð¾Ð¼Ð¸Ð½Ð° Ð½Ð¸Ñı
he ad
ĠÐ¿ÐµÑĢÐµ Ð¹ÑĤÐ¸
ÑģÐ»Ñĥ Ð³Ð¸
ĠÐ¯ Ð½
ĠÐ²ÐµÑĢ ÑĤ
ÑĢÑĥ ÑİÑīÐ¸Ñħ
Ð¸Ð½ Ñı
ĠÐ¿ÑĢÐ¾Ð´ ÐµÐ¼Ð¾Ð½ÑģÑĤÑĢÐ¸
ÑĢÐ¸ Ð²
ĠÑĩÐµÐ¼Ð¿Ð¸Ð¾Ð½Ð° ÑĤÐ°
ÑģÐµ ÑĢÐ°
ÐŁÐ¾ÑĤ Ð¾Ð¼
ĠÐ¤ Ð¾Ð½
ÑĨÐµÐ½ÑĤ ÑĢÐ¸
Ġdisc uss
ĠÐ¸Ð· Ð´Ð°ÑĤÐµÐ»ÑĮ
ĠÐĺ Ð½Ð°ÑĩÐµ
ĠÐ½Ð¾Ð²Ð¾ ÑģÑĤÐµÐ¹
ĠÐ²ÐµÑĢÐ¾ÑıÑĤ Ð½Ð¾ÑģÑĤÑĮ
ĠÐĶÐ° Ð²Ð°Ð¹
ĠA fter
ĠÐĳ Ð»Ð¸
ĠÐ²ÑģÐµ Ð²Ð¾Ð·Ð¼Ð¾Ð¶
ÑĢÐ¾Ð² Ð¾
ĠÐ±ÑĥÐº Ð²Ñĭ
ĠÑģÑĥÑīÐµ ÑģÑĤÐ²Ð°
ĠÐ½ÐµÐ¿ÑĢÐ°Ð² Ð¸Ð»ÑĮ
ĠÐ° ÐºÑĥ
Ġf ight
Ð¡ Ð°
ĠÐ¾ ÑĩÐµÑĢ
Ġplay ers
ĠÐ´ÑĥÑħ Ð°
Ð¾ÑĢ Ð¾Ð´Ð°
ff ic
Ġcons ider
ĠÐ²Ð½ÑĥÑĤÑĢÐµÐ½ Ð½ÐµÐ³Ð¾
ĠÐ±Ð° Ð·Ð°
Ġl ive
Ð¾Ð³ Ð¾Ð¹
ÑĤÐ°Ðº ÑĤÐµ
Ñĥ ÑģÐµ
Ð¼ Ð°Ð»
ĠÐ·Ð° Ð±Ð¾ÑĢ
ĠÐºÑĢÐµ ÑģÑĤ
ĠÐ¢ÑĥÑĢ ÑĨÐ¸Ð¸
ĠÐĹÐ° Ð²
ĠÑĢÐµÑĪ Ð¸ÑĤÐµÐ»ÑĮÐ½Ð¾
ĠÑĨÐµÐ»Ð¸ ÐºÐ¾Ð¼
ĠÐ²Ñĭ ÑģÐºÐ°Ð·
ÑĥÑĤ Ñĭ
ĠÐºÐ¾Ð¼Ð¿ ÐµÑĤ
Ġen ergy
ĠÐ¿Ð¾Ð´ Ðº
ĠÐ¿Ð¾Ð³ Ð¾Ð²Ð¾ÑĢÐ¸
Ġfin al
ĠÑģÐ¾Ð·Ð´Ð° ÐµÑĤ
Ñİ ÑĢÐµ
Ġ: -
ĠÑģÐ¾Ð± Ð°
ĠÐ¿ÑĢÐ¸ÑģÐ¾ ÐµÐ´Ð¸Ð½
ĠÑĤÐµ ÑģÑĤ
ĠÐ¸ÑģÐ¿ Ð¾ÑĢ
Ġ8 00
ĠÐºÑĢÐ°Ñģ Ð½ÑĭÐ¹
ĠAmeric a
a id
ĠÐ¿Ð¾ÑģÐ» ÑĥÐ¶
ĠÐ¿ÑĤÐ¸ ÑĨ
Ð»Ñı Ð»ÑģÑı
Ġc ut
Ð½Ñĭ Ð½Ðµ
ad d
ĠÑĤÐ°Ð± Ð»ÐµÑĤ
ĠÐ¾ÑĢÐ³Ð°Ð½Ð¸Ð· Ð¾Ð²Ð°ÑĤÑĮ
ĠÐ¿ÐµÑĢÐµ ÐºÐ»Ñİ
her n
ĠÐ¼ÐµÑģÑĤ Ð½Ð¾ÑģÑĤÐ¸
e le
ÑģÑİ Ð´Ñĥ
ĠÐ¾Ð± Ð¸ÑĤÐ°
ĠÐ£ Ð·
Ð¼Ñĭ ÑģÐ»Ð¸
Ġcom b
i et
Ð²Ð° ÑİÑīÐµÐ¹
ĠÐ½Ðµ Ð²Ð¸Ð´Ð¸Ð¼
49 5
ĠÑĦÑĥÐ½Ð´Ð° Ð¼ÐµÐ½ÑĤ
ÐµÐ´ ÐµÑĤ
ĠÑĩÐ°ÑģÑĤÐ¸ ÑĩÐ½Ð¾
Ġpr act
ĠÐ· Ð´ÑĢÐ°Ð²
ĠA ug
ĠÐ²ÑĭÑģÐºÐ° Ð·ÑĭÐ²Ð°
ÑģÑĤÐ° Ñħ
Ġv ari
ĠÐ¿Ð¾Ð´ Ð°Ð»ÑĮÑĪÐµ
ĠÐ½ Ð¾Ð²ÑĭÐ¼Ð¸
ÑĢÐµ ÐºÐ¸
ĠÐ» ÐµÐ´Ð¸
ĠÐ²Ñĭ Ð¿Ð¸
Ð² Ð·
ĠÐ¼Ð°Ñģ ÑģÐ¾Ð²
ĠÐ£ Ð½Ð¸Ð²ÐµÑĢÑģ
ĠÐ¾ÑĤÐ·Ñĭ Ð²
ĠÑįÑĦÑĦÐµÐºÑĤÐ¸Ð² Ð½Ð¾
Ð»Ñı Ð¼Ð¸
Ġavail able
Ð¸Ð· Ð½ÐµÑģ
ĠApp le
ar ing
ĠÐ±Ð¾Ð»ÑĮÑĪ Ð¾Ð¼
Ð´ÐµÑģÑı ÑĤÐ¸
ĠÐ¿Ð¾Ð¹ Ð´Ñĥ
Ä Ĳ
ĠÐ´Ð¸ ÑģÑĤÐ°Ð½
ĠÐ¿ Ð»Ð¸ÑĤ
ĠÐŁÑĢÐµÐ´ ÑģÐµÐ´Ð°
ĠÐ»Ð°Ð´Ð¾ Ð½Ð¸
ÑĪ Ð°ÑĤ
ĠÐ²Ð¾ÑģÑģÑĤÐ°Ð½Ð¾Ð² Ð¸ÑĤÑĮ
ĠÑĥÐ¶Ð°Ñģ Ð½Ð¾
ĠÐ·Ð°Ñı Ð²Ð¸Ð»Ð°
Ñĥ Ð½Ð°
ĠÑĥÑĩÐ° ÑģÑĤÐ²Ð¾Ð²Ð°ÑĤÑĮ
ĠÐ¿ÑĤÐ¸ ÑĨÑĭ
ĠÑĢÐµ ÐºÐµ
Ġch o
ÐºÐ° ÑİÑĤ
ĠÐ¿Ð»Ð°Ð½ ÐµÑĤÐµ
ĠÐ²ÑĭÐ½ÑĥÐ¶Ð´ ÐµÐ½
ĠÑĢÐµ Ð»ÑĮ
Ð¸Ð² ÑĪÐµÐ³Ð¾
ĠÐ¡Ð¿ Ð°Ñģ
ĠÑĩÐµÑĢ Ð½ÑĭÐµ
Ð¾Ð²ÐµÑĤÑĥ Ð¹ÑĤÐµ
ĠÐ§ ÐµÐ»ÑıÐ±Ð¸Ð½
ĠÐ³ÑĢÐ° Ð½Ð¸
Ð¢ ÐµÐ¼
ĠÐ¿Ð»Ð°Ð½ ÑĪ
ĠÐĵÐµ Ð¾ÑĢÐ³
ĠÐ³Ð¾ÑĢÐ¸Ð· Ð¾Ð½ÑĤ
ĠÐ³ÐµÑĢÐ¾ Ñı
ĠÐ±ÐµÐ» Ð¾Ð³Ð¾
ĠÐĸ Ð¸Ð²
ĠÑģÑĥÑīÐµ ÑģÑĤÐ²Ð¾
ĠÐ¿Ð¾ÑĤÑĢÐµÐ±Ñĥ ÐµÑĤÑģÑı
ĠÐ¿Ð¾Ð´Ð¿Ð¸ ÑģÐ°
ĠÐ²ÑģÐ¿ ÑĭÑħ
ÑĢÐ¸ ÑĦ
ĠÑĨ Ñĭ
ĠÐŁÑĢÐ¸ Ð²ÐµÑĤ
ĠÑĥ ÑĪÐ»Ð¸
ĠÐ¼Ð¾ Ñĳ
ĠÑĢÐµÑĪ ÐµÐ½Ð¸Ñİ
ĠÑģÐµÐº Ñģ
ÑĪÐµÐ½ Ð½ÑĭÐ¹
ĠÐ¿Ñĥ Ð»ÐµÐ¼
ĠÑģÐºÐ° Ð¶Ð¸ÑĤÐµ
ĠÐ¾ÑĤ Ð¾Ð±ÑĢÐ°
ĠÑģÐ»ÐµÐ´ ÑĥÑİÑīÐµÐ³Ð¾
ound s
ou d
ĠÐ¼ÑĭÑĪ ÑĨÑĭ
ĠÑį Ð¼Ð¸
ĠÐĳ Ð¸Ð±Ð»Ð¸
ĠE l
ĠÑģÑĤÐ¸ Ð¼ÑĥÐ»Ð¸
ÑĩÐ¸ÑĤ Ðµ
ĠÐµ Ð»Ðµ
ĠÑĦÑĢÐ¾Ð½ ÑĤ
ĠÑĤÑĥÐ°Ð» ÐµÑĤ
ĠÑĢÐ°Ð·Ð¼Ðµ ÑīÐµÐ½Ð¸Ñı
Ð»Ñĭ Ð¼Ð¸
ĠÐ¿Ð¾ ÑģÑĤÐ¸
ĠÐ¾Ð´ ÐµÑĤ
Ġcurr ent
Ð² Ð¾Ð±Ð¾Ð´
Ñĩ ÐµÐ»Ð¾Ð²Ðµ
ĠÐ´ÐµÑĤ Ð°Ð»ÐµÐ¹
ĠÐłÐµ Ð³Ð¸
O M
ĠÐ´ÐµÐ² ÑıÐ½Ð¾
e f
ĠÐ° ÑĢÐ°Ð±
ĠÐ¿ÑĭÑĤ Ð°Ð»Ð°ÑģÑĮ
ĠÐĿÐ¸Ðº Ð¾Ð³Ð´Ð°
ĠÐ³Ð¾Ð» Ð¾Ð´Ð°
ÑĨÐ¸ Ð½Ð°
Ð½Ñİ Ð´ÑĮ
Ġad min
Ð¸Ð¼ Ð°Ñı
ĠÐļ ÐµÐ¹
Ð¼ Ð½Ðµ
Ðł Ð¾Ð´
Ð¼Ñĭ Ð¹
A l
ĠÐºÐ°ÑĢ ÑĤ
ĠÑĤÐ²Ð¾ Ñİ
ĠÑĩÐµÑĢ ÑĤÑĭ
ÑĤÐµÐ»ÑĮ Ð½ÑĥÑİ
ĠÐºÐ²Ð°ÑĢ ÑĤ
Ġ4 8
Ð°ÑĤÐµÐ»Ñı Ð¼
ĠÑĢÐ¾Ñģ ÑģÐ¸ÑıÐ½
r is
ĠÐ¿Ð¾Ð³ Ð»Ð¾
ĠÑģÐ» ÑĥÐ¶ÐµÐ±
ÑĤÐ° Ð½Ð°
ÐĽ Ð¯
ĠÐ¾Ð±ÑĬÑıÐ² Ð¸Ð»
Ð»Ð¸ Ð²ÑĭÐµ
ĠÑįÐº ÑĢÐ°Ð½
ĠÐ± Ð°ÑĤ
ra v
ĠÐ½Ð°Ð´Ðµ Ð¶Ð´Ñĭ
ĠÑħÐ¾Ð´ Ð¸ÑĤ
ÐµÐ½Ðµ ÑĨ
Ġun i
ĠÑģ Ð°Ð»Ð¾
Ð½Ð¾Ð´ Ð°ÑĢ
ÐĲ Ðł
Ð¾Ð»Ð¾Ð³Ð¸ ÑĩÐµÑģÐºÐ¾Ð³Ð¾
Ġ Ã
ĠÐ·Ð´ÑĢÐ°Ð²Ð¾Ð¾ÑħÑĢÐ°Ð½ ÐµÐ½Ð¸Ñı
ĠÐ¼ÑĥÐ½Ð¸ÑĨÐ¸Ð¿ Ð°Ð»ÑĮÐ½Ð¾Ð³Ð¾
ĠÐĴ ÐµÑĤ
ÐĶ ÐĶ
Ð¾Ð·Ð½Ð° ÑĩÐ½Ð¾
ĠÐ¶ÑĥÑĢ Ð½
ĠR ob
ĠÑĦÐ¸Ð½Ð°Ð½Ñģ Ð¾Ð²ÑĭÑħ
ÑģÐ»ÑĥÐ¶ Ð°
ĠÐº ÑĢÑİ
ĠÐ´ÐµÑĤ ÐµÐº
ĠÐ´Ð¾Ðº ÑĤÐ¾ÑĢÐ°
ĠÐ¸Ð´Ðµ Ð°Ð»ÑĮÐ½Ð¾
ĠÐ¸Ð· Ð¾
ĠÑĥÑģÐ»Ð¾Ð² Ð¸Ð¸
ĠÐºÐ»ÐµÑĤ ÐºÐ¸
Ð¾Ð¹ Ð´Ñı
ĠÐ² Ð°Ð½Ð½Ð¾Ð¹
Ġind ust
ĠÐŁ Ð½
ĠÐĽÐ¸ ÑĪÑĮ
Ð¶Ðµ Ð²
ĠÐ£ ÑĩÐ°ÑģÑĤ
ĠÐ¿Ð¾Ð³ ÑĢÑĥÐ¶
ĠÐ·Ð°ÐºÐ»Ñİ ÑĩÐµÐ½Ð¸Ñı
ĠÐ³ Ð¾Ð²
Ð³ ÑĢÐ°Ð½
Ġe t
Ġlike ly
Ðĸ ÐµÐ½
ĠÐĳ ÐµÑģÐ¿
ĠÐ´Ð¾Ð» Ñİ
ÑĢÐ°Ð±Ð¾ÑĤ Ð°
ÐµÐ½Ð¸ ÑĤ
ĠÐ¡ ÑĢ
Ġsu re
Ð½Ð¾Ð² Ð¾Ð¹
ĠÑģÐ»ÑĥÐ¶ Ð±Ð°
ÑĢÐ° ÑģÑĤ
end er
ĠÐ¿Ð¾Ð»ÑĥÑĩ Ð¸ÑĤ
ĠÐ¾ÑĤ ÑĢÐ°Ð²
ÑĢÐ¾Ð²Ð°Ð½ Ð½Ð¾Ðµ
ÐµÐ² Ð°Ð»
ĠÑĢÐ°ÑģÑħÐ¾Ð´ Ð¾Ð²
ĠÐ¼Ð°ÑĢ ÑĤÐµ
ĠÐ²Ð¾ÑģÐºÐ»Ð¸Ðº Ð½ÑĥÐ»
ĠM arch
ĠÑħÑĥÐ´Ð¾Ð¶ Ð½Ð¸Ðº
ĠÐ¾ÑĪÐ¸Ð± Ð¾Ðº
ĠÑģÐ¾ Ð¾ÑĤÐ½Ð¾
Ð½ ÐµÐ»
h am
Ð²Ð° ÑĤÐ¸
ĠÐ»ÑİÐ± Ð¸ÑĤÐµ
ĠÐ° Ð²Ð°Ð½
ĠÐ¿Ð¾Ð½ÑĢÐ°Ð² Ð¸Ð»ÑģÑı
ĠS m
ĠÐ¼ÐµÐ¶Ð´ÑĥÐ½Ð°ÑĢÐ¾Ð´ Ð½Ð¾Ð³Ð¾
ÐµÐ»Ð¸ ÑģÑĮ
Ġask ed
ĠÑıÐ² Ð»ÐµÐ½Ð¸Ðµ
ĠÑģÐ° ÑħÐ°ÑĢÐ°
ÐĿ Ð¾Ð²Ð¾
Ð± Ð°ÑĤÑĭ
Ġre pl
ĠÐ±Ð¸Ð» ÐµÑĤ
ÐŃÑĤÐ¾ ÑĤ
ĠÐ½Ð° ÑģÐµ
Ð¾ÑĢÐ¾ÑĪ ÐµÐ½ÐºÐ¾
ĠÑħÐ¾Ð»Ð¾Ð´ Ð½Ð¾Ð¹
Ðļ Ð£
ĠÑĤÑĢ ÐµÐ½Ð¸Ð½
ĠÑģÐµÑĤ ÑıÑħ
ĠÑĢÑĥ Ñħ
ĠÐ·Ð° Ð³Ð¾ÑĤÐ¾Ð²
ĠÑĤ ÑıÐ½
ĠÑĤÐ²ÐµÑĢ Ð´Ð¾
ĠÐ¿Ð¾Ð» Ð½Ð°Ñı
ĠÐ¾Ñħ Ð»Ð°
ĠÐ² ÑĢÐ°Ð¶
ĠÐĴ ÑģÑĤÑĢÐµ
ĠÐ¼ÑĥÑģÑĥÐ»ÑĮ Ð¼Ð°Ð½
ĠÐ¿ÑĢÐ¾Ð´ÑĥÐº ÑĨÐ¸Ñİ
ĠÐ¿Ð¾ÑģÐµÑĤ Ð¸ÑĤÑĮ
ĠÐ¿ÑĢÐ¸Ð½Ð°Ð´ Ð»ÐµÐ¶Ð°
ĠÐ¼ÐµÑħÐ°Ð½Ð¸Ð· Ð¼
Ġin it
ĠÑĤÐµÑĢ Ð¼Ð¸Ð½
Ġt it
ĠÐ¿ÑĢÐµÐ¸Ð¼Ñĥ ÑīÐµ
ÐĹÐ½Ð° ÑĩÐ¸ÑĤ
ĠÑģÐ¿Ð¾ÑģÐ¾Ð± Ð¾Ð²
ĠÐ¸Ð· Ð±Ð¸
ĠÐ¿Ð¾Ð³Ð¸ Ð±Ð»Ð¸
ĠÑģÐ»Ð°Ð² ÑıÐ½
ĠÑģÑģÑĭÐ» ÐºÑĥ
ĠÐ¿ÐµÑĢÐµ Ð²ÐµÑĢ
ĠÐ²ÑĢÐ° ÑĩÐµÐ¹
ĠÐ¾ÑĤÑģÑĥÑĤ ÑģÑĤÐ²Ð¸Ñı
ĠÐ¿ÑĢÐµÐ´ Ð¼
ĠÐĳÐ¾Ð³ Ð¾Ð¼
ĠÑĢÐ°Ð· ÑĬ
ĠÐ³Ð°Ð· ÐµÑĤÐ°
ĠÐ¸Ð´ÐµÐ½ ÑĤÐ¸
ÑĤ ÐºÐ¾Ð²
ĠÐ² ÑģÑĤÑĢÐ¾
ĠÐ·Ð°ÐºÐ¾Ð½ Ð¾Ð¿ÑĢÐ¾
ĠÑģÑĭ Ð½Ð¾Ð²
ĠÐĹÐµÐ¼ Ð»Ñı
ĠÐ·Ð°Ð½Ð¸Ð¼Ð° ÑİÑĤÑģÑı
ÐºÐ° ÑĥÐ½
ĠH er
ÐĲ ÐĹ
Ġdo ing
ĠÐ½Ð°Ð²ÐµÑĢ Ð½Ð¾
ĠÐĵ Ð¾Ð½
Ð²Ð¸ Ð½Ð°
ĠÑıÐ² Ð»ÐµÐ½Ð¸Ñı
ÐµÐ½Ñĭ Ð¼
ĠÐ¿ÑĢÐ¸Ð½Ñı Ð»ÑģÑı
" !
ĠÑĥÐ²ÐµÑĢ ÐµÐ½Ð°
ist ic
ÑĢÑı Ð¼Ð¸
ĠW est
Ġserv ice
ÑĥÑģ Ð¾Ð²
ĠÑĥÑģÑĤÑĢÐ¾Ð¹ ÑģÑĤÐ²
ĠÐ¾ÑĢÑĥÐ¶Ð¸ ÐµÐ¼
ĠÐ¡Ð¾ ÑĩÐ¸
ĠÐ½Ð° ÑģÑĤÐ°Ð²
ĠÐ¸ Ð½Ð¾Ð³Ð¾
ĠÐ¸Ð½ÑĤÐµÑĢÐµÑģ ÑĥÐµÑĤ
ĠÐ³ÑĢÐ°Ð¶Ð´Ð° Ð½Ðµ
ĠÐ¿ÑĢÐµ Ð»Ðµ
ĠÑģÐ»ÐµÐ´ ÑģÑĤÐ²Ð¸Ðµ
ĠÑģÐ»ÐµÐ´ÑĥÑİÑī ÐµÐ¹
Ġal most
E D
ĠÐ¿Ð¾Ð¼ Ð¾Ð»
Ġ4 4
ĠÑĩÑĥÐ² ÑģÑĤÐ²ÑĥÐµÑĤ
ĠÐ¡ÑĤ ÑĢÐ¾
Ðľ ÐµÐ½Ñı
Â» ?
Ġs ix
Ð¼Ð° ÑĤÑĭ
Ð¸Ñħ Ð°
ĠÐ·Ð°Ð¼ÐµÑĤ Ð¸Ð»Ð¸
Ġcomple te
Ð¿ Ð°ÑĤÑĮ
ĠÐ²ÑĭÑıÑģ Ð½Ð¸ÑĤÑĮ
eder al
Ð¾Ðº Ðµ
ĠÐĴÐ°Ð» ÐµÐ½ÑĤÐ¸
ĠÐ´Ð¾ÑģÑĤÐ¸ ÑĩÑĮ
Ð¼Ñĭ Ðµ
ĠÐ¿ÑĢÐ¾ÑĦ Ð¸Ð»ÑĮ
ĠÐº ÑĥÑĪ
ĠC or
ĠÐĽÑİÐ± Ð¾Ð²ÑĮ
Ñİ Ð½
ĠÑģÐ¿Ñĥ ÑģÐº
ĠÐ¿Ð»Ð°Ð½Ð¸ ÑĢÑĥÐµÑĤÑģÑı
ĠÐ¼Ð°Ð½Ð¸ Ð¿Ñĥ
os ted
ĠÐ¿ÑĥÐ½Ðº ÑĤÐ¾Ð²
Ð°Ð»Ð¸ ÑģÑĤÐ¸
ĠÐ¾Ð±Ñĭ ÑĩÐ½Ð¾Ð¹
ivid ual
ĠÐ¿ÐµÑĢÐµ ÑĩÐ¸ÑģÐ»
ĠÑĦ Ð»Ð°Ð³
ĠÐ¾ÑģÐ½Ð¾Ð² Ð½ÑĭÐ¼
Ġpart y
ĠÐ´Ð° Ð±Ñĭ
ĠÑĥ Ð²
ÐµÐ»Ñı Ð¼
ĠÐ²ÑģÑĤÑĢÐµÑĩÐ° ÑİÑĤÑģÑı
Ð¿Ñĥ ÑģÐº
ĠÐ±Ð° Ð³Ð°
ĠÐ½Ð° Ð±Ð¸ÑĢÐ°
Ð¾Ð¿Ð¸ ÑģÐ¸
Ð± ÐµÑģ
Ġm or
ĠÐ¿ÑĢÐ¸ ÐµÑħÐ°Ð»Ð¸
ĠÑįÐºÑģÐ¿ÐµÑĢÐ¸ Ð¼ÐµÐ½ÑĤ
ĠÑĨÐ°ÑĢ Ñı
ĠÐļÐ°Ð· Ð°Ð»Ð¾ÑģÑĮ
3 00
ĠÐ¿Ð¾ ÑĤÑĥ
Ð»Ñİ Ñģ
ĠÐ±Ðµ ÑĤÐ¾Ð½
Ð¸Ð¼ Ñĭ
ĠÐŀÑĤ ÐºÑĥÐ´Ð°
ĠÐºÐ¸Ð² Ð½ÑĥÐ»Ð°
r an
ĠÐ¿Ñĭ Ð»Ð¸
ĠÐ¸Ð· Ð±Ñĭ
Ð³ ÑĢÐµ
ÐµÑĢÐ± Ð°Ð¹
Ð´Ð° Ñİ
ÑĤÐµ Ð°ÑĤ
ĠÐ²Ð¸Ð½ Ð¾Ð²Ð°
ĠÑĩÐµÐ»Ð¾Ð²Ðµ ÑĩÐµÑģÐºÐ¾Ð¹
ĠÑĢÐ°Ð·Ð´ Ð°Ð»ÑģÑı
ĠÐ´Ð¸Ð¿Ð»Ð¾Ð¼ Ð°
ĠÑĢÐ°Ð±Ð¾ ÑĩÐ¸Ðµ
ĠÐķ Ð³Ð¾ÑĢ
ÑĦ Ð¾Ð½Ð°
ĠÐĹ Ð²
ĠÐ° Ð¶
ĠÑģÐ½Ð¸Ð¼Ð° ÑĤÑĮ
ĠÑģÐ½Ñı Ð»
ĠÑĥÑħÐ¾Ð´ Ð°
ĠÐ½Ðµ Ð³Ð¾Ð´
ÐµÐ» ÐµÑĤ
ĠÐ½Ðµ Ð¿Ð¾Ð»
ĠÑĥÐ¿ Ð»Ð°
ĠÐ´Ñı Ð´Ñı
ĠS ep
ĠÑģÐ»Ð¾Ð² Ñĥ
ĠÐ±Ð¾ÑĢÑĮ Ð±Ð°
ĠW ill
ÑģÐ¿ Ð¾ÑĢÑĤÐ°
ĠÐ¾Ð´Ð¸Ð½ Ð¾Ðº
ĠÑĥ Ð²Ð¾Ð»
ĠÑĩÐµÐ»Ð¾Ð²ÐµÐº Ðµ
ĠÐ¾Ð¿ Ð¾Ð·
ĠÐ½Ðµ ÑģÐ¾Ð²ÐµÑĢÑĪÐµÐ½
ĠÑĨ Ð²Ðµ
ĠÐ¾Ð±Ñī ÐµÐ½Ð¸Ðµ
ĠÑĢÐ°Ð´Ð¸ Ðº
Ð¾Ð»Ðµ Ð²Ð°
Ð³ Ð¸Ð¹
ro te
ĠÑįÐ¼Ð¾ ÑĨÐ¸Ð¹
ĠÑĢÐ°Ð·Ð»Ð¸Ñĩ Ð½ÑĭÐ¼Ð¸
ĠÐºÐ¾Ð¼ Ð±Ð¸Ð½Ð°
ĠÐ²ÑĢÐ° Ð³Ð¾Ð²
ĠÐ³Ð»Ð°Ð² Ð½Ð°Ñı
ĠÐ¿ÑĢÐ¾ÑģÑĤ Ð¾ÑĢ
ĠÐ± Ð»Ð¸Ð½
. ].
Ġ0 7
ĠÐ¸Ð¼Ñĥ ÑīÐµÑģÑĤÐ²Ð¾
ĠÑħÐ°ÑĢÐ°ÐºÑĤÐµÑĢÐ¸ ÑģÑĤÐ¸
Ġpot ential
ĠÐ¾ÑģÐ» Ð¾Ð¶
ĠÐ´ÑĥÐ¼Ð° ÑİÑĤ
ĠÐºÑĢÐ¸ ÐºÐ½ÑĥÐ»
Ð½Ñı ÑĤÑĮÑģÑı
ĠÑĩ Ð°Ñı
ĠÐ¾Ð± ÑĪÐ¸ÑĢ
ĠÐĳ Ð¾Ð³Ð¾
ĠÐ²Ð°Ð¶ Ð½ÑĭÐ¼
ĠÐ¿Ð¾Ð´ Ð´ÐµÑĢÐ¶Ð°
ÑĢÑĥÐ´ Ð½Ð¾
ĠÑįÐ² Ð°ÐºÑĥ
ĠÐ¾ÑĤÐ¼Ðµ ÑĩÐ°ÐµÑĤ
Ð²Ð° ÑģÑĤ
Ġc oun
ĠÐ¿Ð¾Ð´ Ð¾Ð¶
ĠÑĢÐ°Ð´Ð¾ ÑģÑĤÑĮÑİ
ĠÑħ Ð¾Ðº
ĠÐ¿ÑĢÐµÐ´Ð¾ ÑģÑĤÐ°Ð²Ð¸ÑĤÑĮ
ĠÐ¿Ð¾Ð»Ð¾Ð¶ Ð¸ÑĤÑĮ
ĠÐ¸ÑģÑĤÐ¾Ñĩ Ð½Ð¸ÐºÐ¸
ĠÐŁÐ¾Ð± ÐµÐ´Ñĭ
ĠÐ¿Ð°ÑĨÐ¸ ÐµÐ½ÑĤÐ¾Ð²
ĠÐŁÑĢÐ°Ð² Ð¸ÑĤÐµÐ»ÑĮÑģÑĤÐ²Ð°
ĠÐ¿ÑĢÐ¾ ÑĩÐ¸ÑĤÐ°ÑĤÑĮ
ĠÐĺÐ½ Ð´Ð¸Ð¸
ĠÑģÐ¾Ð³Ð»Ð°Ñģ ÐµÐ½
ĠÐ¾Ð±ÑĬ ÐµÐ´Ð¸
ĠÑĥ ÑģÑĤÐ°Ð»
Ð¸Ð¼Ð¾ ÑģÑĤÑĮÑİ
ĠÑģÐºÐ°Ð· ÐºÐ¸
Ð¾Ð¿ ÑĢÐ¾Ð²Ð¾Ð´
Ġper iod
A d
ob al
Ð³ Ð¾Ð»ÑĮ
ĠÐ¿Ð¾Ð´ Ð¾Ð¹Ð´ÐµÑĤ
ĠÐ¸Ð·Ð¼ÐµÐ½ ÐµÐ½Ð¸Ðµ
ĠÐ¿Ð¾Ð´ Ð²Ð¸Ð¶
ĠÐ·Ð°Ð¿Ð»Ð° Ð½Ð¸
ĠÐ¿ÐµÑĢÑģÐ¾Ð½ Ð°Ð»Ð°
ĠÐ²Ð¼ÐµÑĪ Ð°ÑĤÐµÐ»ÑĮ
Ġst ates
ĠÐ¿Ð»Ð° Ð²
ĠÐ±Ð»Ñİ Ð´Ð°
ĠÑĥ ÑģÑĤÑĢÐ°Ð½
Ġre ason
ĠÐ¦ ÐµÑĢÐºÐ¾Ð²
ĠÐ¾ÑĤÐºÑĢÑĭ Ð»Ð°
ĠÐł Ð¾Ð·
Ð»Ð¸ ÑĨÐ°
ĠÐ½Ð¸ ÑĩÑĤÐ¾
ĠÐºÐ¾Ð¼ Ð¸ÑĤÐµÑĤ
Ġ199 2
pe cted
ĠÐºÐ°ÑĢ ÑĤÐ°
ĠÐ·Ð² ÑĥÑĩÐ°
107 8
ĠÑįÑĦÑĦÐµÐºÑĤÐ¸Ð² Ð½Ð¾ÑģÑĤÑĮ
ĠÑģÐ¿ ÑĢÑıÑĤ
ĠÐŀ Ð±Ðµ
ĠÑĤ Ð¸ÑĤÑĥ
ĠÐŀ Ð¼
Ð¸Ð· Ð²ÐµÑģÑĤ
ĠÐ²Ð¸Ð´ ÑıÑĤ
as k
m et
ĠÐ½ÐµÑĦ ÑĤÑĮ
ĠÐĹÐ° Ð¿
Ġ199 6
ĠÐ°Ð½Ð³Ð»Ð¸Ð¹ ÑģÐºÐ¸Ð¹
ĠÐ» ÑĥÐºÐ°
Ġex c
ĠÑģÐ½Ðµ Ð³Ð°
ÐµÑĢÑĮ ÐµÐ·
ĠÐ¾ÑģÐ¾Ð± Ð¾Ð¹
ĠÐ½Ð°ÑģÐ»Ð° Ð¶Ð´Ð°
E T
ĠÐ¸Ð³ÑĢÐ° ÑİÑĤ
ĠÐµÐ´Ð¸Ð½ ÑģÑĤÐ²ÐµÐ½Ð½ÑĭÐ¼
ĠÐ¡ÑĤ ÑĢÐ°Ð½
ĠÐ¿Ð¾Ð´Ð°ÑĢÐ¸ ÑĤÑĮ
ĠÐŁÐ¾Ñħ Ð¾Ð¶Ðµ
ĠÐºÐ°Ð¼ ÐµÑĢÑĭ
ĠÑģÐ²Ð¾ ÐµÐ²
ĠÑħÐ¾Ð´ Ð¸Ð»
Ð½ÐµÐ¹ ÑĪÐ¸Ð¹
Ð¾Ð»Ð¾Ð³Ð¸ ÑĩÐµÑģÐºÐ¸Ð¹
ĠÐ³ÐµÑĢ Ð¼Ð°Ð½
ĠÐĶÑĢÑĥÐ³ Ð¸Ðµ
ĠÐ½Ð¾Ð²Ð¾ ÑģÑĤÑĮ
ĠÐ¿ÑĢÐ¾Ð´ÑĥÐº ÑĤÐ°
ĠÐ¿ÑĢÐ¾ÑģÑĤ ÑĭÑħ
ĠÐ»ÐµÐ´ Ñı
ĠÐ¿Ð¾Ð» Ñİ
ĠÐ»Ð°Ð´ Ð¾Ð½
A D
ÐµÐ² ÑģÐºÐ¸Ð¹
ĠÐ¼ÐµÐ» Ð¾Ð´
ĠÑĨÐ¸Ð²Ð¸Ð»Ð¸ Ð·Ð°ÑĨÐ¸Ð¸
Ġt aken
ĠÐ°Ðº ÑģÐµÑģÑģÑĥ
ĠÐ±ÐµÑĢÐµ ÑĤ
ĠÐ½ÐµÐ·Ð½Ð° Ñĩ
ĠJ une
ĠÑģÐ¾Ð¾Ð±Ñī Ð¸ÑĤÑĮ
Ġsign ific
Ġ199 7
ĠM y
ĠÐ¼ÐµÑĤ ÑĢÐ°
A M
ĠÐ¾ÑĤ ÑĢÐ°Ð¶Ð°
ĠÐĳ ÑĥÑĢ
Ġhow ever
ĠÑģÐµ ÑģÑĤÑĢÑĭ
om an
ĠÑĤ Ð°Ð»Ð¸
ĠÐ°Ð²Ð³Ñĥ ÑģÑĤÐµ
ĠÐ³Ð»ÑĥÐ¿ Ð¾
ĠÐ¼Ð¾ÑĢ ÑģÐºÐ¾Ð¹
ĠÐ¶ Ð´Ð°Ð»Ð¸
Ġ3 9
ĠÐ½ÐµÐ¿ÑĢÐ¸ ÑıÑĤÐ½Ð¾
ĠÐ¿ÑĢÐ¾Ñħ Ð»Ð°Ð´
ĠÐ¿ Ñı
ĠÐ¼ÑĥÐ¶ Ð¸Ðº
Ġ âĢ¦
ĠÑĥ ÑĢÐ¾Ð´
ĠÐ¾ÑģÐ½Ð¾Ð² Ñĥ
ĠÐ¡ÑĤÐ° Ð²
p x
Ð±Ðµ ÑĢÐ¸ÑĤÐµ
ĠÐ°Ð½Ð³Ð»Ð¸Ð¹ ÑģÐºÐ¾Ð³Ð¾
ĠÐ³Ð¾ÑĢÐ¸Ð· Ð¾Ð½
ÑģÐ¸ Ð½Ñĭ
Ð³ ÑĢÑĥÐ·
ĠÐ³Ð°Ð· ÐµÑĤ
ĠÑģÑĥÐ¼ ÐµÐ»
s w
ĠÑĥÐ´Ð° ÑĢÐ°
ĠÐ¼Ð½Ð¾Ð³Ð¾ÑĩÐ¸ÑģÐ» ÐµÐ½Ð½ÑĭÐµ
ÑĦÐ¸ ÑĨÐ¸Ð°Ð»ÑĮ
ĠI S
ĠÑĢÐ°ÑģÑģÐ¼Ð°ÑĤÑĢÐ¸ Ð²Ð°ÑĤÑĮ
ĠÑĤÐµ ÑĩÐµÐ½Ð¸Ð¸
ĠÐ¼ÐµÑģÑĤ Ð¾Ð¼
ĠÐ¼ ÐµÐ¼
ĠÐĲÐ½Ð´ÑĢÐµ Ñı
ĠÑħ ÑĢÐ¾Ð½Ð¸
ĠÐ¸Ð½ÑĤÐµÐ» Ð»Ð¸
ĠÐ² Ð¸Ð»
ĠÐ¿ÑĢÐµÐ¿Ð¾Ð´Ð° Ð²Ð°ÑĤ
ĠÐ»Ð¾ÑĪÐ° Ð´Ð¸
ĠÐŀÑģÐ½Ð¾Ð² Ð½ÑĭÐµ
Ð²Ð° Ð½Ðµ
ĠÐ°Ð³ÑĢÐµÑģ ÑģÐ¸Ð²
Ð°Ð½ Ð½Ð¾Ð¼
ĠÐ¾Ð³ÑĢÐ°Ð½Ð¸ ÑĩÐµÐ½Ð¸Ñı
pr il
ĠÐ´Ð¾Ð»Ð³Ð¾ Ðµ
Ġd iv
Ġacc ount
ĠÐ±Ð¾ ÐµÐ²Ð¾Ð¹
Ġd om
ĠÐ¾ÑĪÐ¸Ð± ÐºÑĥ
ÐĴ Ð¾Ð»
Ñı Ñİ
Ð½Ð¸Ñĩ Ð½Ð¾Ð¹
Ð¸Ð½ Ð¾Ðº
ĠÐ¿Ð¾Ð» Ð½ÑĭÐ¼
Ð±Ð¸ Ð»Ð°
ĠÐ°ÑĢÐµ ÑģÑĤÐ¾Ð²
ĠÑħÐ¾Ð´ ÑıÑĤ
ĠÐ¿ÑĢÐ¸Ð½Ð¸Ð¼Ð° ÑİÑĤ
ĠÐĽ ÐµÐ½
ĠÑĢÐ°Ð´Ð¾ ÑģÑĤÐ½Ð¾
ĠÑĢÐ°ÑģÐ¿Ð¾Ð» Ð°Ð³
ĠÐ·Ð° ÑĢÑı
Ð¼ Ð¾Ð´
ĠÑĥÐ²Ð¸ Ð´ÐµÐ²
ÐºÐ»Ð°Ð´Ñĭ Ð²Ð°ÑĤÑĮ
ĠÐ¾ÑĤ ÑĢÑĭ
ĠÐ³Ð¸Ð± ÐµÐ»Ð¸
ĠÐ´ÑĢÐµÐ² Ð½Ð¸Ñħ
ĠÐ´Ðµ ÑıÑĤ
ĠÑģÐ»ÑĭÑĪ Ð°Ð»Ð°
Ñģ ÐµÑĤ
ĠÐ²Ð·Ð³Ð»Ñı Ð´Ð°
Ġac cess
ĠÐ¡ ÑĢÐ°Ð·Ñĥ
ĠÐĲÐ½ ÑĤÐ¾Ð½
ĠÑģÑĥÐ´ Ðµ
ÑĢÐ¾Ð¼ Ñĥ
Ð¶Ð´ Ð¾Ð¹
ĠÐ¿ÐµÐ¹ Ð·Ð°
ĠÑĦÐ» Ð¾ÑĤÐ°
ĠÐ¿ÑĢÐ¸Ð²Ð»Ðµ ÑĩÑĮ
ĠÐ¿ÑĢÐµÐ´ Ð»Ð°Ð³
ĠÑģÐ»Ð¾Ð²Ð° Ñħ
ĠÐ²Ð¾Ð·Ð½Ð¸ÐºÐ° ÑİÑĤ
Ġ194 5
ĠÑĨ Ð¸ÑĤÐ¸
ĠÐ²Ðµ ÑģÐ°
Ñī ÐµÐ½Ð½Ð¾Ð¹
ĠD ep
ĠÑĥÐ· Ð½Ð°Ð»Ð°
ĠÐ¿ Ð»Ñĭ
Ñī ÑĳÐ½
ĠÐºÐ¾Ð¼Ð¿ÑĮÑİ ÑĤÐµÑĢÐ°
ĠÑĢÐ°ÑģÑĪÐ¸ ÑĢÑı
ĠÐ¼ÐµÐ´Ð¸ÑĨÐ¸Ð½ ÑģÐºÐ¾Ð¹
ĠÑĤÐµÐ°ÑĤ ÑĢÐ°Ð»ÑĮ
ĠÐ¿Ð¾Ð² ÐµÑĢÐ¸ÑĤÑĮ
ĠÐ¸ Ð½Ð¾Ðµ
Ġst ruct
Ð²Ð° Ð¼
ĠÐ¼Ð°Ð³Ð°Ð· Ð¸Ð½Ð¾Ð²
ÐŁ Ð°ÑĢ
ĠÐ¸Ð·ÑĥÑĩ ÐµÐ½Ð¸Ñı
ĠS en
ĠÐŁ ÑĢÐ°Ðº
ĠÑģÐµ Ð³
ÑĤÐ¸ Ð»ÑĮ
ĠÐ¼ÐµÐ´Ð¸ÑĨÐ¸Ð½ ÑģÐºÐ¸Ñħ
Ð¾Ñĩ ÐµÑĤÑģÑı
ÑģÑĤÐ°Ð½ ÐµÑĤ
Ð§ ÐµÑĢ
ĠÐ²ÐµÑģ Ð¾Ð¼
ĠÐ¸Ð½ÑģÑĤÑĢÑĥ Ð¼ÐµÐ½ÑĤÐ°
ĠÐ·Ð°ÐºÐ¾Ð½ Ñĥ
ĠÑģÐ»ÑĥÐ¶ Ð±Ðµ
ĠÐ½ÑĢÐ°Ð² ÑıÑĤÑģÑı
Ġem ploy
ÑīÐµÑģÑĤÐ² Ð¾Ð¼
ĠÐ²Ð·Ð³Ð»Ñı Ð´Ñĭ
ĠÐ¿ÑĢÐ¸Ñģ Ð²Ð¾
act ion
ĠÐºÐ²Ð°ÑĢÑĤÐ¸ ÑĢÐ°
Ð½ Ð¾Ð»ÐµÑĤ
Ð²Ðµ Ðµ
ĠÐ¾ÑģÑĤÐ° ÑĤÐºÐ¸
ÑĪÐµ ÑħÐ¾Ð´
ĠÐĺ Ð³ÑĢÐ°
ĠÑģÐ»ÑĭÑĪ Ð°ÑĤÑĮ
ĠÑĢÐ¾Ð´ Ð¸ÑĤÐµÐ»ÑıÐ¼
Ġth ird
ĠÐ¼ÐµÑĤÐ¾Ð´ Ð¾Ð²
Ñ ŀ
ĠÐ¸Ð·Ð¾Ð± ÑĢÐµÑĤ
ĠÐ³ÑĢÐ° Ð¼
E L
ĠÐ¿Ð¾Ð´Ð¾Ð± Ð½Ð¾
ĠÐĴÐ°ÑĪ Ð¸Ð½Ð³
ÐµÑĤ Ð¸ÐºÐ¸
ĠÑĥÑģÐ¿ Ð¾ÐºÐ°
ĠÐ²Ð·Ð³Ð»Ñı Ð½ÑĥÐ»
Ð¾Ð¹Ð´ ÑĳÑĤ
Ð¿Ð¸ÑĤ Ð°Ð½
ĠÐ¾Ð±ÑĢÐ° ÑīÐµÐ½Ð¸Ðµ
ĠÐĴÐ° ÑĪÐ°
ĠÑĪÐºÐ° ÑĦ
ĠÐºÐ½Ñı Ð·ÑĮ
ĠÐ¿Ð¾ÑĩÑĥÐ²ÑģÑĤÐ² Ð¾Ð²Ð°Ð»Ð°
ĠÐ¯ ÑĢÐ¾ÑģÐ»Ð°Ð²
Ñħ Ð°ÑĢ
ĠÑĥÐ· Ð½Ð°Ð»Ð¸
Ð¿Ð¸ÑģÐ° Ð½Ð¸Ðµ
Ð°ÑĤÐµÐ»ÑĮ Ð½ÑĭÐ¹
ÐµÐ¹ Ñģ
ĠÐļÑĢÐ°Ñģ Ð½Ð¾Ð¹
ĠÐ¿Ð¾Ð»Ð½Ð¾ ÑĨÐµÐ½
ĠÐ²ÐµÑĢ Ð½ÑĥÐ»Ð¸ÑģÑĮ
ĠÐ¿ÑĢÐ¾ÑĤÐ¸Ð² Ð¾Ð¿
Ġ19 17
Ð°ÑĤÐµÐ»ÑĮ Ð½Ð¾Ð¹
Ġhe ld
ĠÐ¼Ð¾ ÑĪÐµÐ½
ĠÐ¼Ð¾Ð½ ÑĤÐ°Ð¶
ĠÐ¾ ÑĢÐµ
t ime
ĠÐ¿Ð¾ÐºÐ° Ð·ÑĭÐ²Ð°ÑİÑĤ
ĠÐ¿ÑĢÐ¾ÑĦÐµÑģÑģÐ¸Ð¾Ð½ Ð°Ð»ÑĮÐ½Ð¾Ð³Ð¾
tem ber
ĠÐ¾Ð±ÑĢÐ° Ð·Ð°
ĠÑģ Ð´ÐµÑĢÐ¶Ð¸
ÑĢÐ° ÑĨÐ¸Ð¸
ĠÑģ Ð¼Ð¾ÑĤÑĢÐ¸ÑĤÐµ
ĠÐ§Ð° ÑģÑĤÐ¾
Ð´Ð¸ Ñİ
ĠÐ±Ð»Ð°Ð³ Ð¾Ð¿ÑĢÐ¸ÑıÑĤ
ÑĢÐ°Ð½ Ð¶Ðµ
ĠÐ±ÐµÐ» Ð¾Ð¹
ĠA b
ĠÐ¾ÑĤ ÑĢÐµÐ·
ĠÑĨÐ¸ÑĦ ÑĢÑĭ
ĠÑħÐ¾Ð´ Ð¸Ð»Ð¸
ĠÐ¿ÑĢÐ¾ ÑĩÑĮ
ĠÐŁÑĢÐµÐ·Ð¸Ð´ ÐµÐ½ÑĤÐ°
ĠÐ·Ð° Ð²Ð¾Ðµ
ĠÐ½ÐµÐ¹ ÑĤÑĢÐ°
ĠÐ¼Ð°Ð³Ð°Ð·Ð¸ Ð½Ð°Ñħ
ĠÐ²ÐµÑĢ Ñĭ
ĠÐ¼ÐµÐ» ÐºÐ¸Ðµ
ĠÐ½Ðµ ÑĢÐµ
ĠÐŀ ÑģÑĤÐ°Ð²
Ġ199 3
ĠÐ¿Ðµ ÑĩÐµÐ½ÑĮ
ĠÐ½Ð°Ð¿ÑĢÐ°Ð² Ð¸Ð»ÑģÑı
ĠÐŀÐ± ÑĢÐ°Ð·
? ...
ĠÐŁ ÑĤ
ÑĢ Ð½ÑĭÐµ
ĠÐºÐ°ÑĢÑĤÐ¸Ð½ ÐºÐ¸
ĠÑĪ Ð°Ð³Ð¸
Ġrec ent
E C
ÑĢÐ° Ð»Ð°
ĠÐ¼Ð¸Ñģ ÑģÐ¸Ñģ
ĠÐ½Ð° ÑĨÐ¸
ĠÐ½Ð°ÑģÑĤÐ¾Ñı ÑīÐ¸Ð¼
ĠÐ¾Ñģ ÐµÐ½
ÐµÐ»Ð° ÑģÑĮ
Ð± Ð¸ÑĤÑĮ
ĠÐ¿ Ð¾Ð²Ð¾ÑĢÐ°
ĠÐ¸Ð½ÑĦÐ¾ÑĢÐ¼Ð° ÑĨÐ¸Ð¾Ð½Ð½ÑĭÑħ
ĠÐ¿ÑĢÐ°ÐºÑĤÐ¸ ÐºÐ°
Ġm akes
ĠÐ¡Ð¿Ðµ ÑĨÐ¸Ð°Ð»Ð¸
ĠÐĳ Ð°ÑĪ
ĠÐ±Ð°Ðº ÑĤÐµÑĢÐ¸
ĠÐ½Ð° ÑĤÑı
ĠÐ½Ð°Ð¹Ð´ ÐµÑĤÐµ
ĠÐŁÑĢÐ¾Ð´ Ð¾Ð»Ð¶
ĠÐĳ Ð°Ð±
ĠÐ½ÐµÐºÐ¾ÑĤÐ¾ÑĢÑĭ Ð¼
is k
ĠÐ¿Ð°Ð»ÑĮ ÑĨÐµÐ²
ÑģÐº Ð¾Ð»ÑĮÐ·
ĠÐ²Ð·Ð°Ð¸Ð¼Ð¾Ð´ÐµÐ¹ÑģÑĤÐ² Ð¸Ñı
ĠA ir
ĠÐ²Ñĭ Ð¸Ð³ÑĢÑĭ
ĠÑĥÐ»Ð¸ ÑĨÐ°
ĠÑĤÐµÑħÐ½Ð¸ ÑĩÐµÑģÐºÐ¸Ñħ
ĠÑģÐ¾Ð¾Ð± ÑĢÐ°Ð·
ĠÑĢÐ°Ð· Ð³Ð»Ñı
ĠÑģÐ¿ÑĢÐ°ÑĪÐ¸ Ð²Ð°ÐµÑĤ
ĠÐ¿ Ð¸Ð²
Ð¸Ð² Ð°Ð»Ð°
ĠÑĤÐ¸ ÑĪÐ¸Ð½Ð°
ĠÐ·Ð°Ð´ÑĥÐ¼ ÑĩÐ¸Ð²Ð¾
ÑĢÐ¾Ð² Ð°Ð»ÑģÑı
âĢĶ âĢĶ
ĠÐ¼Ð° ÑģÐºÐ¸
ĠÐ¾ÑĢÐ³Ð°Ð½Ð¸Ð· Ð¼Ðµ
Ñī ÐµÐ½Ð½Ð¾
ĠÐ£ Ð²Ð°Ð¶Ð°
ĠÐºÐ¾ÑĢÐ¸ Ð´Ð¾ÑĢ
ĠÐ·Ð° Ð´ÑĥÐ¼Ð°
ĠÐ¿ÑĢÐ¸Ð¼ÐµÐ½ ÑıÐµÑĤÑģÑı
Ġa ge
ut ions
ĠÐºÐ»Ð°Ñģ ÑģÐ¾Ð²
ĠÑħ Ð¾Ð´Ð°
ĠÐºÐ°Ð»ÐµÐ½ Ð´Ð°
Ġf ocus
ĠÐ¾Ð± ÑģÑĤÑĢÐµ
ĠÐ¿ÑĢÐµ Ð´Ð°Ð½
ĠÐ»Ð¸ Ð½Ð¸Ñı
Ð²ÐµÑĢ ÑĮ
ĠÐ¤ Ð°
p ut
ÑĢÐµ Ð·Ð°
ĠÐ¾Ð± Ð¾Ð»
ĠÐĴÐ°ÑĪ ÐµÐ¹
ĠÐ½Ð°Ð¿ÑĢÐ°Ð² Ð»ÐµÐ½
Ġc ult
ÑĢÐµ ÑģÐ°
ĠÑģ ÐµÐ»Ðµ
ust om
Ġl ab
ĠÑĤÐ°Ð½ ÑĨÐµÐ²
ĠÐºÐ°ÑĤÐµÐ³Ð¾ ÑĢÐ¸
ros oft
ĠÑģ Ð±Ð¾
ÑģÑĤÑĢÐ¾ Ð½Ð¾Ð¼
ĠÑģÑĤÐ¾ÑĢÐ¾ Ð½Ð°Ð¼
ĠÐĴ Ð´ÑĢÑĥÐ³
ĠÐļÐ¾Ð¼ Ð¼ÐµÐ½ÑĤÐ°
ÑĢÑı Ð½
ĠÑĤÑĢÐ° ÑĤÐ¸ÑĤÑĮ
ĠÐºÐ°ÑĢ ÑĮ
ÑĤÐ¸Ð² Ð½Ð¾ÑģÑĤÑĮ
ĠÑģÐ¾Ð³Ð»Ð° ÑģÐ¸Ñı
ĠÐ¿ÐµÑĢÐ²Ð¾ Ð½Ð°Ñĩ
Ġs w
ĠÑģÑĥÐ´ÑĮ Ð±Ñĥ
g ed
Ð½Ð¾ ÑĢÐ°
ĠÐ¨ Ð°ÑĢ
ÑĢÐ¾Ð² Ð°Ð»Ð¸ÑģÑĮ
ĠÐ¿ÑĢÐ¾ÐµÐº ÑĤÑĥ
n y
ĠÐŁ ÑĢÐ¾Ð´Ð°
ĠÐ²Ñĭ Ð»Ð¾Ð¶
ĠÐ¿ÑĢÐ¸Ð±Ð»Ð¸ Ð¶
ĠD av
ĠÑĤÐ¸ Ð¿Ð¸
ĠÐ¼Ð°ÑĢÑĪ ÑĢÑĥÑĤ
ĠÐ¸ÑģÑģÐ»ÐµÐ´ Ð¾Ð²Ð°Ð½Ð¸Ðµ
ÐŁÐµÑĤÐµÑĢÐ±ÑĥÑĢ Ð³Ð°
ĠÐ¾Ð¿Ð°Ñģ Ð½Ð¾
Ġ0 2
ĠÐ°Ð¿Ð¿Ð°ÑĢÐ° ÑĤÐ°
ĠÐ±ÐµÐ» ÑĭÑħ
Ġinclud e
ĠÐ¿ÑĢÐµÐ´Ð¿ÑĢÐ¸ÑıÑĤÐ¸ Ðµ
ĠÐ²Ð¾Ð· Ð¾Ð±Ð½Ð¾Ð²
ĠÐ¿ÑĢÐµÐ´Ð½Ð°Ð·Ð½Ð° ÑĩÐµÐ½
ag er
ĠÐ²ÑĭÐ¿Ð¾Ð» Ð½ÐµÐ½Ð¸Ðµ
ĠÐ¸ÑģÐ¿Ð¾Ð»ÑĮÐ· ÑĥÐµÑĤ
he l
ĠÐĲÐ½Ð°ÑĤ Ð¾Ð»
ĠÐŁÐ¾Ð» Ð¾Ð¶
ĠÐºÐ¾Ð» Ð¾Ð´
ĠÐ¿ÑĢÐ¸Ð½Ñı Ð»Ð°
ĠÐ¦ÐµÐ½ÑĤ ÑĢ
ĠÐ¿Ð¾ ÑģÑĤÐ¾ÑĢÐ¾Ð½
Ġst at
ĠÑģÐ½Ð¸ Ð¶ÐµÐ½Ð¸Ðµ
Ð¶ Ð´Ð°ÑĤÑĮ
ĠÐ´ÐµÑĤ ÑģÐºÐ¸Ðµ
ĠÐļÐ° Ð¶ÐµÑĤÑģÑı
ĠÐŀÐ¿ ÑıÑĤÑĮ
ĠÐºÐ° ÑģÑĤ
Ð¸ÑĤÐµÐ»ÑĮ Ð½Ð¾Ð¼
ĠÐºÑĢÐ°Ñģ Ð½Ð¾
ĠÐ¿ÐµÑĢÐµÐ½ ÐµÑģ
ĠÐĵ ÑĥÐ±
Ð¶ Ð½ÑĥÑİ
ĠÐ°Ð²Ð° ÑĢÐ¸Ð¹
ĠÑħÐ²Ð¾ ÑģÑĤ
Ġest ab
ĠÐ´Ð²Ðµ ÑģÑĤÐ¸
Ġ ÑīÐµÐ½
Ðº Ð¾Ð¿
ĠÐ¸Ð½ Ð²ÐµÑģÑĤ
ĠÐ¶ÐµÑģÑĤ Ð¾ÐºÐ¾
ĠÐ½Ð° Ð·Ñĭ
f ont
ĠÐ² ÑģÐ»
ĠÐ¼ÐµÑĢ Ð·
Ð±Ð°ÑĢ Ð´Ð¸
ĠÐ´Ð¾Ð± ÑĢÑĭÐ¹
ĠÐ² Ð¾Ð¶Ð´
ĠÐ²Ñĭ ÑģÑĤÑĥÐ¿Ð°ÐµÑĤ
ĠÑĥ Ð¼Ñĭ
Ð¶Ð¸ Ð½Ð°
ĠÐ¸Ð¼Ð¿ÐµÑĢÐ° ÑĤÐ¾ÑĢ
Ġs elf
e y
Ð»Ð° Ð¹
ĠÐ¾ÑĦÐ¸ÑĨ ÐµÑĢ
ĠÑģÐ¾ ÐµÐ´Ð¸
ĠÐ¾Ð±ÑĬÑıÑģ Ð½Ð¸Ð»
Ġf urther
ĠÑĦÐ¾ÑĢÑĥ Ð¼
ĠÐľ ÑĥÑĢ
ĠÑĢÐ°Ð·ÑĢÐµ ÑĪÐµÐ½Ð¸Ðµ
ÐºÐ¾Ð¼ Ð¿
ĠÐ´Ð²Ð¾ Ð¸Ñħ
ĠÐ¿ÑĢÐ°ÐºÑĤÐ¸ ÐºÑĥ
Ð²Ð¸Ð´ Ð½Ð¾
ÑģÐºÐ¾ ÑħÐ¾Ð·ÑıÐ¹
Ðŀ Ð´Ð¸Ð½
ĠÐ²ÑĩÐµÑĢÐ° ÑĪ
ĠÐ°ÐºÐ°Ð´ÐµÐ¼ Ð¸Ð¸
ÐµÐ½ Ð¾Ñģ
ĠÐĵÑĢÐ¸ Ð³Ð¾
ĠÑĦÐ¸Ð³Ñĥ ÑĢÑĭ
ĠÐ¾Ð± ÑĢÑĥ
ĠÑĢÐ°Ð±Ð¾ÑĤ Ð¾Ð´
ĠÐ¿ÑĢÐ°Ð² Ð»ÐµÐ½Ð¸Ñı
ĠÐ±Ð¾Ð»ÑĮ ÑĪÐ¸Ð¼Ð¸
ĠÐ¸Ð³ÑĢÐ¾Ðº Ð¾Ð²
ĠÐĴÑĭ Ð±Ð¾ÑĢ
ĠÐµÐ²ÑĢÐ¾Ð¿ÐµÐ¹ ÑģÐºÐ¸Ñħ
ive ly
ĠÐ¿Ð°Ð¼ÑıÑĤ Ð½Ð¸Ðº
Ð²ÑĪÑĥÑİ ÑģÑı
Ð»Ð¸ Ñİ
ĠÐ¿ÑĢÐ¾Ð¸Ð·Ð½ÐµÑģ Ð»Ð°
Ð²ÑĪ Ð¸Ð¼ÑģÑı
ĠÐł Ð°Ð½ÑĮÑĪÐµ
Ġ199 5
Ġvers ion
Ġs ong
ĠÐ¼Ð° ÑģÐ»Ð¾Ð¼
Ġhim self
ĠÐĴ Ð¸Ð»ÑĮ
ĠÐ´Ð²ÐµÑĢ ÑĮÑİ
ĠÐºÐ¾Ð»ÑĮ ÑĨÐ¾
ĠÐ½Ð°Ñģ Ð¼Ðµ
ĠÐ¿Ð¾Ñħ Ð¾Ð¶Ð¸
ĠÐ½Ðµ ÑģÐ»
ÐŁ Ðļ
u ted
Ð»Ð¸Ð½ Ð³
id s
ĠÐºÐ¾Ð¼Ð¼Ñĥ Ð½
ĠÐļ Ð¾Ð»Ð¸ÑĩÐµÑģÑĤÐ²Ð¾
ĠÐ¡Ð¾ ÐµÐ´Ð¸Ð½
ĠÐ´ÐµÐ²ÑĥÑĪ ÐºÐ¾Ð¹
ĠÑħÐ¸ Ñī
ĠÑĢÐ°Ð·Ð³ Ð¾Ð²Ð¾
ĠDem ocr
Ð¡ ÑĤÑĢÐ°
Ð¼ ÑĥÑĤ
ÑĥÑĩ Ð½Ð¾
ur b
ĠÑĢÐ°Ð· Ð³Ð»ÑıÐ´Ñĭ
Ð´Ðµ Ð¾
Ð´ÐµÐ» ÐµÑĨ
ĠÐ¾ÐºÑĤÑı Ð±ÑĢÐµ
Ð£ ÐºÑĢÐ°
ĠÐ¸Ð½ÑĤÐµÑĢÐµÑģ Ð½ÑĭÐ¹
at ter
ĠÑĥÑī ÐµÑĢÐ±
ĠÐ² Ð·Ñĭ
ĠÐ¿ÑĢÐ¸ Ð±Ð°
ĠÑģÑĤÑĢÐ° Ð½Ð¸ÑĨÑĥ
ĠÑĦÑĥÐ½Ðº ÑĨÐ¸Ð¹
ĠÐºÐ¾Ð»Ð»Ðµ Ð³Ð¸
ĠÐ»Ð¸ ÑģÑĤÑĮÑı
ĠÐŁÐµÑĤ ÑĢÐ¾Ð²Ð¸Ñĩ
ĠÐ¶Ð¸Ð»ÑĮ Ðµ
ĠÐŁ Ð¾ÑĢ
ĠÐĶ ÐµÑĤÐ¸
ĠÐľ Ð¾Ð³
ÐµÑĢÐ° Ð¼
ĠÐºÐ°Ð±Ð¸Ð½ ÐµÑĤÐµ
ĠÑĦ Ðµ
ĠÑģÐ¾ÑģÑĤÐ°Ð² Ð¸Ð»
ĠÑĢÑĥÐºÐ¾Ð²Ð¾Ð´ Ð¸ÑĤÐµÐ»ÐµÐ¹
ĠÐ´Ð¾Ð² Ð¾Ð´
ĠÐ¿ÑĢÐ¾ÑģÑĤ ÑĭÐµ
ĠÐ¿Ð¾ ÐµÐ·Ð´Ð°
ĠÐĿ ÐµÐ»ÑĮÐ·Ñı
Ġl arg
ĠÐ¼Ð°ÐºÑģÐ¸Ð¼ ÑĥÐ¼
s et
ĠÐ²ÑĭÐ¿ Ð¸ÑĤÑĮ
ĠÐ»ÑİÐ´ ÑıÑħ
Ð¾Ñģ Ñĭ
ÑĩÐ°ÑĤ ÐºÐ¸
ĠÐ·Ð° Ð¼ÐµÐ½Ð¸
ĠÐºÐ°Ð½ Ð°Ð»Ð°
ĠÐ²Ð»Ð° ÑģÑĤÐµÐ¹
ĠD on
Ġbelie ve
ĠÐļÑĢÐ°Ñģ Ð½Ð¾ÑıÑĢ
ĠÐ¡ÑĤ Ð°Ð»Ð¸Ð½Ð°
ĠÐ¢ ÐĴ
ĠÐĶÐ¶ Ð¾
Ġre d
ĠÑįÐ»ÐµÐºÑĤÑĢÐ¾ ÑįÐ½ÐµÑĢ
ĠNew s
t ic
Ñİ ÑĪ
ĠÑĨ Ð°ÑĢÐ¸
ĠÑĥÑģÑĤÐ¾Ð¹ ÑĩÐ¸
Ð²Ð°ÐµÐ¼ ÑĭÐ¹
ĠÑĥÑĤÐ²ÐµÑĢ Ð¶Ð´Ð°ÐµÑĤ
ĠÑħ Ð°Ð»Ð°
Ġind ividual
ĠÐľ Ð°ÐºÑģ
iv al
ĠQ u
ĠÐ¿Ð¾ÐºÐ°Ð·Ð° ÑĤÐµÐ»Ð¸
ÑģÑĤÐ¾Ñı Ð½Ð¸Ðµ
ĠJu ly
ĠÐ¼Ð°Ð» Ð¾Ð³Ð¾
ĠÐ¿ÑĢÐ¾Ñģ Ð¸ÑĤ
ĠÑĦÐ¸Ð·Ð¸ÑĩÐµÑģÐº Ð¾Ð¹
Ð²Ð° Ð½Ñĭ
ig r
ĠÑĥ Ð±ÑĢÐ°
ĠÐ²Ð¾ ÑĪÐ»Ð°
op h
Ñİ ÑĢÐ¸
ĠÑĦÑĢÐ° Ð³
ĠÐ´Ð¸Ð° Ð¿Ð°Ð·
ĠÐ²ÑĭÑģÐ¾Ðº ÑĥÑİ
Ġex ist
Ġro le
Ð°ÑĤ ÐµÐ»ÐµÐ¼
ĠÑĢÐµÑģÑĥÑĢ Ñģ
ĠÐºÐ¾ÑģÑĤÑİ Ð¼
Ð²Ð¸Ð´ÐµÑĤ ÐµÐ»ÑĮ
ĠÑģÐ¾ÑĢÐµÐ² Ð½Ð¾Ð²Ð°
ĠÑģÑĤÐ°ÑĢÐ° Ð»ÑģÑı
ĠÐ·Ð°ÑħÐ¾ÑĤ ÐµÐ»Ð¾ÑģÑĮ
Ð¾Ð¼ Ð°ÑĤ
Ġ6 4
ĠÐ²Ð°Ð¼ Ð¿Ð¸
Ð¿Ð¾Ð» Ð¸ÑĤÐ¸ÑĩÐµÑģÐº
ĠÐ¾ÑĤÑĢÐ° ÑģÐ»
ĠÐ¼ÐµÑĤÐ°Ð» Ð»Ð°
ĠÐ¿ÑĢÐ¸ Ð±Ðµ
ĠÑĪÑĤÐ° Ð±
Ð¶ ÐµÑĢ
Ġd ou
Ð¾ÑĤ Ð¾Ð¼
ĠÐ¿Ð¾ÑģÑĤÑĥÐ¿ Ð¸Ð»
Ð´ ÑĥÑİ
re me
Ġr ul
ĠÐºÑĥÑĢ ÑģÑĭ
Ġcomm it
ĠÐ¿Ð¾Ð´ ÑĢÑĥÐ³Ð°
ĠR ed
ĠÐ°ÐºÑĤÐ¸Ð² Ð½Ð¾ÑģÑĤÐ¸
ĠÑģÐ°Ð½ ÑĤÐ¸
ĠÐ¿Ð¾Ð¶ ÐµÐ»
ĠÑģÐ¸Ð¼ Ð²Ð¾Ð»Ð¸
ĠÑģÐ¾ÑģÑĤÐ¾Ñı Ð»Ð¾ÑģÑĮ
ĠÐ¼ ÑĥÐ»ÑĮ
ĠÑģÐ¾Ð²ÑĢÐµÐ¼ÐµÐ½ Ð½Ð¾Ð¼
Ġadd ed
ÑĢÐ¾ ÑĦ
ĠÐ·Ð°ÐºÐ°Ð½ ÑĩÐ¸
ĠÑģÐ¾Ð³Ð»Ð° ÑĪÐµÐ½Ð¸Ñı
ĠÐ¿ÑĢÐµÐ±Ñĭ Ð²Ð°Ð½Ð¸Ñı
Ð³Ñĥ Ð½
ĠÐ¸Ð½ÑģÑĤ Ð¸Ð½Ðº
ĠÐ²ÐµÑĢÑħ Ð½ÐµÐ¹
ĠÐ½Ð°Ð´ Ð¾Ð»Ð³Ð¾
! ".
ĠÐ¥ Ð¾Ð´
f ace
ĠÐ¼Ð°Ð³ Ð½Ð¸ÑĤ
ĠÐ¿ÑĢÐµÐ´Ð¿Ð¾Ð»Ð°Ð³Ð° ÐµÑĤ
ĠÐ¿ÑĢÐ°Ð²Ð¸Ð»Ð° Ð¼
Ġem ail
ĠÐ²Ð· Ð»ÐµÑĤ
Ð· ÐµÐ½
ĠÐ´Ð¸ Ð²Ð¸Ð·Ð¸Ð¸
ĠÑĥ Ð³Ð¾
Ð¿ Ð¾Ð¹
Ð² ÑıÑĤ
ĠÐ¿ÑĢ Ð¾Ð»ÐµÑĤ
ĠÐ¾ ÐºÐ¾
ĠÐ» ÑĥÐº
ĠÐ½ÐµÑģ Ð¾Ð¼Ð½ÐµÐ½Ð½Ð¾
ĠÑģÐ»Ð° Ð±Ñĭ
ashing ton
Ð± ÐµÑĢÐµ
ĠÐ¾ÐºÑĢÑĥÐ¶Ð° ÑİÑīÐ¸Ñħ
ĠÐ¡Ð¸ÑģÑĤ ÐµÐ¼Ð°
ĠÑģÐ° Ð´Ð¾Ð²
ĠÐ³ Ð½ÐµÐ²
ĠÐ¿ÑĢÐ¾Ð²Ð¾Ð´ ÑıÑĤ
ĠÐ² Ð¾Ð»Ðµ
ĠÐ²Ð¾Ð·Ð½Ð¸Ðº Ð½Ð¾Ð²ÐµÐ½Ð¸Ñı
l a
ĠÐ·Ð°Ð´Ð° Ð½Ð¸Ðµ
ÑĢÐ¾Ðº Ð¸
ĠÑĢÐµÑģÑĥÑĢ ÑģÑĭ
ĠÐ½ÐµÑĤ Ñĥ
ĠÑĥÑģÑĤÐ°Ð½Ð¾Ð² ÐºÐ°
ĠÐ¾ÑĤ Ð½ÑİÐ´ÑĮ
ĠÐŁ Ð°ÑĤÑĢÐ¸
Ñĩ ÐºÐ¾Ð¼
ĠÐ·Ð° ÑĤÑı
ĠÐ´ÐµÐ» Ð°Ð»Ð°
ĠÐ´ÐµÑģÑıÑĤ ÐºÐ¾Ð²
Ġprof ess
ĠÐ¾Ð³ÑĢÐ°Ð½Ð¸ ÑĩÐµÐ½
ĠÐ¿ÐµÑĢÐ¸Ð¾Ð´ Ð¸ÑĩÐµÑģÐºÐ¸
Ð½Ð¸Ð· Ð¼Ð°
ĠÑģÐºÐ° Ð¶Ð¸
ĠÐ¾Ð¿ÑĢÐµÐ´ÐµÐ» ÐµÐ½Ð½ÑĭÐµ
ĠÐ¿Ð¾ÑģÐ»ÐµÐ´ Ð½ÑİÑİ
ĠÑĩÐ»ÐµÐ½ Ð¾Ð¼
ÑīÐ° Ñİ
Ð±Ð¸ ÑĢÐ°Ñı
Ð¤ Ðŀ
ÐĴ ÐŁ
Ñĥ ÑģÐ¿
ĠÐºÐ¾Ð½ ÑģÑĤÐ¸ÑĤÑĥ
ĠÑĩ ÑĮ
R u
Ġpubl ished
Ġd oc
in ally
ĠÑģÐ¿ Ð¾Ð½
S h
ĠÐ¿ÑĢÐ¾ ÑģÑĤÐ¸
ĠÐ¿Ð°Ð»Ðµ ÑĨ
ĠÐ¿Ð¾ ÑĤÐ°
Ġf av
ĠÐ½Ðµ Ð¸ÑģÐ¿
ĠÑĢÐµÐ³Ð¸Ð¾Ð½Ð° Ñħ
ĠÐ¡ÐµÐ²ÐµÑĢ Ð½Ð¾Ð¹
Ġc al
ĠÐ¸Ð·Ð²ÐµÑģÑĤ Ð½Ð¾Ð³Ð¾
Ġe y
ĠÐºÐ°Ðº Ð¾Ð¼Ñĥ
Ð·ÑĭÐ²Ð° ÑĤÑĮÑģÑı
ĠÐ¨ Ðº
ĠÐ¿ ÑĢÑĥ
ĠÐ¾Ð±ÑĬÑıÐ² Ð»ÐµÐ½Ð¸Ñı
Ġcomm on
ĠÐ¿ÑĥÐ½Ðº ÑĤÐ°
Ġpos ition
ĠAust ral
ĠÑģÑĤÐ¾Ð» Ñĥ
ĠÐ½ÐµÐ½ ÑĥÐ¶
ĠÑĥ Ð²Ñĭ
ĠÐ¿Ð¾ÑģÑĤÐ° Ð²Ð¸Ð»Ð¸
ĠÐ¿ÑĢÐ¾Ð±Ð»ÐµÐ¼ Ð¾Ð¹
Ð¿ Ð°Ð»
ÐµÐº Ð»Ð°
ĠÐ²ÑģÐ»ÐµÐ´ ÑģÑĤÐ²Ð¸Ðµ
ĠÐ¥Ð¾ ÑĤÑĮ
sel ves
ĠÐĶ Ð¾Ð²
ĠÐ·Ð¾Ð» Ð¾ÑĤÐ°
ĠÐ· Ð¾
ĠÐ·Ð°ÑīÐ¸ÑĤ Ð¸ÑĤÑĮ
ĠÐ¿Ð¾Ð»Ð¸ÑĤ Ð¸ÐºÑĥ
Ð¾Ð²Ð°ÑĤ ÐµÐ»ÐµÐ¹
ĠÑģÑĤÑĭ Ð´Ð½Ð¾
ĠÐ¿ÑĢÐ¸ ÑĢÐ¾Ð´Ð°
) ?
ĠÐ²ÐµÑģ ÐµÐ½
ĠÑĩ ÐµÑĪ
Ġf ace
ĠÑĪ Ð°Ð¿
ÑĪ ÐµÐ½Ð°
Ð³Ð¾ ÑĢÐ¸ÑĤ
ĠÐ¿Ð¾Ð»ÑĮÐ·Ñĥ ÑİÑĤÑģÑı
ĠÐ¿Ð¾Ñį ÑĤÐ°
ÑĤÐ¾ ÑģÐ¿Ð¾ÑģÐ¾Ð±
Ð· Ð²Ð¾
109 3
Ġw a
ĠÐŀÐ± ÑĬ
ĠI V
ĠÐ¿Ð¾ÐºÑĥÐ¿ Ð°ÑĤÐµÐ»ÐµÐ¹
ĠW ith
Ġr ather
ĠÑģÐ¾Ð² Ð¾ÐºÑĥÐ¿
un ch
ĠÐ½Ðµ Ð·
ill s
ĠÐ·ÐµÑĢÐº Ð°Ð»Ð¾
ĠÐ¿Ð¾Ð´ Ð°ÑĤÑĮ
ĠÐ±Ð»Ð°Ð³ Ð¾ÑĤÐ²Ð¾ÑĢÐ¸
ĠÐ·Ð°Ñģ Ð¼Ðµ
ĠP er
ĠÐ¾Ð¿ÑĢÐµÐ´ÐµÐ» ÐµÐ½Ð¸Ðµ
ĠÑĥ Ð»Ð¾Ð²
Ð° ÑĨÐ¸Ð¸
d en
ĠÑģ ÐµÐ½
ĠÑĢÐ°ÑģÑģ Ð¼Ð¾ÑĤÑĢÐµÑĤÑĮ
ĠÐ¼Ð¾Ñī Ð½Ð¾ÑģÑĤÐ¸
og n
ĠÐ³Ð½Ðµ Ð·
ĠÐľÐ¾ÑĢ Ð¾Ð·
Ð°Ð»Ð¸ Ð¹
ĠÐ½Ð¾Ñģ Ð¾Ð¼
ĠÐµÐ¶ÐµÐ´ Ð½ÐµÐ²
Ð½Ð¾Ð¼ Ð¾Ñĩ
Ð»Ð°Ð½ Ð´Ð¸Ð¸
ĠÐ¾Ð³ÑĢÐ¾Ð¼ Ð½Ð¾Ð¹
ĠÐºÐ°Ð¼ ÐµÑĢ
ĠÐ¿ÑĢÐ¾ Ð¸Ð³ÑĢÐ°
Ġrece ived
ĠÐ¿ÑĢÐ¾Ð¸Ð·Ð²Ð¾Ð´ Ð¸ÑĤÐµÐ»Ñı
ĠÐ±Ð»Ñİ Ð´Ð¾
ĠÐĸ Ðĸ
ĠÐ²Ð¾ÑģÑģÑĤÐ°Ð½Ð¾Ð² Ð»ÐµÐ½Ð¸Ñı
ĠÐ°Ð¿ÑĢÐµ Ð»Ðµ
Ġ197 0
ĠÐ» ÑĥÐ¶
ĠÐ¼Ð»Ð°Ð´ ÐµÐ½
ĠÐ´Ð¸ÑģÑĨÐ¸Ð¿ Ð»Ð¸
Ð³ÑĢÐ° ÑĨÐ¸Ð¸
ĠÐ¾Ð± Ð¾Ð³
ĠÐ¼Ð°Ð¼ Ðµ
ÑĥÑİÑī ÑĥÑİ
ĠÐºÐ¾Ð¼Ð½Ð° ÑĤÐ°
Ð´Ð° Ð½Ð°
Ð»ÐµÑĤ Ð½ÐµÐ³Ð¾
ĠÐŁÐ°ÑĢÐ¸ Ð¶Ðµ
ĠÐ½Ðµ Ðº
ĠÐķ Ñĳ
u z
our ces
ĠÐ¸Ñī ÐµÑĤ
ĠÐ²Ð°Ð¶ Ð½ÑĭÐµ
Ð¾Ð² ÑģÐºÐ¸Ð¹
ĠÐ·Ð°Ð¿ ÑĢÐµÑĤ
ĠÑĨÐ°ÑĢ ÑĮ
ĠÐĽ Ð°ÑĤ
ĠÐłÐ° Ð´Ð¸
ĠÑģÐ¾Ð±ÑģÑĤÐ²ÐµÐ½ Ð½ÑĥÑİ
Ð¿ Ð¸Ð½
ĠÐºÑĥÑĩ Ñĥ
ĠÑĤ ÑĳÐ¼
Ġm iss
Ġf all
Ð²Ð° Ð²
ĠÑģÐ¿Ð¾ÑģÐ¾Ð± Ð½Ð°
ÐĲ Ð»
Ġbuild ing
ĠÐŁ Ð¾ÑĢÐ¾ÑĪÐµÐ½ÐºÐ¾
ÑĤ ÐµÐ´
Ð¼ÐµÑĤ ÑĮ
ĠÐĶÐ¶ ÐµÐº
ĠÐ°ÑĢÑħ Ðµ
ĠÐ·Ð°Ð´Ð° Ð½Ð¸Ñı
ĠÐ¾Ð¶Ð¸ Ð´Ð°ÑĤÑĮ
ĠÑĥ Ð²Ð¾Ð»ÑĮ
ĠÐ¸Ð·Ð²ÐµÑģÑĤ ÐµÐ½
ĠÑģÐ¾Ð´ ÐµÐ¹ÑģÑĤÐ²
ĠÐ·Ð°Ð½Ñı ÑĤÐ¸Ðµ
ĠÑħÑĥÐ´Ð¾Ð¶ Ð½Ð¸ÐºÐ°
ĠÑĥÐ²ÐµÐ»Ð¸ ÑĩÐµÐ½Ð¸Ðµ
ĠÑģÑĤÑĢÐµÐ¼ Ð¸ÑĤÐµÐ»ÑĮÐ½Ð¾
ĠÐ¾Ð± Ð¾Ñģ
ĠÑĤÐµ ÑģÑĤÐ¸
Ġmil itary
ĠÑĩÐ¸ÑĤ Ð°ÑĤÐµÐ»ÐµÐ¹
ĠÐ¿Ð¸ ÑīÑĥ
ĠÐ±Ð»Ð¸Ð¶Ð°Ð¹ ÑĪÐ¸Ðµ
ĠÑįÐ»ÐµÐ¼ ÐµÐ½ÑĤ
ĠÐ´ÐµÐ½ÑĮ Ð³Ð°Ð¼Ð¸
ĠÐ¿Ð¾Ð¿ Ð°Ð»Ð°
ĠÐ½ÐµÐ¿Ð¾Ð´ Ð²Ð¸Ð¶
ĠÐ²ÐµÐ»Ð¸ ÐºÐ¸Ð¹
ĠÐ² ÑĤÐ¾ÑĢÑĭ
ĠÐ¿Ð¾Ð³ Ð¾Ð´Ð°
Ġb ody
ĠÐ¿ÑĢÐ¾Ð¶Ð¸ Ð²Ð°Ð½Ð¸Ñı
ĠÐ½Ð°ÑĢÑĥÐ¶ Ñĥ
ĠÑĥÐ´Ð¾Ð²Ð¾Ð»ÑĮ ÑģÑĤÐ²Ð¸Ñı
ĠÐ¿ÑĢÐ¸Ð´ ÑĳÑĤÑģÑı
ĠÐ·Ð° ÑĤÑĭ
ÑģÑĤÐ²ÐµÐ½ Ð½Ð¾Ð¼Ñĥ
ĠÑī ÐµÐ´
u ge
v iron
ĠÐ¿Ðµ ÑħÐ¾ÑĤ
ĠA pril
ĠÑĤ ÐµÐ½ÑĮ
ÑģÐµÑĢ Ð¾ÑģÑģÐ¸Ð¹
ĠÐ¿Ð¾Ð¼Ð¾Ð³ Ð¸ÑĤÐµ
ĠÐ°ÐºÐºÑĥ Ð¼ÑĥÐ»Ñı
ĠÐ¿Ð¾ÐºÑĥÐ¿ ÐºÐµ
ĠÑĢÐ¾Ð´ÑģÑĤÐ²ÐµÐ½ Ð½Ð¸ÐºÐ¾Ð²
ĠÑĢÐ°Ð±Ð¾Ñĩ ÐµÐ¹
ĠÐ¿Ð¾ÑģÐ»ÐµÐ´ Ð½Ð¸Ð¼
ĠÑĦ Ñĥ
ĠÐ²ÐµÐ»Ð¸ ÐºÐ¾Ð³Ð¾
ĠÑģÐ¾ÑģÑĤÐ°Ð²Ð»Ñı ÑİÑĤ
ĠÐ·Ð°Ð³ ÑĢÑıÐ·
Ð¾Ð» Ñĥ
ĠÐ¢ Ð°Ð½
ĠÐ¿Ð¾ÐºÐ° ÑĩÐ°Ð»
' ve
ĠÐ± Ð¾Ð½
ĠÐĶÐ¾Ð± ÑĢÑĭÐ¹
ĠÐ¾Ð±Ðµ Ð¸Ñħ
ĠÐĸ ÐµÐ»Ð°
Ð´ ÑĢÐ¾Ð³
Ġf ac
ĠÐ½Ð° Ð¸Ð²
ÐĲ Ñħ
ĠÐ´Ð½Ñı Ñħ
ĠÑģÑĦ ÐµÑĢÑĭ
ĠÐ¿Ð¸ Ð²Ð°
ĠÐĶ ÐµÐ¿
Ġat tem
ĠÑĩÑĥÐ²ÑģÑĤÐ² Ð¾Ð²Ð°Ð»Ð°
ĠÐ½Ð°ÑģÑĤÐ¾Ñı ÑīÐ°Ñı
ĠÐľÐ°ÑĢÐ¸ Ð½Ð°
ĠÑģÑĤÐ¾Ð» ÐºÐ½Ð¾Ð²
ĠÐ³Ð¾Ð´Ð° Ð¼Ð¸
ÑĤ Ð¸ÑĤÑģÑı
ÑģÐºÐ° ÐµÑĤ
ĠÐ²ÑĭÑģÐ¾Ðº Ð¾Ð¼
Ġe p
ĠÑĥ ÑĩÐµ
ĠJan uary
ĠÐĶ Ð¾Ð»Ð¶
ĠÐķÐ³Ð¸ Ð¿
ĠÑģÑĥÐ¼Ð°Ñģ ÑĪÐµÐ´
ĠÐ½Ð°ÑģÐµ ÐºÐ¾Ð¼
........ ........
ĠÑĢÑĥÐ± Ð»Ñı
?? ??
Ð¾Ð¿ÑĢÐ¸ Ð¼ÐµÑĩÐ°
ĠÐ¿ÑĢÐ¾ÑĦÐµÑģ ÑģÐ¸Ð¸
ĠÐºÐ°Ð¿ ÐµÐ»ÑĮ
ĠÑĢÐ°Ð· Ð±Ð¸ÑĤ
ĠÐ´Ð²Ð¸Ð³Ð° ÑĤÐµÐ»ÑĮ
" >
ĠÑģÐ»ÑĥÐ¶ Ð¸Ð»
ĠÐ²Ð°Ð¶ Ð½ÑĭÐ¹
ĠÐ»ÑİÐ± Ð¸Ð»Ð°
ĠÐĲÐ»ÐµÐºÑģÐ°Ð½Ð´ ÑĢÐ¾Ð²
f l
ĠÐ» ÑĥÐ½
ĠÐłÑı Ð´Ð¾Ð¼
en a
Ð¾Ð²Ð¾ÑĢÐ¸ Ð»Ð°
ĠÐ¿Ð¾Ð½Ð°Ð´Ð¾Ð± Ð¸ÑĤÑģÑı
ĠÐ¿Ð¾Ð´ÐµÐ» Ð¸ÑĤÑĮÑģÑı
ĠÐµÐ´Ð¸Ð½ Ð¾Ð³Ð¾
ĠÐł Ð¡
ĠÑĤÐ²Ð¾ Ð¸Ñħ
ĠÑĢ ÑĤÐ°
ĠÐ¸Ð½ÑĤÐµÑĢÐµÑģ Ð½ÑĭÑħ
ĠÐ´ Ð½Ðµ
Ð°Ð»Ð¸ Ð·Ð°ÑĨÐ¸Ñı
ĠÐ´ÑĢÑĥ Ð¶Ðµ
Ð°Ð¼ ÑıÑĤ
ĠÐĽ Ð°Ð²
ÑĥÑĪ ÐºÐ¾Ð¹
ÑīÐ° Ñħ
ĠÐ° Ð»Ñİ
ĠÐ¼Ð¸ÑĢÐ¾Ð² Ð¾Ð³Ð¾
Ð¡ Ð¾Ð±
ÐµÐ·Ð¶Ð° ÐµÑĤ
ru g
' m
ĠÑĥÑĩÐ¸ÑĤÑĭ Ð²Ð°Ñı
ÑĥÑģ Ð¾Ð¼
ĠOb ama
ĠÑĢÐµÑĨÐµÐ¿ ÑĤ
Ð½Ð° Ð¹
le v
ĠÐ¿Ð°ÑĢ Ð½Ð¸
ĠÑģÑĤ ÑĢÐ¸
ĠÐ¾Ðº Ð½Ð¾Ð¼
ĠÐ¿Ð¾Ð·Ð½Ð°ÐºÐ¾Ð¼ Ð¸ÑĤÑĮÑģÑı
ÐĶ ÑĥÐ¼Ð°
ĠÐ¿Ð¸ Ð²Ð¾
10 10
ĠÐ¿Ð¾Ð´Ð´ÐµÑĢÐ¶Ð¸ Ð²Ð°ÐµÑĤ
ĠÑĢÐµ Ð°Ð±Ð¸Ð»Ð¸
ĠÐ·Ð° Ð¼Ð°
ĠÑģÐ¾Ð¿ÑĢÐ¾Ð² Ð¾Ð¶Ð´Ð°
ĠÐĴ ÐµÐ´
ĠÐ´Ð° ÑĳÑĤ
ĠÑģÐ¾Ð± ÑĢÐ°Ð½
Ġent ire
ÑĢÐ° ÑīÐ¸
ĠÐºÐ¾Ð½ÑĦÐ»Ð¸Ðº ÑĤ
Ðĳ Ð°
ĠÐ° Ð·
Ġ* **
ĠSep tember
ĠÑĨ Ð¸ÑĤ
ĠÐ²Ð¾Ð· Ð¼Ðµ
ÑĪ ÐµÐ½Ð½Ð¾
ĠÐ· Ð¾Ð½Ð°
Ġ194 4
Ġ199 4
ĠÐ¿Ð¾ÑĤÑĢÐµÐ± Ð¸ÑĤÐµÐ»ÐµÐ¹
Ñĩ ÐºÐ¾Ð²
ĠÑĢÐµÑĪ ÐµÐ½Ð¸ÐµÐ¼
ĠÐ¡ ÐµÐº
ĠÐ¿Ð¾ÑĤÑĢÐµÐ± Ð½Ð¾ÑģÑĤÐ¸
Ġt w
ĠÐĳ ÑĢÑİ
ĠÐ¼Ð¸Ñģ Ñģ
Ðº Ð¼
ĠÐ³ Ð°Ð¼
ĠÐ¾Ð±Ñĭ ÑĩÐ½ÑĭÑħ
ĠÐ´Ð²Ð¾ ÑĢÐµÑĨ
ĠÑĦÐ¸Ð·Ð¸ÑĩÐµÑģÐº Ð¸Ñħ
ke y
ĠÐ¿Ð¾Ð´ ÑĢÑĥÐ¶
ÑĢÐ¾Ð²Ð° Ð½Ð¸ÐµÐ¼
ĠÑĦÐµÐ²ÑĢÐ° Ð»Ðµ
Ð½Ð° ÑĢ
Ġpoint s
ĠÐŀ ÐºÐ°
Ð¶ Ð½Ð¾Ð¼
Ġen c
ĠÑģÐ²ÑıÐ·Ð° Ð½Ð°
Ġv ict
Ð²Ð¸Ð¶ Ñĥ
Ñħ Ð¾Ð¶Ñĥ
ĠÐ¿Ð¾ÐºÐ°Ð·Ð° ÑĤÐµÐ»ÑĮ
ĠÐ·Ð°Ð² ÑĤÑĢÐ°Ðº
as ing
ĠÐļ ÐµÐ¼
ĠÑĤÐµÐ¼ Ð°ÑĤÐ¸
ĠÐ¿Ð»Ð° ÑĤÑĭ
ĠÐ¶ÐµÐ½ Ðµ
Ġtow n
ĠÐ³ Ð¾Ð¼
Ġplay er
ĠÐ½ÐµÐ·Ð°Ð¼ ÐµÑĤÐ½Ð¾
ĠAug ust
Ġ0 3
ĠÐľÐ¸ÑħÐ° Ð¸Ð»Ð°
ĠÑĦÐ°Ð½ÑĤÐ° ÑģÑĤÐ¸
ĠÑģÐ¾Ð·Ð´Ð° Ð½Ð¸Ñİ
ĠÐľÐ¾ÑģÐºÐ¾Ð² ÑģÐºÐ¾Ð³Ð¾
iv il
ĠÐ£ÐºÑĢÐ° Ð¸Ð½Ñĥ
ĠÑĥ Ð½Ñĭ
Ð²Ð¸Ð·Ð¸ Ð¾Ð½
ÑĢÐµÐº ÑĤÐ¾ÑĢ
Ġph ys
ĠÐ½Ð°Ñĩ Ð½ÐµÑĤ
ĠÐ¼Ð°Ð³Ð¸ ÑģÑĤÑĢÐ°
ĠÐ¡ Ð°Ð»
ĠÐ¿ÑĢÐ¸Ð·Ð½Ð° ÐºÐ¸
l ike
Ġde ter
ĠÑģÐ¼ ÐµÐ»
ĠÐ´Ð¾Ð» Ñı
ĠÐĿÐ¸ Ð¶Ðµ
ĠÐ½Ð°ÑħÐ¾Ð´ Ð¸Ð»Ð°ÑģÑĮ
ĠÐ´Ðµ Ð²Ð¸
ĠÐŁ Ð¾Ð¹
ÑĢ ÐµÐ½Ð¸
ĠÐ¸Ð· ÑıÑī
ĠÐ¸Ð· Ð»Ð¾Ð¶
ĠÑįÐº Ñģ
ĠÐłÐ°Ð· ÑĥÐ¼ÐµÐµÑĤÑģÑı
ĠÑģÐ¾ ÑģÑĤÐ°Ð²Ð¸ÑĤÑĮ
Ð¼ÐµÑĢ ÑĤÑĮ
ĠÑĥÑĩÐ°ÑģÑĤ ÐºÐ¾Ð²
g a
ĠÐ· ÑĢÐµÐ»Ð¸
Ð¾Ð² Ñĥ
ĠÑĢÐ°Ð· Ð¾Ð³
ĠÑģÐ»ÐµÐ´ Ð¾Ð²Ð°ÑĤÐµÐ»ÑĮÐ½Ð¾
ĠÐ¿Ð¾ÑıÑģ Ð½Ð¸Ð»
Ð½ ÐµÐ½Ð½ÑĭÐ¹
Ñİ Ð¼
ĠÐŁÐ¾Ð´ Ð¾Ð±
Ð°Ð¼ ÐµÑĢÐ¸
ĠÐ½Ð°Ð¿ÑĢÑı Ð¶ÐµÐ½Ð¸Ñı
Ð´Ð¸ ÑĢ
ÑĢ Ð¾Ð¶Ð´
ĠÑĢÐ°Ð·Ð¼ÐµÑĢ Ð¾Ð¼
ĠÐ¾Ð¿ Ð¾Ð»
ÐŁ Ð¾Ð½
Ġrel ations
ĠÐ»ÑİÐ± Ð°Ñı
ĠÐºÐ¸ ÑĪÐµ
ĠÐ»Ð¾ÑĪÐ° Ð´ÑĮ
ĠÐ½Ð° Ð¸Ð±
Ġh it
ĠÐ¿Ñĥ ÑģÐº
ĠÑĩ ÑĮÐ¸
ĠÐ¿Ð¾ÐºÑĢÑĭ ÑĤÐ¸Ñı
ÐµÐ½ÑĮ ÐºÐ¸Ðµ
ÑģÑĤÐ°Ð²Ð»Ñı ÑĤÑĮ
E n
ĠÐĶÐ¾Ð± Ð°
ĠÐĲÐ² ÑģÑĤÑĢÐ°
ĠÐ¤ Ðµ
ÑĤÐ¸ÑĩÐµÑģÐº ÑĥÑİ
ĠÑĨ ÐµÐ»Ð¾
ÑĥÐ½ Ð´
ĠÐ¿Ð¾Ð´Ð±Ð¾ÑĢ Ð¾Ð´
ÑĤÐ¾ÑĢÐ° Ð¼
ĠÐ¸Ð¼Ðµ ÐµÐ¼
ĠÑĢÑĭ Ð½Ð¾
ĠÑģ Ð½Ð¾
ĠÐ²Ð¸Ð½ Ð¾Ð²Ð°ÑĤ
ĠÐ°Ðº ÐºÐ°ÑĥÐ½
ĠÑĤÑĢÐµÐ½ ÐµÑĢ
ĠÐ²Ð·Ð´Ð¾Ñħ Ð½ÑĥÐ»Ð°
ĠI m
ĠÐ½Ð°Ñĩ Ð°Ð»Ð¸ÑģÑĮ
ĠÐ½ÐµÐ² Ð¾Ð»ÑĮÐ½Ð¾
ĠÑģ ÐµÐ»Ð¾
Ðļ ÑģÑĤÐ°ÑĤÐ¸
ĠÑĩÑĥÐ¶ Ð¾Ð¹
Ð»ÑĮ Ð½ÑĭÑħ
ĠÑĩÐµÑĢ Ð½Ð¾Ð¹
ĠÐ¿Ð»Ð¾ÑīÐ°Ð´ ÐºÐ¸
Ð¸Ð» Ñĥ
ĠÐ²ÑģÑĤÑĢÐµ ÑĤÐ¸Ð»
ĠÐ»ÑİÐ±Ð¸Ð¼ Ð¾Ð¹
ĠÐ°Ð²ÑĤÐ¾ÑĢÐ¸ÑĤ ÐµÑĤ
ĠÐ¿Ð¾Ð»ÐºÐ¾Ð² Ð½Ð¸Ðº
ĠÐŁ ÑĢÐ¾Ð±Ð»ÐµÐ¼
Ð¿Ð¾ÑĤ Ð¾Ð¼
Ġide a
ĠÑĤÐµÐ»ÐµÐ²Ð¸Ð· Ð¾ÑĢ
ĠÐ½Ð°Ð³ÑĢÑĥÐ· ÐºÐ¸
ĠÐĿÐµÐ¾Ð±ÑħÐ¾Ð´ Ð¸Ð¼Ð¾
ĠÑĤÑĢÐ°Ð½ÑģÐ¿ Ð¾ÑĢ
Ðŀ ÑĢ
ÐŁÐ¾Ñģ Ð»ÐµÐ´
us e
ĠÐ¾Ð±ÑıÐ·Ð° Ð½Ñĭ
ĠÐ¼Ð°Ñģ ÑģÐ¸Ð²
ĠÐŁÐµÑĢ Ð²Ð¾Ðµ
Ð± Ð°ÑĤ
ÐµÐ¹ ÑĤÐµ
Ġke y
ĠÑĩÐ°ÑģÑĤ Ð½ÑĭÑħ
ĠÐ²ÐºÑĥ ÑģÐ½Ð¾
ĠÑĢÐ°Ð· Ð½ÑĭÐ¼
Ġm ind
ĠÑģÐ¾Ð±ÑĢÐ° Ð»Ð¸ÑģÑĮ
ĠÐ» Ð°Ð¹
Ð¼ ÑıÐ½
ĠÑĢÐµÐ·ÑĥÐ»ÑĮÑĤÐ° ÑĤÐ°
Ġcomp et
ÐĹ Ðŀ
ĠÐ¼ÐµÐ¶Ð´ÑĥÐ½Ð°ÑĢÐ¾Ð´ Ð½Ð¾Ð¹
ĠÐ·Ð° ÑģÑĤÐ°Ð²Ð»ÑıÐµÑĤ
ĠÐ²ÑĭÐ²Ð¾Ð´ Ñĭ
ĠÐ¿Ð¾Ð½Ð¸Ð¼Ð° Ð½Ð¸Ñı
ĠÐ¿ÑĢÐ¾Ð³ Ð¾Ð²Ð¾ÑĢÐ¸Ð»
ĠÐĶ ÑĢÐµÐ²
u pp
ĠOct ober
ĠÐ¾ÑĤ ÑĩÐµÐ³Ð¾
ĠÑģÐµÐ»ÑĮ ÑģÐºÐ¾ÑħÐ¾Ð·ÑıÐ¹
Ð´Ð° Ð¹ÑĤÐµ
ĠÑĤÐ¾ÑĢÐ³ Ð¾Ð²ÑĭÑħ
Ġm ot
ĠÐ¿Ð¾Ð»Ð¾ÑĤ ÐµÐ½
ĠD r
ĠÐ¾ÑģÑĤÐ° Ð²Ð¸Ð²
ĠÐĺ Ð±Ð¾
ĠÐºÐ¾Ð½ÑĤÑĢÐ¾Ð»Ð¸ ÑĢÐ¾Ð²Ð°ÑĤÑĮ
Ġrese arch
ÑĤÐ¸Ð² Ñĥ
il i
ĠÐ¿ÑıÑĤ Ð½Ð°Ð´ÑĨÐ°ÑĤÑĮ
Ġe ither
ĠÑģÐ¿ Ð¸ÑĤ
ĠÐ¾ÑĤÐ²Ðµ ÑĩÐ°Ð»
ĠÐ¾Ð·Ð½Ð°ÐºÐ¾Ð¼ Ð¸ÑĤÑĮÑģÑı
ĠÐ²ÑĭÑģ ÑĪÐµÐ³Ð¾
if t
ĠÐ·Ð°Ð±Ñĭ Ð»Ð¸
ĠÐĴÐ° Ð¶Ð½Ð¾
Ġbeh ind
ĠÑĢÐµÐ¶Ð¸Ñģ ÑģÐµÑĢ
ĠThe se
ĠÐ± ÐµÐ»Ð¾ÑĢÑĥÑģ
olog ical
ĠÐ¡ Ñİ
ĠÐºÐ»Ð°Ð´Ð±Ð¸ ÑīÐµ
Ð¾ Ð¸
ĠÐ¸ÑģÐºÑĥÑģ ÑģÑĤÐ²
ĠÐ°Ð¼ÐµÑĢÐ¸ÐºÐ°Ð½ ÑģÐºÐ¾Ð¹
ĠÐ¿ÑĢÐ¾ÑĨ ÐµÐ½ÑĤÐ°
Ġ194 3
ÑĢÐ¾Ñģ ÑģÐ¸Ð¹
ĠÐ¿ÑĢÐµÐ´ÐµÐ»Ð° Ð¼Ð¸
ĠÐ·Ð°ÑħÐ²Ð° ÑĤÑĭ
te e
ĠÐºÐ¾Ð½ ÑĤ
ĠÐŁÐ¾Ð» ÑĥÑĩÐ°
ĠÐ½Ð°Ð¿ÑĢÑı Ð¶
ĠÐ°Ð¼ÐµÑĢÐ¸ÐºÐ°Ð½ ÑģÐºÐ¾Ð³Ð¾
ĠÑĥÐ±Ð¸Ð¹ ÑģÑĤÐ²Ð¾
ĠÑģÑĥÐ´ Ð¸ÑĤÑĮ
ĠÑĥÐ´Ð° ÐµÑĤÑģÑı
ÐµÑĢÑĤ Ð²
ĠÐĵÐ»Ð°Ð² Ð½Ð°Ñı
ĠÐĲÐ´ ÑĢÐµÑģ
Ġel se
ĠÐĶ Ð¾Ð¼Ð°
ĠÐĺÐ²Ð° Ð½Ð°
ĠÐļ Ð¾Ð·
ĠÐ¢ Ð¸Ð¼Ð¾
ĠÐĶÐ° Ð½Ð¸
ĠÑĥÑĢÐ¾Ð² Ð½ÐµÐ¼
Ð· ÐµÑĢ
ĠÐ²Ð¾Ð·Ð´ÐµÐ¹ÑģÑĤÐ² Ð¸Ðµ
ĠÑĢÐµÐºÐ»Ð° Ð¼Ð°
ĠÐ½Ð°ÑģÑĤÑĢÐ¾ ÐµÐ½Ð¸Ñı
Ñĳ Ñģ
ĠÐ½Ð¾ ÑıÐ±ÑĢÐµ
ĠÐ´Ð¾ÑħÐ¾Ð´ Ð¾Ð²
ĠÐ½Ð°Ð· Ð²Ð°Ð½
ĠK ing
ÑĪÐµÐ½ Ð½ÑĭÑħ
ĠÐ¿Ð¾Ð± Ð¾Ð»ÑĮÑĪÐµ
ĠÐ¿ÑĢÐµÐ´ ÑģÐºÐ°
ĠÐ¿ÑĢÐ¾ÑħÐ¾Ð´ Ð¸ÑĤÑĮ
ĠÐ±Ð¾ Ð¸ÑĤÑģÑı
end s
ÑĢÑĥÐ· ÑĮÑı
Ñį ÑĦ
ĠÑģÐ¾Ð±Ð¸ÑĢÐ° ÑĤÑĮ
ĠÐ¿ÐµÑĢÐµ ÑģÑĤÐ°Ð»
ĠÐ³Ð¾Ð²Ð¾ÑĢÐ¸ ÑĪÑĮ
ĠÑħÐ¾ÑĢÐ¾ÑĪ ÑĥÑİ
ĠÐ½Ð¾Ð² Ð¾Ð¼Ñĥ
ÑīÐ¸ ÐºÐ¾Ð¼
ĠÐ²Ð·Ð°Ð¸Ð¼Ð¾ Ð¾ÑĤÐ½Ð¾
ĠÐĴÑģÐµ Ð³Ð´Ð°
um p
ĠÐł ÐµÐºÐ¾Ð¼
ĠÑģÐ¿ÐµÑĨÐ¸Ð°Ð»ÑĮ Ð½Ð¾Ð¹
ÑĤÐ¸Ð² Ð½ÑĭÐ¼Ð¸
Ð½ Ñģ
ĠÐ¸Ð· Ð²Ð¸Ð½
ĠÐ¨ Ð²ÐµÐ¹
Ð»ÐµÐ½ Ð½ÑĭÐ¼Ð¸
ĠÑĢÐµÐ»Ð¸ Ð³Ð¸Ð¸
ĠÐ´Ðµ ÑĦÐ¸ÑĨ
ĠÑĢÐ°Ð¹Ð¾Ð½Ð° Ñħ
ĠÐ·Ð½Ð°ÐºÐ¾Ð¼ ÑĭÐ¹
ĠÐ¾ÑģÑĥÑīÐµÑģÑĤÐ² Ð»Ñı
Ð´ÐµÑĢ Ð¾Ð²
ĠÐ¼Ð¾ÑĢ ÐºÐ¾Ð²
ÐŁÑĢÐ°Ð² Ð´Ð°
Ð¾Ñģ Ð½Ð°Ð±
Ġ0 6
ĠÐ²ÑģÑĤÐ° ÑĤÑĮ
Ð°ÑĤ ÐµÐ»Ñİ
ĠÐĽ Ð¾
ĠÐ¾ÑģÐ¾Ð± Ð¾Ðµ
ÐµÐ» Ð»Ð°
ĠÐ²Ð¾ ÐµÐ½Ð½ÑĭÐ¹
Ġwh ite
Ð½Ñı Ðº
ĠÐºÐ½Ñı Ð·Ñı
Ġpop ulation
Ð½Ñĥ Ð»Ð¾ÑģÑĮ
ĠÑĥÐºÑĢÐ° ÑĪÐµÐ½Ð¸Ñı
ĠÐºÐ°Ð¿Ð¸ÑĤ Ð°Ð»Ð°
ĠÐºÐ²Ð°Ð»Ð¸ ÑĦÐ¸ÑĨÐ¸
ĠÐ³Ð¾Ð»Ð¾Ñģ Ðµ
Ð¿ Ð¾Ðº
ĠÐ¾ÑĤ ÑĨÑĥ
ĠÐ°ÑĢÑħÐ¸ÑĤÐµÐº ÑĤÑĥÑĢ
Ð¾Ð³ Ð¸Ðµ
ĠÑģÐ¾Ð²ÐµÑĤ ÑģÐºÐ¾Ð³Ð¾
Ġob ject
ĠÑĪÐ°Ð³ Ð¾Ð¼
ÑĤÐ° ÑĨÐ¸Ñı
Ġw rote
ĠWh at
ĠÑģÑĤÑĢÐ¾Ð¸ÑĤÐµÐ»ÑĮ Ð½ÑĭÑħ
ĠÐ¾ÑĦÐ¾ÑĢÐ¼Ð¸ ÑĤÑĮ
ĠÐ¾Ð±ÑĢÐ°Ð· Ð¾Ð²Ð°Ð½
Ġ194 2
ĠÐ²Ñĭ Ð´Ð¾Ñħ
ĠÐ¿ÑĢÐ¾Ð´Ð¾Ð»Ð¶Ð° ÐµÑĤÑģÑı
ĠÐ¡Ð°Ð¼ ÑĭÐ¹
ĠÑģÑĤÑĥÐ¿ ÐµÐ½ÑĮ
ĠÐĺÐ½ÑĦÐ¾ÑĢÐ¼Ð° ÑĨÐ¸Ñı
ĠÐ´Ð¸ Ð²Ð°Ð½
ĠÐ¾Ð±ÑīÐµ ÑģÑĤÐ²ÐµÐ½Ð½Ð¾Ð¹
ÐµÐ² ÑģÐºÐ¾Ð³Ð¾
ĠÑĢÐ°ÑģÑģÐºÐ° Ð¶Ñĥ
ĠÐ¨ Ð°
ĠÐºÑĢÑĥÐ³ Ñĥ
ĠÐ´Ð¾ ÑģÑĤÐ¾Ð²ÐµÑĢ
ar a
ĠÐºÑĢÐµ ÑģÑĤÑĮÑı
Ġapp e
ĠÐ¿Ð¾Ð´ÑĩÐµÑĢ ÐºÐ½ÑĥÐ»
ĠÐĺÑģÐ¿Ð¾Ð»ÑĮÐ· Ð¾Ð²Ð°Ð½Ð¸Ðµ
op s
ĠÐ·Ð°ÑıÐ² ÐºÑĥ
ÑĪÐ° Ñħ
Ð¼Ð¾Ð¶ ÐµÑĤ
ĠÐ½ÐµÐ¿ Ð¾Ð²
Ñģ ÑģÐ°
Ðµ ÑģÑı
Ð§ Ð¡
ĠÐ¿Ð¾Ñĩ ÑĤÑĭ
ĠÑģÐµÑĤ ÐµÐ¹
ĠÐ¿Ð¾ ÑģÑĤÑĥ
Ġiss ue
ÑĢÐµ Ð»Ð°
ĠÐ¸ÑģÐ¿ÑĭÑĤÐ° Ð½Ð¸Ñı
ĠÐ³Ð¾ÑĢÐ¾Ð´ ÑģÐºÐ¸Ñħ
ÑĢÐ¸ Ð°Ð½
ĠÐ²Ð¾Ð» Ñİ
: "
ĠÐ¿ÑĢÐµÐ´Ð²Ð°ÑĢÐ¸ ÑĤÐµÐ»ÑĮÐ½Ð¾
ĠÐ¡ Ð»Ð°Ð²
Ġh y
ĠÐ¾ÑĤÐ»Ð¸Ñĩ Ð½ÑĭÐ¹
ĠÐ¿ÑĢÐ¾ÑĪÐ» Ð¾Ð¹
Ġty p
Ġval ue
ĠÐ¾ÑĤÑģÑĥÑĤ ÑģÑĤÐ²Ð¸Ð¸
ĠÐ¡ Ð°Ð¹
Ð¾Ñĩ ÐºÐ¾Ð¹
ĠÐ³Ð¾ÑĢÐ¾Ð´ Ð¾Ð¼
ÐµÐº ÑĤÐ°
ĠÑģÐ¾Ð± Ð»Ð°Ð·
ĠÑĢ ÑİÐº
ĠÐ²Ð¾ÑģÑģÑĤÐ° Ð½Ð°Ð²Ð»Ð¸
ĠÐ¿ÑĢÐ¾Ð· Ð²ÑĥÑĩ
o z
am er
ĠÐ¿Ðµ ÑĩÐ°ÑĤÑĮ
Ġstud ents
ĠÑĥÐ± Ð¸Ð»
Ð¼Ð° ÑĤÐ¸
Ġsignific ant
ĠÑģÐ¾ÑĤÑĢÑĥÐ´ Ð½Ð¸Ðº
Ġprov ide
ĠS chool
ĠÐ·Ð½Ð° Ð½Ð¸Ðµ
ĠÑģÐ¸Ð»ÑĮ Ð½ÑĭÐµ
Ġro om
% )
ĠÐ´ Ð²Ð¸Ð³
Ġf ire
ĠÑĥ Ð³Ð¾Ð´
ra el
ĠÑĪ Ð²ÐµÐ´
ĠÐ³Ð°Ð» ÐµÑĢÐµ
ĠÐ¿Ð¾ÑĤÐµÑĢ ÑıÑĤÑĮ
ĠÐ·Ð°Ñī Ð¸ÑĤÐ°
Ð£ Ð¶Ðµ
ĠBrit ish
ĠÐ»Ð¸ Ð½Ð¸Ñİ
ĠÐºÐ¾ÑĢÐ°Ð± Ð»Ð¸
ĠÐ¿Ð¾Ð»ÐµÐ· Ð½Ð¾
ĠÐĶ ÑĥÐ±
ĠS ch
ĠÐ¤ ÐµÑĢ
ĠÐ°ÑĢÑħ Ð¸Ð²
ĠÐ°ÑĢÐµÐ½ Ð´Ñĥ
ĠÐ¿ÑĢÐ¾Ð´Ð¾Ð»Ð¶ Ð°Ð»Ð°
ĠCom p
Ġv ote
Ð¡Ð¢ Ð¬
Ðµ ÑĢÐ¸Ñı
ĠÐ³ÑĢÐ° Ð½Ð¸ÑĨ
ĠÐ·Ð°ÐºÐ¾Ð½ Ð¾Ð²
ĠÐ¿ÑĢÐ°Ð²Ð¾Ð¾ÑħÑĢÐ° Ð½Ð¸ÑĤÐµÐ»ÑĮ
Ð¾Ð´ ÐµÑĢÐ¶Ð°
ĠÑĥÐ»ÑĭÐ± ÐºÐ°
ĠÐĳÐµÐ»Ð°ÑĢÑĥ ÑģÑĮ
ĠÐ»ÑĥÑĩ ÑĪÐµÐ³Ð¾
Ð¥ Ðŀ
ĠÑĢÐ°ÑģÑĤ ÑĥÑĤ
Ġp red
ĠÑģÐ»ÑĥÐ¶ Ð°
ĠÑģÐ»Ð¾Ð¶ Ð½ÐµÐµ
ĠÐŁÐ¾Ð¿ ÑĢÐ¾Ð±
Ġdevelop ment
ĠÐĿÐ° Ð·
ĠÐ²ÑģÑĤÑĢÐµ ÑĩÐ°ÐµÑĤÑģÑı
ĠÐ´ÐµÐ»Ðµ Ð³Ð°
Ð¡ ÐºÐ¾
ĠÑĢÐµÐ°Ðº ÑĨÐ¸Ñı
ĠÑģÑĤÐµÐ½Ð° Ñħ
ÐµÐ· Ð¶Ð°ÑĤÑĮ
ĠÐ¸Ð½ÑĤÐµÑĢ Ð½ÐµÑĤÐ°
ĠÑĢÐµ Ð±Ñı
ĠÐ´ÐµÑĢÐ¶ Ð°Ð»
ĠÐ¿Ð¾Ñĩ ÑĤÐµ
Ġed uc
ĠÐ³Ð¾ÑĢ Ð»Ð¾
Ð·Ð° ÑĨÐ¸ÐµÐ¹
ĠÑĢÑĥÑģ ÑģÐºÐ¸Ð¼
ĠÐ£ ÑģÑĤÐ°Ð½Ð¾Ð²
Ġty pe
ÑĩÐ¸ÑĤ Ð°Ð»
Ð¿Ð° Ð´Ðµ
ĠÐĿ Ð°ÑĤ
ĠÑģÐ¼Ð¾ÑĤÑĢ ÑıÑĤ
ÐĶ Ð¡
ĠÐ½Ð°ÑģÑĤÐ¾Ñı ÑīÐµÐ¹
ÐµÑĤ ÐºÑĥ
ÐµÐ´ Ð¾Ð²
ĠÐļ ÐµÑĢ
ÑĢ ÐµÐ½Ð¸ÐµÐ¼
Ð³ Ð°Ð»Ð°
ĠÐ¾ÑĤ ÑĢÐ°Ð·
ĠÐŁ Ð°ÑĤ
Ġcom es
ond on
200 9
Ġtru e
ĠÐ² Ð¾Ð»ÑĮ
ĠÑĥÐ¿ Ð°Ð»Ð°
ĠÐĶ Ð¾Ð³
ĠÐŁÑĢÐµÐ´ Ð»Ð°Ð³Ð°
ĠÐ¿ÑĢÐ¸Ð´ÑĥÐ¼Ð° ÑĤÑĮ
ĠÐĶ Ð°Ð½Ð½ÑĭÐ¹
ĠÐ°Ñį ÑĢÐ¾Ð´
ĠÐĺÑĢ ÐºÑĥÑĤ
ĠÐ¶Ð¸Ð²Ð¾ÑĤ Ð½Ð¾Ðµ
Ġget ting
ĠÐµÐ¶Ðµ Ð³Ð¾Ð´Ð½Ð¾
ĠÐŁÐ°ÑĢÐ¸ Ð¶
ĠÐļÐ¸ÑĤÐ° Ðµ
ĠÐ¾ÑĤ Ð»Ð¾Ð¶
ĠÑģÑĤÐ° ÑĢÑĥ
Ġbe gin
ĠÐ·Ð¾Ð»Ð¾ÑĤ Ð¾Ð¹
ĠL a
ĠÐ²ÑģÑĤÑĢÐµ ÑĤÐ¸ÑĤÑĮÑģÑı
Ð°ÑĪ ÐºÐ°
ĠÐ¸Ð·Ð²ÐµÑģÑĤ Ð½Ñĭ
ĠÐ±Ð¾Ð»ÑĮ Ð½Ð¸ÑĨÐµ
ĠÐ½Ð°ÑĢÐ¾Ð´ Ð½Ð¾Ð³Ð¾
Ġp aper
Ġde cl
ĠÐ´Ð¾ÑģÑĤÐ¾Ð¸Ð½ ÑģÑĤÐ²Ð°
ĠÑĢÐ°ÑģÐ¿Ð¾Ð»Ð¾Ð¶ ÐµÐ½Ñĭ
ĠÑı ÑīÐ¸Ðº
ÑĥÑİ ÑģÑĮ
ĠÐ¥ Ð°ÑĢÑĮ
ĠÑĥ ÑħÐ¾
ĠÐ¿Ðµ ÑĪÐµÑħÐ¾Ð´
ĠÑĩÐ¸ ÑģÑĤÐ¾Ð¹
Ð¿ Ð¸Ñı
Ġdet ail
el t
ĠÐ±Ð¾ÑĢÑĮ Ð±Ñĥ
ĠÐ´Ð¸Ð·Ð°Ð¹ Ð½Ð°
ir m
ĠÐ¿Ð¾Ð´ÑĬ ÐµÐ¼
ĠÐ±Ð°Ð± ÑĥÑĪÐºÐ¸
Ð´ÑĢÑĥÐ³ Ð¾Ð¼Ñĥ
Ð¾Ð³ Ð¾Ð¼
ĠÐ±ÐµÑĢ ÑĥÑĤ
ĠÑĪ ÐµÐ´
ÑĤÐµÐ»Ñı Ð¼Ð¸
ĠÐ·Ð° Ð³Ð¾ÑĢÐ¾Ð´
ĠÐ¿Ð¸Ñģ Ð°ÑĤÐµÐ»Ñı
Ġ4 3
ĠÑĩÐµÑĤÐ²ÐµÑĢ Ð³
ight s
i ber
ĠÐºÐ¾Ð½ÑĦÐ»Ð¸Ðº ÑĤÐ°
Ð¼ Ð°Ðº
ĠÐ²Ð¾Ð»Ð¾Ñģ Ð°Ð¼Ð¸
ĠÐ½Ð°Ð³ ÑĢÐ°Ð¶Ð´
Ð²Ð°Ñİ ÑīÐµÐµ
ĠÑĦÐµÐ´ÐµÑĢÐ° Ð»ÑĮÐ½Ð¾Ð³Ð¾
ĠÐ¿Ð¾Ð´ÑĢÐ¾Ð± Ð½Ð¾ÑģÑĤÐ¸
ce mber
Ð¸ ÐºÐ¾Ð¹
Ġa ver
ĠÐ¿Ð¾Ð¼ Ð½Ð¸ÑĤÐµ
Ġfr ont
ÑĢÐ¾Ð´ Ð¾Ð»Ð¶
ĠÐ¿Ðµ ÑĪÐºÐ¾Ð¼
ĠÐ¿ÑĢÐ¸ Ð½Ð¾ÑģÐ¸ÑĤ
ĠÐĳÑĭ Ð»Ð¸
ĠÐºÑĢÑĥÐ¿ Ð½ÐµÐ¹ÑĪÐ¸Ñħ
ĠNo ve
ÐµÐ» Ð»Ð¸
ĠÐĺÐ½ ÑģÑĤÐ¸ÑĤÑĥ
Ð¾Ð¿ ÑĢÐ¾Ð²
ĠÐķ ÑģÑĤÐµÑģÑĤÐ²ÐµÐ½Ð½Ð¾
ĠÑĤÐ¸ Ð¿Ð¾Ð²
( )
ĠÐ½ÐµÐ¿Ð¾Ð´ Ð°Ð»
Ġ19 60
ĠÐ³Ð¾Ð»Ð¾Ñģ Ð¾Ð²
ĠÑģÐ¼Ðµ Ñħ
ÑĳÐ½ Ð½Ð¾Ð¹
ĠÐ£ Ð¼
ĠÑģÐ°Ð¼Ð¾ ÑĥÐ¿ÑĢÐ°Ð²
Ġc reat
ĠÐ¿Ð»Ð¾ÑīÐ°Ð´ ÐºÐµ
ĠÑįÐºÑģÐ¿ÐµÑĢ ÑĤÐ¾Ð²
ÑĢ Ð½ÑĭÐ¹
ÑĢÑĥ Ð¹ÑĤÐµ
ĠÐºÐ¾ÑĢÐ°Ð± Ð»ÐµÐ¹
ĠÐ¶ Ð´Ñĥ
ĠÐ¿Ð°ÑģÑģÐ°Ð¶Ð¸ ÑĢ
ĠÐ¿Ð¾ÑĢÑĤ Ð°Ð»
Ñģ ÑģÑĭ
ĠÐ¿Ð¾ ÑģÐ¸
ip s
ĠÐ¿ÑĢÐ¾ÑıÐ² Ð»ÐµÐ½Ð¸Ñı
ĠÑıÐ·Ñĭ ÐºÐ¾Ð²
ĠÐ¿ÑĢÐµÐ´Ð»Ð¾Ð¶ ÐµÐ½Ð¸Ð¹
ÑĤ Ð¾Ð²Ð°
ĠÑģÐ¿Ð¾ÑģÐ¾Ð± Ð½Ð¾
ÐŁ Ð¾Ð·
ĠÐ¼Ð¸Ð»Ð¸ ÑĨÐ¸Ð¸
ĠÑģÐ¼ÐµÑĪ Ð½Ð¾
ĠÐ¤Ð¸Ð½ Ð»ÑıÐ½
ÑĦ Ð¸Ð»
ĠÐ¿ÐµÑĢÐµ ÑħÐ²Ð°
ĠÐ³ÑĢÐ°Ð¶Ð´Ð°Ð½ ÑģÐºÐ¾Ð¹
ĠÐ±Ð°Ð· Ñĥ
ĠÐĽ Ð°ÑĢÐ¸
ĠÑįÐºÑĢÐ° Ð½Ðµ
Ð³Ð¸ Ð½Ð°
ĠÐĴ Ð¾Ð»Ð¾Ð´
ÑĢÑĥ Ð¶Ðµ
ĠÐ¿Ð¾Ð´Ð° ÑĩÐ¸
ĠÐ¾Ñĩ ÐºÐ¾Ð²
ĠÐ¿ÑĢÐ¾Ð´Ð¾Ð»Ð¶ ÐµÐ½Ð¸Ðµ
ĠÐ½ÐµÐ´Ð¾ÑģÑĤÐ° ÑĤÐ¾Ñĩ
Ġg en
ĠÐ¿Ð¾Ð½Ð¸Ð¼Ð° Ñı
ĠÑģÑĤ ÑĥÐº
' ,
ĠÐ¸Ð·Ð²ÐµÑģÑĤ Ð½ÑĭÐµ
ĠÐ°Ð¼ÐµÑĢÐ¸ÐºÐ°Ð½ ÑģÐºÐ¸Ð¹
ĠÐ²ÑĭÑģÑĤÑĥÐ¿ Ð¸Ð»
ÑĤÐ¸ÑĩÐµÑģÐº Ð¾Ð¼
ĠÑģÐ¿ ÑĢÐ°Ð²Ð¾
ĠÐ±Ð¾ ÑıÑĤÑĮÑģÑı
Ð°Ð»ÑĮ Ð½Ð¸Ðº
ĠÐĳÐµÐ»Ð°ÑĢÑĥ ÑģÐ¸
ĠÐ´Ð¾Ð±ÑĢÐ¾Ð² Ð¾Ð»ÑĮ
ĠÐ±ÑĢÐ¾ Ð½Ð¸
ĠÑģÐµÑĢÑĮÐµÐ· Ð½ÑĭÐµ
Ð¡Ð¢ Ðĺ
ĠÐµÐ· Ð´Ð¸ÑĤÑĮ
ĠÐ½Ð°ÐºÐ°Ð·Ð° Ð½Ð¸Ðµ
Ġcl ub
ĠÐ¸Ð½ÑĤÐµÑĢ ÑĮÐµÑĢÐ°
ĠW ashington
ĠÐ½ Ð¾Ð¼Ð¸Ð½Ð°
ĠÑģ ÑĢÐ¾
ĠÐ® Ð¶Ð½Ð¾Ð¹
ĠÐºÐ¾Ð½ÐºÑĢÐµÑĤ Ð½Ð¾
ÑĤÐ¸Ð² ÑĪÐ¸ÑģÑĮ
ĠÑĢÐ°Ð·ÑĢÐ°Ð±Ð¾ÑĤ ÐºÐµ
ĠÐ·Ð° Ð´Ð°ÑĤÑĮ
ĠÐ³ Ð¸ÑĤÐ°
A r
Ð¼Ñĭ Ð¼
ĠÐ¾Ð´ Ð½Ð¸Ñħ
ĠÐ³ ÐµÐ½Ð¸
ĠÐ·Ð°Ð±Ñĭ Ð²Ð°ÑĤÑĮ
ĠÐ³ÑĢÑĥ Ð±
ĠÐ±Ð¾Ð»ÑĮÑĪÐµ Ðµ
Ð½Ð¸Ñĩ Ð½ÑĭÐ¹
ĠÑĢÐ¾Ñģ ÑģÐ¸Ñı
ĠÐ¤ Ð¸
ÑĥÑĢ Ñģ
ĠÐ¡ Ðļ
ad es
u ation
Ð»Ð¾ Ñħ
Ð¡ Ð»ÐµÐ´
ĠÐ² Ð²ÐµÑģÑĤÐ¸
ĠÐ·Ð° Ð±Ð°Ð²
Ġ0 5
ap an
ĠÐłÐ°Ð· Ð¼ÐµÑĢ
ĠÐ´ÐµÐ»Ð° ÐµÑĤÐµ
Ð³ ÑĢÐµÐ´Ð¸
ĠÐ¸ÑģÑħÐ¾Ð´ Ñı
ÑĤ ÑĢÐ¾Ð¿
ĠÐ±Ð¾ Ñİ
ĠÑģÐ»ÑĥÑĩÐ° Ñı
ĠÐ¿ÑĢÐ¾ÑĦ ÑģÐ¾
ĠÑĥ ÑģÐºÐ¾ÑĢ
Ð»Ðµ Ðµ
ĠS er
or der
Ġmat ter
O T
pl es
ĠÑĥÐ³ Ð»ÑĥÐ±
Ġv ol
ÐµÐ½ Ð½Ð¾ÑģÑĤÑĮÑİ
ĠÐ·Ð°Ð´ Ð¾Ð»Ð¶
ĠÐ¾Ð¿ÑĢÐµÐ´ÐµÐ»Ñı ÐµÑĤ
Ñģ ÑģÐ¸
ĠÐĿÐ° ÑģÑĤÐ¾Ñı
ĠÐ¼ÐµÐ» ÐºÐ¸Ñħ
Ġ4 6
n es
ÑĤÐ¸ Ð»Ð¾ÑģÑĮ
ĠÐ²Ð¾Ð·Ð¼Ð¾Ð¶ Ð½ÑĭÑħ
ĠÐ¸Ð³ÑĢÑĥ ÑĪÐºÐ¸
ĠÐºÐ¾Ð¼Ð¼ÐµÐ½ÑĤÐ° ÑĢÐ¸ÐµÐ²
ĠÑĤÐ¾ ÑĩÐºÐ°
ĠÑģÑĥÐ´ Ð¾Ð²
l im
ÑĤÑı Ð±ÑĢÑĮ
e e
ĠÐ¢ ÑĢÐµ
ĠÐºÐ°Ð¿ Ð»Ð¸
ĠÐ¡ÑĤ Ð°Ð½
Ġb ene
ĠÐ¢ Ð¸Ð¼
ĠÐ¼ÑĥÐ¶Ñĩ Ð¸Ð½Ðµ
ĠÑĢÐµ Ð³Ð»Ð°
ĠÐºÑĢÐ¸ Ðº
ĠÐ½ÐµÐ¿ÑĢÐ°Ð² Ð¸Ð»ÑĮÐ½Ð¾
ĠÑģÐ´ÐµÐ» ÐºÐ¸
ĠÐ¯Ð½Ð´ ÐµÐºÑģ
ĠÐ¿Ð°ÑĢ ÐºÐ°
ÐŁ ÐŁ
ac hed
ĠÐ²ÑģÑı ÐºÐ¾Ð¹
ĠÐ·Ð°ÐºÐ»Ñİ ÑĩÐµÐ½Ð¸Ðµ
ĠÑģÑĢÐµÐ´ Ð½ÐµÐ²ÐµÐº
ĠÐ±Ð¾ÑĢ ÑĤÑĥ
ĠÐ²ÑģÐ» ÑĥÑħ
ĠÑıÐ± Ð»Ð¾Ðº
Ġtr ack
ĠÐ¾ÑģÑĤÐ° Ð²Ð¸Ð»Ð¸
ĠÐ·Ð°ÐºÐ¾Ð½Ð¾Ð´Ð°ÑĤÐµÐ»ÑĮ ÑģÑĤÐ²Ð¾Ð¼
ĠÐ· Ð²Ð°Ð½Ð¸Ðµ
ĠÑĥÐ²ÐµÑĢ ÐµÐ½Ð½Ð¾ÑģÑĤÑĮ
ĠÐĸ Ñĥ
ĠÐĲÐ² ÑĤÐ¾Ð¼
ĠÐ»ÐµÐ¶ Ð°Ð»Ð°
ĠÑĤÐ¾Ð» Ðº
ĠÑģÐ²ÐµÑĤ Ð¾Ð¼
Ð¶Ð° Ð¼Ð¸
ĠÑĤÑĢÐ°Ð² Ñĭ
ĠÐ½ÐµÐ¼ ÑĨÑĭ
ĠÐºÐ¾ ÑĪÐºÐ°
ra p
ĠÐĵÐ»Ð°Ð² Ð½ÑĭÐ¹
ĠÐ¸Ð· Ð³Ð¾ÑĤÐ°Ð²Ð»Ð¸
ĠÑĥÐ³ ÑĢÐ¾Ð¶Ð°
Ġexper ience
ĠÐ¿Ð¾Ð»Ð¾Ð¶ ÐµÐ½Ð¾
ĠÑĢÐµ ÑĦ
ÑĢÐ¾Ð²Ð°Ð½ Ð½ÑĥÑİ
ÑĤÐ¾ ÑĢÐ¸Ñİ
ĠÐ¾Ð±ÑĬ ÐµÐ¼Ð°
ĠÐ¿Ð¾Ð¿ÑĥÐ»ÑıÑĢ Ð½ÑĭÑħ
ĠÐ½ÐµÐ±Ð¾Ð»ÑĮ ÑĪÐ¸Ñħ
ĠÐ½Ð°ÑģÑĤÐ¾Ñı ÑīÐ¸Ðµ
ĠÐ° ÑĢÐµÑģÑĤ
ÑĢ Ð½Ð¾Ð³Ð¾
ĠÑĥÐ´Ð¾ ÑģÑĤÐ¾Ð²ÐµÑĢ
ĠÑĤÐµ ÑģÑĤÐ¾
ĠÐ½ÐµÐ¿ ÑĢÐµÐ´
Ñı Ð¶
ÐĽ Ð°Ð´Ð½Ð¾
ÑĢÑı Ð´Ñĭ
ĠÐĲ Ð¼ÐµÑĢÐ¸ÐºÐ°Ð½
ĠÐ´Ð¾Ð¼ Ð¾Ð¼
ĠÑĪÐµÑģÑĤÑĮ Ð´ÐµÑģÑıÑĤ
ĠÐ¸Ñİ Ð½Ðµ
ĠÐ¿ Ð¸Ð»Ð¸
ÐºÐ¸ Ð´
ĠÐ¿ÑĢÐ¾Ð´Ð¾Ð»Ð¶Ð° ÑİÑĤ
ĠÐº Ð¾Ð¶Ðµ
ÐĿÐĺ Ð¯
ÑģÑĤÑĮ Ðµ
Ñģ ÑĢÐ¾
ÑĤÐµÐ»ÑĮ Ð½Ð¾Ð¼
ĠF eb
ÑģÑĤ Ð¸ÑĤÑĥÑĤ
Ġal bum
ĠÐºÐ¾Ð¼Ð¿ Ð°Ðº
ĠÑģÐ¿ÐµÑĨÐ¸Ð°Ð»ÑĮ Ð½ÑĭÐ¹
ĠÐ² ÑģÑĤÐ°Ð»Ð°
ĠÐ¯ ÐºÐ¾Ð²
ĠÑģÐ»Ð° Ð²Ð°
Wh at
ĠÑĢÐ¾ÑģÐºÐ¾ ÑĪ
ĠÐ¼Ð°ÑģÑģ Ð¾Ð²Ð¾Ð¹
ĠÐ¿Ð¾Ð»ÑĮÐ· Ð¾Ð²Ð°ÑĤÐµÐ»ÑĮ
ĠÐ¼Ð½Ð¾Ð³Ð¾ÑĩÐ¸ÑģÐ» ÐµÐ½Ð½ÑĭÑħ
Ð½Ðµ ÑĪÑĮ
ĠÐ¿ÑĢÐ¾Ð² ÐµÐ»Ð°
h a
ĠÐ¡ ÐºÐ°Ð·
an ks
ĠÐºÐ¾Ð½ÑĤÐ°Ðº ÑĤ
om b
ĠÐ¿Ð¾Ñģ ÑĭÐ»
ĠÐ¿Ð¾Ñį ÑĤ
ĠÐµÐ²ÑĢÐµ ÐµÐ²
ĠÑĢÐ°Ð· ÑĬÑıÑģ
ÑĢÐ¾ Ð½Ñĭ
ĠÐ»Ð¸ÑĤÐµÑĢÐ° ÑĤÑĥÑĢÐµ
ĠÐ½Ð°Ð¿ÑĢÑı Ð¶ÐµÐ½Ð¸Ðµ
ĠÐºÐ»Ð¸ Ð½Ð¸
ÑģÑĤÐ²Ñĥ Ñı
ĠÐ²Ñĭ Ð»Ðµ
ĠÐ¤ Ð°Ðº
Ð» ÐµÑĢÐ¾Ð²
ĠÐ½ÐµÐ²ÐµÑĢÐ¾ ÑıÑĤÐ½Ð¾
ĠÑĢÐ¾Ð´ Ð¸ÑĤÐµÐ»ÑĮ
Ð¢ ÑĢÐ¸
ĠÐļÑĢÑĭ Ð¼Ñĥ
ĠÐ¾ÑģÐ¾Ð±Ñĭ Ñħ
ÐŀÐ´ Ð½Ð°
ĠÐ°ÐºÐºÑĥ ÑĢÐ°ÑĤ
ĠÐ´Ð¾Ð± Ð¸
ĠÐºÐ¾Ð»Ð»ÐµÐº ÑĨÐ¸Ð¸
ĠÐ²ÑģÑĳ Ð¼
ĠÐ»ÑİÐ±Ð¸Ð¼ Ð¾Ð³Ð¾
Ð°Ð° Ð°Ð°
ĠÐ¿Ð° Ð´Ð°ÐµÑĤ
Ð¶ Ð¸Ð»
ĠÑģÐ»ÑĭÑĪ Ð°Ð»Ð¸
ĠÐ²ÐµÑĢ ÑģÐ¸Ñİ
ĠÐºÐ¾Ð½ÑĤÑĢÐ°Ðº ÑĤ
ĠÐļÐ°ÑĢ Ð»
ĠÐ¶ÐµÐ»Ð° ÑİÑīÐ¸Ñħ
ĠÑģÑĤ ÑĥÐ»
ĠÐĶ Ð°Ð»ÑĮÑĪÐµ
ĠÐ·Ð°Ð¿ÑĢÐµ ÑīÐµÐ½Ð¾
ÑĨÐ¸Ð¾Ð½ Ð½Ð¾Ð¼
ÑĢÐ¾ Ð½Ð¾Ð²
ĠÑģÐµÑĢ Ð¶
ĠÐ½Ð¸ Ñĩ
Ð°Ð» ÐºÐ°
ĠÑĢÑĭ Ð±Ñĥ
ib ility
ĠÑĥÐ²ÐµÐ»Ð¸ ÑĩÐ¸
ĠÐ¿Ð» Ð¾ÑĤÐ½Ð¾
ĠÐ¡ Ð¼Ð¾Ð»
ĠÐ½ÐµÐ±Ð¾Ð»ÑĮÑĪ Ð°Ñı
ĠÐĽ ÐµÑĤ
ÐĴÐ¾Ð· Ð¼Ð¾Ð¶Ð½Ð¾
Ġint ro
Ġab ove
ĠÐ½ÐµÑĥÐ´ Ð¾Ð±
Ġp ri
Ð¼Ñĥ Ð½
ÑħÐ° Ñħ
ĠÑģÐ»ÑĭÑĪ Ð½Ð¾
ĠÐĳ Ð¾Ð±
ĠÐŀÐ± ÑīÐµ
ĠÑģÐµÐºÑĥÐ½ Ð´Ñĭ
ĠÐ¿Ð¾ÑĤ ÑĢÑıÑģ
Ġag o
ĠÐľ Ð¸Ðº
ĠÐ¿ÑĢÐ¾ÐµÐº ÑĤÐµ
ĠS w
ĠÐ¼Ð¸Ð»Ð»Ð¸Ð°ÑĢ Ð´Ð¾Ð²
ĠÐ¡Ð¾ Ð¾Ð±
ÑĨ ÐµÐ»Ð¾Ð²
ĠÑģ ÐµÐ´ÑĮ
ĠÑģÐºÑĥ ÑĩÐ½Ð¾
Ġl ed
Ġle arn
Ð»Ð¸ Ð¶Ðµ
ĠÐ¿ÐµÑĢÐµÐ³Ð¾Ð²Ð¾ÑĢ Ð¾Ð²
ĠÑģÐ¾Ð»Ð´Ð° ÑĤÑĭ
Ġrepres ent
Ġ ).
ÑĢÑĥ ÑģÐ°
o id
ĠÐĴ ÑģÐµÑĢÐ¾ÑģÑģÐ¸Ð¹
ÐŁ Ð¸
ĠÐ¾Ð¶Ð¸ Ð´Ð°Ð»
ĠÐ¼Ð°ÑĤ ÑĩÐµ
ĠNove mber
Ġmem ber
Ñĭ Ð½
ĠÑģÑĩÐµÑĤ Ñĥ
Ġtot al
ÑĤ Ñİ
ĠÑĤ ÑĥÑĪ
Ð·Ð¸Ð´ ÐµÐ½ÑĤ
ru ction
ĠÐ´Ð¾ÑģÑĤ Ð¾Ð¿ÑĢÐ¸Ð¼ÐµÑĩÐ°
ÑĪÐ° ÐµÐ¼
ĠÐ¿Ð¾ÑģÐ» ÑĭÑĪ
av y
ĠÐ·Ð°Ðº Ð»Ð¸Ð½Ð°
ĠÐ·Ð°Ð½Ñı ÑĤÑĮ
ĠÐ´ Ð¸Ð»
ĠÐ¿ ÐµÐ´
Ðł Ð¤
ĠÐ´Ð¾Ðº Ð»Ð°Ð´
ĠÐ¿ÑĢÐµÐ´ ÐµÐ»Ñĭ
Ġobs erv
ĠÑĪ Ð»Ñİ
ĠÑĢÐ°Ð·Ð³Ð¾Ð²Ð°ÑĢÐ¸ Ð²Ð°ÑĤÑĮ
ĠÑĢÐ°Ð·Ð²Ð¸ Ð²Ð°ÐµÑĤÑģÑı
ÑĢ Ð½Ð¾Ð¹
ĠÑĢÐ°ÑģÐ¿ Ð¸ÑģÐ°
ĠÐ¿Ð¾Ð´Ð³Ð¾ÑĤÐ¾Ð² ÐºÐ°
ener al
ĠMic rosoft
ĠÑģÑĤÑĥÐ´ ÐµÐ½
ĠÐ¾ÐºÐ° Ð·ÑĭÐ²Ð°ÐµÑĤ
Ð§ Ðĺ
ĠÐ±ÑĥÑĤÑĭÐ» ÐºÑĥ
ÐµÐ² Ñĥ
Ð´ Ð»Ð¾Ð²
ĠÐºÐ¾ ÑĪÐºÐ¸
ĠÐ¾ÑĢ Ð´ÐµÐ½
ĠÐ¡Ð¾Ð»Ð½ ÑĨÐµ
ĠÐ¿ÑĢÐ¸Ð·Ð½Ð° Ð½
A t
ĠÑģÑĤ Ð¾Ð¼Ð°ÑĤ
ĠÑĦÐ¸Ð»Ð¾ÑģÐ¾ÑĦÐ¸ Ð¸
ĠÐ²Ñĭ Ð²Ð¾Ð´Ñĥ
ĠÐ´ÑĢÑĥÐ·ÑĮÑı Ð¼
ÑģÑĮ Ðµ
ĠÐļ Ð°Ð±
ĠÐ¿ÑĢÐ¾Ñģ Ð¸Ð»
Ð¸ÑĤ Ð¾Ð¼
Ġp ain
ĠÐºÐ°Ð¼ Ð¿Ð°Ð½Ð¸Ð¸
ĠÐ¸Ð½ÑģÑĤÑĢÑĥ Ð¼ÐµÐ½ÑĤÐ¾Ð²
ĠÑģÑĩÐ¸ÑĤ Ð°Ð»Ð¸
ĠÐ±Ð°Ð» Ð°Ð½
ĠCh ina
ĠÑģÐ¿Ð¸ ÑģÐºÐµ
ĠÑģÐ¾Ð¾ÑĤÐ²ÐµÑĤÑģÑĤÐ² ÑĥÑİÑīÐ¸Ðµ
ĠÐºÐ¾Ð½ ÑĤÐµÐ¹
ĠĠĠĠĠĠĠĠ ĠĠĠĠĠĠĠĠ
ĠÑĢÐµÐºÐ¾Ð¼ÐµÐ½ Ð´Ð°
le ment
ĠÐ¸ Ð¿
ÑĤÐ¾ÑĢ Ð¾Ð¿
ĠÐ´ ÑĮÑıÐ²
ÑĥÑī Ð°Ñı
ÑĢÐ¸ ÐºÐ°Ð½
ĠÐ¾Ð±Ðµ ÑīÐ°Ð»
ĠÐ¼ÑĥÐ¶ÑĩÐ¸Ð½ Ð¾Ð¹
ĠÑģÐ¾Ð¾Ð± ÑīÐµÑģÑĤÐ²Ð°
Ġc oll
ĠÐ¼ÐµÑĢÐ¾Ð¿ÑĢÐ¸Ñı ÑĤÐ¸Ðµ
oci ety
ĠÐ¿ ÑĭÑĪ
ĠÐºÐ°ÑĤ Ð¾Ð»Ð¸
ĠÐºÐ¾Ð» ÐµÑģ
ra b
ĠÐ²Ñĭ Ð³Ð¾Ð´Ð½Ð¾
ĠÐ¿Ð¾ÑĤÑĢÐµÐ± Ð¸ÑĤÐµÐ»ÑĮ
ĠÐ¶ÐµÐ»Ð° ÐµÑĤ
ĠÑģÑĭ Ð½Ð¾Ð¼
l am
ĠÐ¿Ð¾Ð·Ð²Ð¾ Ð½Ð¾
ĠÐ·Ð°ÑģÐµ Ð´Ð°Ð½Ð¸Ñı
ĠÐ±Ð¾Ð¼ Ð±Ð°ÑĢÐ´Ð¸
ĠÐŀ Ð¢
ĠÐĶ Ð¢ÐŁ
ĠÐº ÑĢÐ¾Ñģ
ĠÐ±Ð¾Ð»ÑĮ Ð½Ð¸ÑĨÑĥ
Ð´Ð¸Ð½ Ð³
ĠÑģÐ½Ð° ÑĢÑĥÐ¶Ð¸
ĠÐºÑĢÐ°Ñģ Ð¾ÑĤÐ°
Ð¿ÐµÑĢ ÑĳÐ´
ĠÐ·Ð°Ð±Ñĭ Ð»Ð°
ĠÑģ ÐµÑģ
ĠÐ¡ Ð¸Ð»ÑĮ
ĠÐ½Ð¾Ð² ÐµÐ¹
ĠÐ¡ÑĥÑīÐµ ÑģÑĤÐ²ÑĥÐµÑĤ
ĠÐŁ ÑĢÐ°
Ð»Ð°Ñģ Ð¸Ð»
ĠÐ²Ñĭ Ð·ÑĭÐ²Ð°
Ġapp lic
Ġb ar
ĠÑĤÑĢÑĥÐ´ Ð½Ð¾ÑģÑĤÐ¸
Ñ Ĺ
ĠÑģÐ¾Ð·Ð´Ð° Ð½Ð°
ĠÑĥ Ð»Ð¸Ñĩ
ĠÐ·Ð°ÐºÑĢÑĭ ÑĤÑĮ
Ð¸ÑĪÑĮ ÑģÑı
ĠÑĨ Ðµ
ĠÐ·Ð°Ð¿ ÑĢÐ°Ð²
ĠÐ¿ÑĢÐµÐ´Ð¿Ð¾Ð» Ð°Ð³
ĠÐ»Ð°Ð³ ÐµÑĢÑı
ĠÐ½Ð°Ð¿ÑĢÐ°Ð² Ð»Ñı
ĠÐ¿Ð¾Ð´Ð° Ð²Ð»Ñı
Ġl angu
ĠÑģÐ»Ð¾Ð¶ Ð½ÑĭÑħ
Ġsay ing
Ð± Ð»Ñİ
ĠÐ´Ð¾Ð¼ Ð°Ñħ
Ð²ÐµÐ´ Ð¸ÑĤÐµ
ĠÐ¼Ñĥ Ð·
ĠÐ¶Ð¸Ð² Ð¾Ð¿Ð¸Ñģ
Ġh om
Ġcomp an
ĠÐ»Ð°Ð³ ÐµÑĢÑĮ
ĠÑģÐµÐ· Ð¾Ð½Ðµ
Ġb ad
Ġbre ak
Ġc aus
ĠÐ¿ÑĢÐ¾ÑħÐ¾Ð´ Ð¸Ð»
ĠÐ¿ÑĢÐ°Ð·Ð´ Ð½Ð¸ÐºÐ¸
Ġnot hing
A P
ĠÐł Ð°Ð¼
Ð½Ð¸Ðº Ð¾Ð¹
ĠÐł Ð°Ð´
ĠÑģ ÑįÐºÐ¾Ð½Ð¾Ð¼
ĠÐ¿ÑĢÐµÐ´Ð¿Ð¾Ð»Ð¾Ð¶ Ð¸ÑĤÑĮ
ĠÐ¸ÑĤ Ð¾Ð³Ð¸
ĠÐ¡Ð¸Ð±Ð¸ ÑĢÐ¸
ĠÐ¡Ð¾ Ð¾ÑĤÐ²ÐµÑĤ
ĠÑĦÑĥÑĤÐ± Ð¾Ð»Ð¸
ĠÐ± Ð¾ÑĢÑĤ
ĠÐĿÐ¸ÐºÐ¾Ð»Ð° ÐµÐ²Ð¸Ñĩ
ĠL ive
ĠÐ½Ð¾Ð² Ð¸Ñĩ
ĠÐ¿ÑĢÐµÐ¿Ð°ÑĢÐ° ÑĤÐ¾Ð²
idd le
ĠÐ¿Ð¾ÑģÑĤÑĥÐ¿ Ð¸ÑĤÑĮ
ĠÐļÐ¾ÑĢ Ð¾Ð»ÐµÐ²
ĠÐ³ÑĢÑĥÐ¿Ð¿ Ð¾Ð¹
Ð°Ð¼ÐµÑĢÐ¸ ÐºÐ°Ð½
Ð¸Ð½ Ð¾Ð¼
ĠÐ¿Ð¾Ñģ ÑĢÐµÐ´Ð¸
ĠÐ¼Ñı Ñĩ
ĠÐ½Ð° ÑĢÑıÐ´
8 00
Ġc and
ĠÑĢÐ¾Ð´ Ð¸ÑĤÐµÐ»ÑıÐ¼Ð¸
ĠÐ·Ð°ÐºÐ¾Ð½ ÑĩÐ¸Ð»
Ð¸ Ð½Ð¾
ĠÐ·Ð° ÑĤÐµ
ĠÐ²ÑĭÑģ ÑĪÐµÐ¹
ĠÐ±Ð¾ ÑĤÐ¸Ð½
Ð¾Ðº Ñģ
ĠÐ²Ð½ÑĥÑĤÑĢÐµÐ½ Ð½Ð¸Ð¹
ĠÑģÑĤÐ¸ Ð»Ñı
ÑĳÐ½ Ð½Ð¾Ð³Ð¾
ĠÐ´ÐµÐº Ð»Ð°
p ly
ĠÐ² ÐµÑĢÐµ
ĠÐ½Ð°Ð´Ðµ Ð¶Ð´Ð°
ĠÑĪÑĤÐ° Ð±Ð°
ĠÐ¾ÑĤÐº Ð»Ð¾Ð½
ĠÐ¾Ð¿ ÑĥÑħ
ĠÐ³Ð¾Ñģ Ð¿
ÐµÐ»ÑĮ Ð½ÑĭÑħ
Ð²Ð° Ð¶Ð½Ð¾
ĠÐ´ÐµÐ½Ðµ Ð¶Ð½ÑĭÑħ
ĠÐ»Ð¸ ÑĩÐ½ÑĭÐ¹
ĠÐ¾Ð±ÑĥÐ² ÑĮ
Ðĳ ÐĲ
ĠÐĿ Ð°ÑĢ
ĠÐ¾Ñģ ÑĥÐ¶
ĠÐ¡ÑĥÐ´ Ñı
Ġup on
ÑĤÐ¸ Ð¿
ĠÑģÐ¾ ÑİÐ·Ð°
ĠÑģÐµ ÑĢÐ¸Ð¹
ĠÐºÐ¾Ð½ÐºÑĥÑĢ ÑģÐµ
ĠÐļ Ð¾Ð¿
ĠÐºÑĢÐ°ÑģÐ¸ Ð²Ð¾Ð¹
Ð²Ð° ÑİÑīÐ°Ñı
ĠÐ¶Ð¸Ð²Ð¾ÑĤ Ð½ÑĭÐµ
ÑĪÐ° ÑİÑĤÑģÑı
ĠÑģÐ¾Ð²ÐµÑĢÑĪ Ð¸Ð»
ÑĪÐ¸ Ð»Ð°ÑģÑĮ
ÑĢÐ° Ð¸Ð»ÑĮ
Ġt aking
ĠÑĢ Ð²
ĠÐ³ÑĢÐ° Ð½Ð¸ÑĨÐµ
ĠÐ¾Ð±ÑĢÐ° Ð±Ð°ÑĤÑĭ
ĠÐ¿ÑĢÐµ Ð´Ð°ÑĤÐµÐ»ÑĮ
ĠÐ¿Ð°ÑĢ ÐºÐµ
ĠÐ¾ÑĢÐ³Ð°Ð½Ð¸Ð·Ð° ÑĨÐ¸Ñİ
ĠÐ¿Ð¾ ÑĢÐµ
ĠÐ³ Ð²Ð¾Ð·
ĠÐ½Ð° Ð½Ð¾
ÑħÐ¾Ð´ Ñı
ĠÐ·Ð° ÑĤÐ°
ĠÐ¿Ð¾Ñģ Ð¾Ð»ÑĮ
ĠÑģÑĤÑĥÐ´ ÐµÐ½ÑĤÑĭ
ĠÐ¿Ð»Ð°ÑĤÑĮ Ñı
ĠBl ack
ĠÐŁÐ¸ÑĤ ÐµÑĢ
Ġany thing
Ġqu ick
ĠÐ¾ÑĤ Ð½ÐµÑģÑĤÐ¸
ĠÑģÑĨ ÐµÐ½Ñĭ
ĠÐĴ Ð»Ð°
ĠÐ¢ ÑĢÑĥ
ĠÐ´Ð¾Ðº Ð»Ð°
ĠÑĤÑĢÐ° Ð³Ð¸
ĠÐ¿ÑĢÐµ ÑģÑĤÐ¸
ĠÐ¡ ÐµÐ½
ÐĽ Ð°
ĠÐ½Ð°Ð²Ñĭ ÐºÐ¸
ĠÑĥÐ½Ð¸ÑĩÑĤÐ¾Ð¶ Ð¸ÑĤÑĮ
ĠÐ²ÑģÐ¿ ÑĭÑĪ
id ge
ĠÑģÐ° Ð´Ð°
ĠÐ¾ ÑģÐ°Ð´
ĠÐĶ Ð¾Ð¿Ð¾Ð»
ÑĢÐ°Ð² Ð½Ð¸
ic a
ÐĴ Ð¸Ð´
ĠÐ¿ÑĢÐµÐ¸Ð¼ÑĥÑīÐµ ÑģÑĤÐ²ÐµÐ½Ð½Ð¾
ĠÐ·Ð° ÑģÐ»ÑĥÐ¶Ð¸
ĠÐ¿Ð¾Ð´ Ð»ÐµÐ¶
ĠÐĶÐµÐ¹ÑģÑĤÐ² Ð¸ÑĤÐµÐ»ÑĮÐ½Ð¾
ĠÐºÑĢÐµÑģ Ð»Ð°
ĠÐ§ Ðµ
ĠÐ¸Ð·Ð¼ÐµÐ½Ð¸ Ð»Ð¾ÑģÑĮ
ĠÐ½Ðµ ÐºÐ¸Ð¹
ÐµÑĢÐ° Ñħ
ĠA g
ĠÑģÑĤÑĥÐ´ Ð¸Ð¸
ĠÐ¿ÑĢÐ¾Ð¸Ð·Ð¾ ÑĪÐ»Ð°
ĠÐ±Ð¾Ð» Ð¸ÑĤ
ĠÐ¾Ð±ÑıÐ·Ð°ÑĤÐµÐ»ÑĮ Ð½Ð°
Ð¿Ð¾Ð» Ð½Ð¾Ð¼Ð¾Ñĩ
ĠÐŁÐµÑĢ Ð²ÑĭÐµ
Ð¶ Ð½Ð¾Ðµ
ĠÐ¿Ð° ÑĢÐ¸
ĠÐ¿ÑĢÐ¾ÑĦÐµÑģÑģÐ¸Ð¾Ð½ Ð°Ð»ÑĮÐ½Ð¾Ð¹
ĠÐĵ ÑĢÐ°Ð¶Ð´Ð°Ð½
Ñģ Ð¾Ñģ
Ð² ÐºÑĥ
ĠÐ¸Ð½ÑĤÐµÑĢ ÑĮÐµÑĢ
ĠÐ® ÑĢ
ÑĢÐ° Ð¶Ð¸
ĠÐ·Ð° Ð½Ð¾Ð²Ð¾
ĠÐºÐ¾ÑĢÐ¾ÑĤ ÐºÐ¾
ĠÐ²ÑĭÑģÑĤÐ°Ð² ÐºÐµ
ĠGr oup
ĠÐ½ÐµÐ¾Ð±ÑħÐ¾Ð´Ð¸Ð¼ Ð¾Ðµ
m b
Ġconc ern
ĠÐ¾Ð¿ÑĢÐµÐ´ÐµÐ» ÐµÐ½Ð½ÑĭÑħ
Ð¤ ÑĢÐ°Ð½
ĠÑĢÐµ Ð°Ð»ÑĮÐ½Ð¾Ð¹
ĠÑģÐ¾Ð³Ð»Ð° ÑĪÐµÐ½Ð¸Ðµ
ĠÐ¿Ð¸ ÑĢÐ°Ð¼Ð¸
ĠÐ·Ð°Ð½Ñı Ð»
ĠÑĦÐ°Ð¼Ð¸ Ð»Ð¸Ð¸
ĠÑĩÐ¸Ð½Ð¾Ð² Ð½Ð¸ÐºÐ¾Ð²
ĠÐ¿Ð¾ ÑĪÐ»Ð¾
ĠÐļ Ð¾Ð»ÑĮ
ĠÑĥÐºÐ°Ð· Ð°Ð»
Ġ4 1
ĠÐºÐ°Ð¼ Ð½ÐµÐ¹
ĠÐŁ Ð¾Ð»ÑĮÐ·
ĠÐ´Ð° Ð²Ð°Ð»Ð¸
ÑĪ ÐµÐ½Ð¸
ĠÐ¾Ð± Ð¼ÐµÐ½Ð°
Ð¾Ð³Ð¸ Ð¼Ð¸
ĠÐ¼Ð¾Ð½Ð¸ ÑĤÐ¾ÑĢÐ¸Ð½
ĠÐ¾ÑĤÐ¿ÑĢÐ°Ð²Ð¸ ÑĤÑĮÑģÑı
ĠÐ³Ð¾Ñģ Ð¿Ð¾Ð´Ð°
ÑĥÐ½ Ð³
ĠÐ¿ÑĢÐµ Ð´Ð°
Ð²Ð¾ ÑģÑĤÐ¾
ĠÐļ Ð¾Ð¼Ñĥ
ĠÐ¾Ð³ Ð¾ÑĢ
ĠDe cember
ĠÐ·ÑĢÐ¸ÑĤ ÐµÐ»ÐµÐ¹
ĠÐ¼Ð°ÑĤ Ñĩ
ÑĥÐ¿ ÐµÑĢ
ĠÐ¸Ð·Ð»Ð¸ ÑĪ
ÑģÐº Ð¾ÑĩÐ¸Ð»
ĠÐ·Ð°Ð¼ ÐºÐ°
ĠÐ½Ð°Ð· Ð²Ð°Ð»Ð¸
ĠÐļÐ°Ðº Ð¾Ðµ
Ġlook ing
ĠÐ±Ðµ Ð´Ð°
ĠÐŃ Ð»ÐµÐºÑĤ
Ð»Ð°Ð´ ÐºÐ¸
ĠÐ¾Ð´ ÐµÑĢÐ¶
Ġab s
ÑĩÐµ ÑģÑĤÐ²Ð¾Ð¼
ĠÑĦÐ°Ðº ÑĤÑĥ
ĠÑģÐµÑĢÐµ Ð±
ÑıÑīÐ¸Ðµ ÑģÑı
ĠÑģÐ¿ Ð°Ð»
ĠÐ¸Ð½ ÑĤÑĥ
ĠÐ½ÐµÑģÐºÐ¾Ð»ÑĮ ÐºÐ¸Ð¼Ð¸
W hen
ĠÐ½Ð°Ñģ ÑĩÐ¸ÑĤÑĭ
ĠÐ¨ Ð²Ðµ
c il
Ð²Ð»Ðµ ÑĩÑĮ
ĠB ro
ĠÐ¿ÑĢÐ¾Ð² Ð¾ÐºÐ°
ĠÐ²Ñĭ ÑĢÐ°Ð¶Ð°
ĠÑĢÐ°Ð¹ Ð¾Ð½Ð¾Ð²
ĠÐ±Ð¸Ð» ÐµÑĤÑĭ
ĠÐ¸Ð½ÑģÑĤÑĢÑĥ Ð¼ÐµÐ½ÑĤÑĭ
Ġ ???
ĠÑĤÑĢ Ð¾Ð»
ĠÐº Ð¾ÑĤÐ°
Ð»Ñı ÑĨÐ¸Ñı
Ġ0 4
Ð°Ð½Ð´ ÑĢ
Ġgroup s
ĠÐ±ÐµÐ· ÑĢÐ°Ð·
ĠÐ»Ð¸Ð´ÐµÑĢ Ð¾Ð²
ĠÐ¡Ðµ Ð²Ð°ÑģÑĤ
ĠÑĤ ÑĢÐµÐ¼Ñı
ĠÐ¸Ñİ Ð»Ðµ
ĠÐ»ÑİÐ± Ð¾Ð¼Ñĥ
ĠÐ¿ÑĢÐ¸ÑģÑĥÑĤ ÑģÑĤÐ²Ð¸Ðµ
ĠÐ¸Ð³ÑĢÐ° Ð»Ð¸
ĠÐºÐ¾Ð½ÑģÐµÑĢ Ð²Ð°
ĠÑĪÐµ Ðµ
ÑĢÐ°Ð· ÑĥÐ¼
ĠÐŁ Ð°Ð½
ater ial
ĠÐ¾ÑĦÐ¸ÑĨ ÐµÑĢÐ¾Ð²
ĠÑĥÐºÑĢÐ°Ð¸Ð½ ÑģÐºÐ¸Ñħ
ĠÐ¸Ð¼Ð¿ ÑĥÐ»ÑĮ
ĠÐ¾Ð± Ð»Ð°Ðº
ĠÐ¿Ð¾Ð¿ÑĭÑĤ ÐºÐ°
Ġbu ilt
Ð³ Ð³
ĠÐľ ÑĥÐ·
Ð½ÑĮ Ðµ
ĠÐº Ð¾Ð³
Ð¾Ð¼ Ñĭ
Ð¾ ÑģÑĤÐ°Ð½Ð¾Ð²
ÑĤÐ¾Ñĩ Ð½ÑĭÐ¹
ĠÐ²Ñĭ ÑģÑĤÑĢÐ¾
ĠÑħÐ¾ÑĢÐ¾ÑĪ Ð¸Ñħ
ĠÐ·Ð°Ð´Ð° ÑĩÐµÐ¹
Ġd est
ĠÐ¿Ð¾Ð³Ð¸Ð± ÑĪÐ¸Ñħ
ĠÐĵÐ¾ÑģÐ¿Ð¾Ð´ Ð¸
ĠÐ²ÐºÑĥ ÑģÑĥ
ĠÐ·ÐµÐ» Ñĳ
Ġs us
ĠÐºÐ°Ð¿ Ð¸ÑĤÐ°Ð½Ð°
ĠÐ¾Ð±Ð¾Ð¹ÑĤÐ¸ ÑģÑĮ
ĠÑĦÐ¸Ð½Ð°Ð½Ñģ Ð¾Ð²Ð¾Ð¹
ĠÐ²ÑĭÐ½ÑĥÐ¶Ð´ ÐµÐ½Ñĭ
ĠÑĥÑĢÐ¾Ðº Ð¸
p art
ÑģÑĤÐ² ÑĥÑİÑīÐ¸Ðµ
ĠÐ¾ ÑĢÑĥ
ĠÐ½Ð°ÑĨÐ¸Ð¾Ð½ Ð°Ð»ÑĮÐ½Ð¾Ð³Ð¾
ĠÐ½ ÐµÐ»Ð¾Ð²
ĠÐĿÐ° Ð²
Ð¼Ð¸ Ð»Ð°
ĠÐ·Ð°Ð± Ð¾Ð»
Ġp ort
ĠÐ¿ÑĢÐ¾Ð¸Ð·Ð¾ ÑĪÐµÐ»
ĠIn ternational
ĠÑĨÐµÐ½ÑĤ ÑĢÐ¾Ð¼
ĠÐ¡ ÐĲ
Ġass oci
Ð¸Ð½ ÑģÐºÐ¾Ð¹
Ġsa w
ĠÐ±ÑĢÐ°ÑĤÑĮ Ñı
ÑĥÐ´ Ñĭ
ĠÐ¶ Ð´Ð°Ð»Ð°
ail y
ĠÐ¿ Ð»ÐµÑĤ
ÐĶÐ° Ð¶Ðµ
ÑĢÐ¾Ð²Ð° Ð²
ĠÐ²ÐµÐ´ ÐµÐ½Ð¸Ñı
ĠÑģÐ¾ÑģÑĤÐ°Ð² Ð¸ÑĤ
ĠÐ·Ð°ÑĤÑĢÐ° ÑĤ
ĠÐļÐ°Ð»Ð¸ Ð½Ð¸Ð½
ĠÐ¶Ð¸Ð» ÑĭÑħ
Ñı ÐµÐ¼
ĠÑģÐ¾ÑģÑĤÐ¾Ñı Ð½Ð¸Ñİ
ĠB y
ĠÐ°ÐºÑĤÐ¸Ð² Ð½Ð¾ÑģÑĤÑĮ
ĠÑĥÑģÑĤÑĢÐ¾ Ð¸ÑĤÑĮ
ĠÐ¿Ð°Ð´ ÐµÐ½Ð¸Ñı
ĠÑĥÐ¼ÐµÑĢ Ð»Ð°
ĠÐ¿ Ð¾Ð³ÑĢÐ°
ĠÑģÑĤ Ð°Ðº
Ġst ri
ĠÑĥÐ½Ð¸Ð²ÐµÑĢÑģ Ð¸ÑĤÐµÑĤÐµ
ĠÐ¾Ð±Ð¾ÑĢÐ¾ ÑĤ
Ð¦ ÐµÐ½ÑĤ
ĠÐĺ Ð»ÑĮÑı
Ñĥ Ñį
ĠÐµÐ¶Ðµ Ð³Ð¾Ð´
ĠÐ´ ÑĥÐ¼Ð°Ð»Ð¸
ĠÐľ ÐµÐ»
Ġtry ing
I P
ÑĩÐµÑĢ Ð¾Ð¼
us ed
ĠÐ¢ ÑĢÐ°Ð½
ĠÐ´ ÐµÐ·
ĠÑĤÑĢÐ¸ ÑģÑĤÐ°
ĠÑĦ Ð»Ð¾ÑĤ
ir t
Ð¿Ñĥ ÑģÑĤÑı
Ġc ell
ĠÐ¼Ðµ Ð³Ð°
ĠÐ¶Ð°Ð» Ð¾Ð±
ÑĪÐ¸ Ð±Ð°
ĠÐ°Ð² ÑĤÐ¾ÑĢÑĭ
Ñĩ ÑĥÐ¶
ĠÐ²Ð¸Ð½ ÑĤÐ¾Ð²
ĠÑģÑĥ Ð¼Ðµ
ĠÐ¿Ð¾ ÑĪ
Ġ4 7
ĠÐ¾Ð±ÑĢÐ° Ð´Ð¾Ð²
ĠÑĥ Ð»ÐµÑĤ
ĠÑĦÐ¸Ð³Ñĥ ÑĢÐ°
ĠÐ´ ÐµÐ»ÑĮ
ÑīÐ¸Ðµ ÑģÑı
ĠÐ±Ñĭ Ð²Ð°Ð»Ð¾
Ð¾ÑĤ ÐµÑħ
Ð·Ð° Ð²Ð¸Ñģ
ÐĶ Ð¾ÑĢ
in f
ĠÐ²Ð¾Ð·Ð²ÑĢÐ° ÑīÐ°ÐµÑĤÑģÑı
ĠÐºÐ¾ÑĢÐ¾ÑĤ ÐºÐ¸Ð¹
ĠÐĶ Ð¶Ñĥ
Ð³ÑĢÐ° Ð´Ð°
ĠÐļÐ¾Ð¼ Ð°Ð½
ĠÑģÐ¾Ð¿ÑĢÐ¾Ð² Ð¾Ð¶
ĠÐ½Ð° ÑĥÐºÐ°
Ð±Ðµ ÑĢÐ¸
ĠÐ¼ÑĥÐ¶ ÑģÐºÐ¾Ð¹
ÑĢÐ¸ Ð»Ð¸ÑģÑĮ
ĠÐ¸Ð· Ð½ÑĥÑĤÑĢÐ¸
Ġf ood
ĠÐ·Ð°Ð¿ Ð¾Ð²ÐµÐ´
um b
Ð»Ñĥ Ð±Ðµ
l ier
ĠÐ¿Ð¾ÑĤÐ¾Ð» Ð¾Ðº
ĠÑģÑĤÐ°Ð² ÐºÐ¸
ĠÐ¶ÑĥÑĢÐ½Ð°Ð»Ð¸ ÑģÑĤ
Ġsugg est
ĠÑı Ð´
E W
ĠÐ¾ÑĪÐ¸Ð± ÐºÐ°
Ġa ction
ĠÐ¢ ÑĢÐ°Ð¼
ĠÐ¿ÑĢÐ¾ÑĦÐµÑģÑģÐ¸Ð¾Ð½ Ð°Ð»ÑĮÐ½ÑĭÑħ
ĠÑģÐ²Ð°Ð´ÑĮ Ð±Ñĭ
ĠÐ¼Ð¾Ð´ Ð¸
Ð½Ð¾Ð² ÐµÐ½Ð¸Ðµ
Ġ7 00
ĠÑĪÐ¸ ÐºÐ°ÑĢ
ĠÑĨÐµÐ» ÑĥÑİ
int on
ĠÐ¼Ð¾Ñī Ð½Ð¾ÑģÑĤÑĮ
ĠÐ¿ÑĢÐ¾Ð²Ð¸Ð½ ÑĨÐ¸Ð¸
ĠÐŀÑĤ Ð»Ð¸Ñĩ
Ġsec urity
ĠÑĢÐ°Ð·Ð³Ð¾Ð²Ð¾ÑĢ Ñĭ
ĠÐºÑĢÐ°Ñģ Ð¾ÑĤÑĥ
ĠÑģÐ¾Ð±ÑĢÐ° Ð½Ð¸Ñı
ĠÐ¿ÑĢÐ¸ ÑħÐ¾Ð¶
Ð¶Ð¸ Ð³Ð°
ĠS y
Ð¾ÐºÐ° ÑĩÐµ
ĠÐºÐ°ÑĩÐµ ÑģÑĤÐ²ÐµÐ½Ð½Ð¾
ÐĿ Ð¡
Ġm ess
ĠÐ±Ð»Ð° Ð³Ð¾Ð´
ĠÑĤÐµÐ» Ñĥ
ĠWh ite
Ð»Ð¸ Ð·Ð¾Ð²
ĠÐºÐ»ÐµÑĤ Ð¾Ðº
ĠÐ¿Ð¾ ÑĢÐ°Ð¶ÐµÐ½Ð¸Ñı
ĠÑĢÐµ Ð¼Ðµ
Ġwor ks
Ġwho le
viron ment
ĠÑģÐ¾Ð±Ð¸ÑĢÐ° ÑİÑģÑĮ
c ast
ĠÐ±ÑĢÐ° ÐºÐ°
ĠÐ¿ÑĢÐ¸ ÑģÑĤÐ°
ĠÐ¿ÑĢÐ¾Ð´Ð° Ð¶Ñĥ
ĠÐ¼Ð¾Ð½Ð°ÑģÑĤÑĭ ÑĢÑĮ
Ġs old
Ð»Ð¸ Ð²Ð°Ñı
Ð»Ðµ Ð¸
ĠÐ´ÐµÐ» Ð°Ñħ
Ñį Ð½Ð´
ĠÐ¿ÑĢÐ¾Ñģ Ð²ÐµÑĤ
ĠÑĪ Ð²ÐµÐ¹
ĠÐ¼Ð¾Ð»Ð¾Ð´ Ð°Ñı
ĠÐ³ÑĢÐµ Ñħ
ĠÐ¶ÐµÐ»ÐµÐ· Ð½Ð¾Ð¹
ĠÐ· Ð´Ð°Ð½Ð¸Ð¸
ĠÐ¾ÑĤÐºÑĢÐ¾Ð² ÐµÐ½Ð½Ð¾
ÑĢÐµ Ñı
ĠÐ²Ð¾ÐµÐ½Ð½Ð¾ ÑģÐ»ÑĥÐ¶Ð°
, ,
ĠÐ½Ð°ÑĥÑĩ Ð½Ð¾Ð¹
Ð»Ð¾Ð½ Ð´Ð¸Ð½
ĠÐ¿Ð¾ÑģÑĤÐ°Ð² ÐºÐ¸
ĠÐ¼Ð¾ ÑĤÐ¾ÑĢ
Ġ19 20
ĠÐ²ÐµÐ¶ Ð»Ð¸Ð²Ð¾
ĠÑģ Ð¼ÐµÑĤ
ate g
ÐĿÐ« ÐĻ
Ð°Ð½ ÑģÐºÐ¾Ð³Ð¾
ĠÐ¿Ð¾ÑģÐµÐ» ÐµÐ½Ð¸Ñı
Ġoff ice
ĠÐ¿Ð¸ ÑĢ
Ġv ia
ĠÐ¿ÑĢÐµÐ´ÑģÑĤÐ°Ð² Ð»ÐµÐ½
ĠÐ±ÑĥÑĢ Ð¶Ñĥ
Ð»Ñİ Ð·Ð¸Ð²
ĠÐļÐ°Ð·Ð°Ñħ ÑģÑĤÐ°Ð½
Ðº ÐµÐ¹
ĠÐ´Ð¾Ð³Ð° Ð´Ñĭ
ĠÑĥÐ²Ð° Ð¶ÐµÐ½Ð¸ÐµÐ¼
ĠÑĥÑĩÐµÐ½Ð¸ ÐºÐ¾Ð²
Ð´ÐµÐ» ÑģÑı
ĠÐ¶ÐµÐ»Ð° Ð½Ð¸Ñİ
ĠÐ¿ÑĢÐ¾ÑģÑĤ ÑĭÐ¼
ÑģÑĤ ÐµÐ½
ĠÑĢÐ°Ð² Ð½Ð¾Ð²Ðµ
ĠÑħÐ¾Ð·Ñı ÐµÐ²Ð°
ÑĢÐµ Ð³ÑĥÐ»Ð¸
ĠÐĵ Ð¸
ĠÐ²Ð· Ð´ÑĢÐ¾Ð³
ĠÑģÑĤÑĢÐ¾ Ñı
ĠÐ¿ÑĢÐ¸ Ð½ÐµÑģÑĤÐ¸
Ð· Ð°Ð»
Ð°Ð»ÑĮ Ð½Ð°
Ġbr ing
ĠÐĶ ÑĢÐ°
ĠÐ¿ÑĢÐ¸Ð² ÐµÐ»Ð¾
ĠÐ±ÑĢÐ¾ÑģÐ¸ ÑĤÑĮ
Ð´Ð¾ Ð½Ð°
ĠÐ¾ÑĤ Ð¾Ð±
ĠÐ²Ð¸ ÑĢÑĥÑģ
ĠÑĩÐµÑĢ Ð½Ð¾Ð³Ð¾
ĠÐ±ÑĢÐ°ÑĤÑĮ ÐµÐ²
ĠÑį Ð³Ð¾
Ð·Ð° Ð½Ð¸
ĠÐºÑĢÐ° ÑģÐºÐ¸
ĠÐ½ÑĥÐ¶ Ð´Ð°ÐµÑĤÑģÑı
ĠÐ±Ð¾Ð»ÑĮ Ð½Ð¸ÑĨÑĭ
ĠÐ¾ÑĤÐ¿ÑĢÐ°Ð²Ð¸ Ð»Ð¸ÑģÑĮ
ĠP ark
ĠÐ´ Ð°ÑĤÑĭ
ĠÑĨÐµÐ½ÑĤÑĢÐ°Ð»ÑĮ Ð½Ð¾Ð¹
ĠÐ¿ÑĢÐ¾ÑĨÐµÐ´ ÑĥÑĢ
ĠÐ¾Ð¿ÐµÑĢÐ° ÑĨÐ¸Ñİ
ĠÐľ Ð°Ð¼
ĠÑģÑĥÑī Ð½Ð¾ÑģÑĤÐ¸
Ð²Ð° ÑİÑīÐ¸Ð¼
Ġph ot
Ð¿ Ð¾Ð¿
ĠÐ¿ÑĢÐ¾Ð´Ð¾Ð»Ð¶ Ð¸ÑĤÑĮ
ĠÑĤÐµÑĢÑĢÐ¸ÑĤÐ¾ ÑĢÐ¸Ñı
Ġpr im
ĠÐ¿ÑĢÐ¾Ñģ Ð¼Ð°ÑĤÑĢÐ¸
Ð± ÐµÑĤ
ĠÐ¿Ð»Ðµ Ñĩ
ĠÐ¾Ð¶Ð¸ Ð´Ð°
Ð»Ñĭ Ð±
ĠÐ¾Ð· ÐµÑĢÐ¾
ĠÐ´ ÑĢÐ°Ðº
Ð¶ ÐµÐ½Ñĭ
ĠÑĥÑĩÐ°ÑģÑĤ ÐºÐ¸
ĠÐ¡Ð¾Ð² ÑģÐµÐ¼
ĠÐ¿ÑĢÐ¸ÑģÑĥÑĤ ÑģÑĤÐ²ÑĥÐµÑĤ
Ð¾Ðº ÑĢÑĥÐ³
Ġch all
ĠÐºÐ²Ð°Ð»Ð¸ ÑĦÐ¸ÐºÐ°ÑĨÐ¸Ð¸
ĠÐ´Ð² Ñĥ
ra z
ĠÐļÐ°Ð² ÐºÐ°Ð·
ĠÐ¾Ð±Ñĭ ÑĩÐ½ÑĭÐµ
ĠÐ´ÐµÐ»Ð° ÐµÐ¼
ĠÑĢÐµ ÑĪÐ°ÐµÑĤ
ĠÐ»ÐµÐ¹ÑĤÐµÐ½ Ð°Ð½ÑĤ
ĠÐºÐ¾Ð½Ðµ ÑĩÐ½Ð¾Ð¼
se c
ÑĢÐ¾Ð² ÑĮ
Ġright s
ĠÐŁÐ¾ Ð½Ð¸Ð¼Ð°
p ite
ĠÐ±ÐµÑģÐ¿ Ð¾ÑĢÑıÐ´
ĠÐ¤ Ð¸Ð»ÑĮ
Ð½Ðµ ÑģÐ»Ð¾
un ity
ĠÐ¶ÑĥÑĢÐ½ Ð°Ð»Ðµ
ĠÐĴÑģÐµÐ¼ Ð¸ÑĢ
ĠÐ·Ð° Ð±Ð¸ÑĢÐ°
ÑģÐºÐ° Ð´
ÐŁ ÐĲ
ĠÑģÐ¾Ð²ÑĢÐµÐ¼ÐµÐ½ Ð½ÑĭÐ¹
ĠÐ½Ðµ Ð¾
Ð½Ð¸ÑĨÐ° Ð¼Ð¸
ĠÐ¿Ð¾Ð½ ÑĢÐ°Ð²Ð¸Ð»Ð°ÑģÑĮ
ĠÐ·Ð°ÑģÐµ Ð´Ð°Ð½Ð¸Ðµ
ÐŁ Ð¾Ð¿
ĠÐ² Ð²Ð¸Ð´Ñĥ
Ġf ig
ĠR o
ĠÑįÐºÑģÐ¿ÐµÑĢ ÑĤÑĭ
ĠÑĤÐ¾ Ð½Ð¾Ð¼
ĠÐ»ÑİÐ± ÑĭÐ¼
ĠÐ·Ð°ÑĢÐ¿Ð»Ð° ÑĤÑĭ
Ñĩ Ð½Ñĭ
ĠÐ¸ÑģÐ¿Ð¾Ð»ÑĮÐ· Ð¾Ð²Ð°Ð»Ð¸
ÐºÐ¾Ð² Ð¾Ðµ
ĠÐºÐ° Ð½Ð¸ÐºÑĥ
ĠÐ»Ð¾ÑĪÐ° Ð´ÐµÐ¹
ĠÐºÑĥÐ»ÑĮ ÑĤÑĥÑĢÐµ
ĠÐ½Ð°Ñħ Ð¼Ñĥ
ĠÐ´Ð²Ð¸Ð¶ ÐµÐ½Ð¸ÐµÐ¼
ĠÐ¾Ð± Ð»Ð¾Ð¶
ÐºÐ¾ ÑģÑĤÑĮÑİ
ĠÐ°Ð± Ð¾Ð½
Ñħ Ð°Ð½
ĠÐ¿Ð¾Ð¸ ÑģÐºÐ¾Ð²
ĠÐ¿Ð»Ð° Ð½Ð¾Ð²
ĠÑģÐ° Ð½Ð°
ĠÐ¯ ÑĢ
ĠÑĢÐ°ÑģÐ¿ Ð»Ð°
ĠÐ´Ð¾Ð± ÑĢÐ¾Ð´
Ð§ ÐµÐ³Ð¾
ĠÑĢÐ°Ñģ ÑģÑĤÑĢÐ¾
ÑĩÐ¸ ÐºÑĥ
Ð»Ð¾ Ðµ
Ð¸Ð² ÑĪÐ¸Ñħ
Ġorig inal
ĠÐ´Ð°Ð½ Ð½Ð¾Ðµ
ĠÐ°ÑĤÐ¼Ð¾Ñģ ÑĦÐµÑĢÑĥ
il le
Ġg re
ĠÐ¿Ð¾ÑģÐ»ÐµÐ´ Ð½ÑıÑı
ĠÑģÐµÐ¼ÑĮ Ð´ÐµÑģÑıÑĤ
ress ed
Ñģ Ð¸ÑĤ
med i
ĠRuss ia
ĠÐ¿Ð¾Ð» Ð¾Ð¼
Ð½Ð°Ð´ ÑĨÐ°ÑĤ
ĠÑģÐ¾Ð±Ð¸ÑĢÐ° ÑİÑĤÑģÑı
Ġdist rib
ĠÐ¿ÑĢÐµÐ²Ñĭ ÑĪÐ°ÐµÑĤ
ĠÑĥÑħÐ¾Ð´ Ð¸ÑĤÑĮ
ĠT imes
ÑĤÐ¾Ð² Ð¾Ð³Ð¾
ĠÐĵÐ¾Ñģ Ð¿Ð¾Ð´Ð°
ĠÑģÑĤÐ° ÑĢÐ°Ñı
ĠÑģÐ²ÑıÑĤ Ð¾Ð³Ð¾
ĠÑĥÐ¶ Ð°ÑģÐ°
Ð¸Ð¼ ÑĥÑīÐµÑģÑĤÐ²
ĠÑħ ÑĢÐµÐ½
ĠÐ³Ð°Ð· ÐµÑĤÐµ
ĠÑģÐºÐ°Ð½ Ð´Ð°Ð»
ĠL ondon
ĠÐ¼ÐµÐ´ Ð°Ð»ÑĮ
ĠÐ¾ÑĦÐ¸ÑĨÐ¸Ð°Ð»ÑĮ Ð½ÑĭÐ¹
ĠÐ¿ÑĢÐµÐ´Ð¾ ÑģÑĤÐ°Ð²Ð»ÑıÐµÑĤ
ĠÐ¾Ñģ ÐµÐ½Ð¸
ĠÑįÐºÐ¾Ð½Ð¾Ð¼Ð¸ÑĩÐµÑģÐº Ð¸Ñħ
ĠÐ¿ÑĢÐ¾ÑħÐ¾Ð´ Ð¸Ð»Ð¸
Ð½ ÐµÐ½Ð°
ĠÐ¸Ð³ Ð½Ð¾ÑĢÐ¸
ĠÐ¾ÑĤÐ²Ðµ ÑĩÐ°
ĠCount y
f ort
ÑĤÑĥ Ð·Ð¸
ĠÐ¿Ð¾Ð´ Ð²Ðµ
ÐĴ Ð·
ĠÐºÑĢÐ¸ ÑģÑĤÐ°Ð»
ĠÐĸÐµÐ½ ÑīÐ¸Ð½Ð°
ĠÑĤÐ¾Ð» ÐºÑĥ
lo ad
ÑĤÐ¾Ñĩ ÐºÐ°
ĠÐ¾ÑĤÑģÑĥÑĤ ÑģÑĤÐ²ÑĥÐµÑĤ
ĠÐ¿ÑĢÐ¾Ð´Ð° Ð²Ð°ÑĤÑĮ
ĠÐ¾Ð±ÑģÑĤÐ¾ÑıÑĤÐµÐ»ÑĮ ÑģÑĤÐ²
ĠÐ½Ð° Ð¿Ð°
Ġl ost
Ð¾Ð¿Ð¸ ÑģÑĮ
ÑĤÐµÑĢ Ñĭ
Ñĩ Ð¸Ñħ
ÐŁ Ð£
ĠÑĤ Ð¾ÐºÐ°
Ġpre t
ĠÐ¿Ð»ÐµÐ¼ ÑıÐ½
ĠÑģÐ¾Ð±ÑģÑĤÐ²ÐµÐ½ Ð½Ð¾Ðµ
ĠÐ´Ð¸Ð°Ð³ Ð½Ð¾Ð·
ĠÐ¿Ð¾Ñħ Ð¾Ð¶Ð°
ĠÐ¿Ð¾Ð¸Ð½ÑĤÐµÑĢÐµÑģ Ð¾Ð²Ð°Ð»ÑģÑı
is ted
ĠÐ³ÐµÐ½ÐµÑĢÐ° Ð»Ð°
Ð¾Ñĩ Ð½Ð¾Ðµ
ĠÐ¿Ð°ÑĢÐ»Ð° Ð¼ÐµÐ½ÑĤÐ°
ĠÐ¸ÑģÐ¿ ÑĢÐ°Ð²Ð¸ÑĤÑĮ
ĠÐĵÐ¾Ð²Ð¾ÑĢ ÑıÑĤ
ÑģÑĤ Ð¾Ð½
ĠÐ¡ ÐĿÐĵ
ĠÐ¿ÑĢÐ¸ ÑģÑĤÐ°Ð²
ĠÐ¼ ÑĥÐ»ÑĮÑĤ
ĠÐ²Ð¾Ð·Ð½Ð¸Ðº Ð»Ð°
pecial ly
ĠÐ½Ðµ ÑĢÐ°Ð²
ÑĪÐµÐ½ Ð½Ð¾Ð¹
Ġ... <|
ĠÑĢÐ¾Ð´ Ð¾Ð²
Ðĺ Ð»Ð¸
ĠÐ¢ Ð°ÑĤÐ°
Ð¸ÑĩÐµÑģÐº Ð°Ñı
ÑģÑĤÐ² Ð¾Ð²Ð°Ð½Ð¸Ðµ
N o
ÑĢÐ¾Ð² Ð¾Ð³Ð¾
ĠÐ¼ÐµÑģÑĤ Ð½Ð¾Ð¹
al y
ĠÑĤÑĢÐµÑĤÑĮ ÐµÐ¹
ĠÐ¿Ð¾ ÑĩÐ¸
ĠÑĥÑģÐ¿ÐµÑħ Ð¾Ð¼
ĠÑĦ ÑĢÐ°Ð·Ñĥ
ĠÑģÐ¼ÐµÑĢÑĤÑĮ Ñİ
ÑģÑĤÐ¸ ÑĤÑĮÑģÑı
Ð°Ð½ ÑģÐºÐ¸Ð¹
Ðľ Ð¾Ð»Ð¾Ð´
ĠS an
Ð½Ð¾Ð¶ ÐºÐ¾
ĠÐ¾Ð´Ðµ Ð¶Ð´Ðµ
ĠÐ²ÑĭÑģÑĤÐ°Ð² ÐºÐ°
ĠÐºÐ»Ð¸ÐµÐ½ÑĤÐ° Ð¼
ĠÐ´Ð° ÑĤÐ°
ĠÐĶÐ¶ Ð¾ÑĢ
ĠÐ±Ð¾Ð»ÐµÐ· Ð½ÐµÐ¹
ĠÐ¶ÐµÐ»Ð° Ð½Ð¸Ð¸
ĠÑĥ Ð±Ð¸ÑĢÐ°
ĠÐ¼ÑĭÑģÐ» ÐµÐ½Ð½Ð¾
ĠÐ³ÑĢÑĥ ÑģÑĤÐ½Ð¾
Ġex ec
Ġ19 18
ĠÐļÐ° Ð½Ð°
ĠÑģÐ¸Ð»ÑĮ Ð½ÑĭÐ¼
ĠÐĵ Ð°Ð¹
ĠÐ¸Ð½ Ð´ÐµÐ¹
ĠT V
ĠÐĶ Ð¶Ð°
ĠÑĥÐ²ÐµÐ»Ð¸ ÑĩÐµÐ½Ð¸Ñı
Ð²Ð°Ð¹ ÑģÑı
ĠÐ¿ÐµÑĢÐµÑħÐ¾Ð´ Ð°
Ð² ÑĪÐ¸Ð¼Ð¸
ÐļÐ°Ðº Ð¾Ðµ
ĠÐ¾ÑĤ ÐµÐ»ÑĮ
Ġc op
ĠÑĦÐ°Ð¼Ð¸ Ð»Ð¸Ñı
ĠÐ²Ð¾ÑģÐ¿Ð¸ÑĤÐ° Ð½Ð¸Ñı
Ð¾Ð² Ð¸Ñĩ
ĠÑģÐµ ÑĢÐ¸Ñı
ÑĦÐ¸ ÑĢ
ĠÐ³ Ð¾ÑĢÐ¾
at ur
ĠÐ¾Ð±Ðµ Ð´Ð°
ĠÑĩÑĤ ÐµÐ½Ð¸Ñı
ĠÐ½Ðµ Ñħ
ĠÐ·Ð° Ð´ÐµÑĢÐ¶Ð°
ĠÑĥÐ¼ ÐµÐ»
ĠÐ²Ð¾Ð· ÑĮÐ¼Ð¸
Ðĺ Ð¡
Ġ _
Ð²Ñĭ ÑĢ
ĠÐ¾ÑģÑĤÐ°Ð²Ð»Ñı ÑĤÑĮ
ĠÐ¾ÑĤÐºÑĢÑĭ ÑĤ
ĠÐĲÑĢ ÐºÐ°
ĠÐ¶Ð¸Ð´ ÐºÐ¾ÑģÑĤÐ¸
ĠÐ¦ Ð°ÑĢ
ĠÐ¿Ð¾Ð»Ñĥ Ð¾ÑģÑĤ
ÐºÐ¾ Ð½Ñĭ
Ð½Ð¾Ð¼ Ð¾ÑĢ
ĠÐ½Ð°Ð¶ Ð¼Ð¸ÑĤÐµ
ĠÐ½ÐµÐ±Ð¾Ð»ÑĮÑĪ ÑĥÑİ
Ðĵ Ðĳ
ĠÐºÐ¾Ð½ ÑĤÐ¸Ð½
ĠÐ¾ÑģÑĤÐ°Ð½Ð¾Ð² Ð¸ÑĤÑĮÑģÑı
ĠÐ¸ÑģÑģÐ»ÐµÐ´ Ð¾Ð²Ð°ÑĤÐµÐ»ÑĮ
Ñİ ÑĤÐ°
ĠÑĢÐ°ÑģÑĤ ÐµÐ½Ð¸Ðµ
ĠÐĲÐºÐ°Ð´ÐµÐ¼ Ð¸Ð¸
Ġde ep
ÑĢÐ¾Ðº Ð°
ĠÐ²ÑĭÐ±ÑĢÐ° Ð»
ĠÐ·Ð°Ð± ÑĥÐ´
ĠÐ¿ÑĢÐµÐ¿Ð°ÑĢÐ° ÑĤÑĭ
âĢĿ ,
ĠÐ¿Ð¾ÐºÐ¾Ð» ÐµÐ½Ð¸Ðµ
ĠÐ¡ ÑĤÐ¸Ð²
ĠÐ¸ÑģÐ¿Ð¾Ð» Ð½ÐµÐ½Ð¸Ð¸
ĠÐ²Ð¾Ð·Ð²ÑĢÐ° ÑīÐ°ÑĤÑĮÑģÑı
ĠÐ°Ð½Ð³Ð»Ð¸Ð¹ ÑģÐºÐ¾Ð¼
ĠÐ¸ ÐºÐ¾Ð½
ain ing
Ð±ÐµÐ¶ Ð°Ð»Ð°
fic ult
ĠÐ¾ÑģÐ½Ð¾Ð² Ð½Ð°Ñı
ĠÐ¿ÑĢÐ¸Ð²Ñĭ ÐºÐ»Ð¸
ĠÐ¾ÑĢ ÐºÐµ
Ð´ Ð¶Ð¸
Ġspec ific
Ġsystem s
ĠÑįÐ»ÐµÐºÑĤ ÑĢÐ¾Ð¿
ĠÐ´ÑĥÑĪ Ð¾Ð¹
ĠÐ¾Ð±ÑĬ ÑıÐ²Ð»Ñı
Ġne g
200 8
ĠÑĨÐµÐ½ Ð°Ð¼
ÑģÐ¿ Ð°
ĠÐ½Ðµ ÑģÐ¾
ĠÐ³ÑĥÐ»Ñı ÑĤÑĮ
d o
ĠÐ²ÐµÑĩÐµ ÑĢÐ¸Ð½
ÐºÐ°Ð· Ð°Ð»Ð¾ÑģÑĮ
ĠÐ¿ÑģÐ¸Ñħ Ð¾Ð»Ð¾Ð³Ð¸Ð¸
ĠÐ»Ð¸ ÑĩÐ½ÑĭÑħ
ÑĢÐ¾Ñģ Ñĭ
ĠÑĤÑĢÐ°Ð½ÑģÐ¿ Ð¾ÑĢÑĤÐ¸
ĠÐ¿ÐµÑģ Ð¾Ðº
ĠA ct
ĠÑĢÐ°Ñģ ÑĨÐ²ÐµÑĤ
Ð¿ÑĢÐ¾ ÑĤÐ¸Ð²
ĠÐºÑĢÐµÐ¿Ð¾ ÑģÑĤÐ¸
ĠÐ¿ÑĢÐ¾Ð´ Ð¾Ð²Ð¾Ð»ÑĮ
U R
ĠÑĢÐ¾Ð¼ Ð°Ð½Ð°
Ġsh ows
ĠÑģÐ¾ÑĨÐ¸Ð°Ð»ÑĮ Ð½ÑĭÐµ
ĠÐµÐ´Ð¸Ð½ ÑģÑĤÐ²ÐµÐ½Ð½Ð¾Ðµ
te st
ĠÐ¿Ð¾ÐºÐ¸Ð½Ñĥ ÑĤÑĮ
ĠÐ²ÑĭÐ³Ð»Ñı Ð´ÑıÑĤ
ĠÐ±Ð»Ð°Ð³Ð¾Ð´Ð°ÑĢ Ð½Ð¾ÑģÑĤÑĮ
ĠÑĦÐ¾ÑĢÐ¼Ð¸ ÑĢÐ¾Ð²Ð°Ð½Ð¸Ðµ
ÑĥÐ´ Ðµ
ĠEng lish
ĠÐ·Ð° Ð±ÑĢÐ°ÑĤÑĮ
ĠÐĴ ÑģÐ¿Ð¾Ð¼
ÑĢÐ° Ñĩ
ĠÑĪ Ð°Ð±
Ġcour t
ĠÑĥÐ¼ ÐµÑĢÐµÑĤÑĮ
ĠÐ´ÐµÐ» Ð°Ð¼Ð¸
y ing
ĠÐ¿ ÐµÐ²
ĠÐ¾Ð±Ñĭ ÑĩÐ½Ð¾Ð³Ð¾
ĠÑĥÐ»Ð¸ ÑĨÐ°Ñħ
ĠÑĥÐ¼Ðµ ÑİÑĤ
Ð»Ð¸Ð½ Ð´
ĠÐ¿Ð°Ð½ ÐµÐ»Ð¸
Ġwom an
ĠÐ¿Ð»Ð¾Ñħ Ð¾Ð¹
ĠÐ½Ðµ Ð¶Ð½Ð¾
Ðŀ ÑĢÐ¸Ð³Ð¸Ð½Ð°Ð»
ĠÐ¿ÐµÑĢÐµ ÑĩÐµÐ½ÑĮ
Ġits elf
Ġt reat
ĠÐĴ ÑĢÐ¾Ð´Ðµ
Ð°ÑĤ ÑĭÐ¹
ĠÐ²Ð¾Ð¿ ÑĢÐ¾ÑģÐµ
ĠÐ® Ð³Ð¾
Ġim m
ĠÐ·Ð² ÑĳÐ·
ĠÐ¿Ð»Ð¾ÑīÐ°Ð´ ÑĮÑİ
ĠÐ±Ð¸Ð±Ð»Ð¸Ð¾ÑĤÐµ ÐºÐ¸
ĠÐĽÐµ Ð³
ÐµÐ» ÐµÐ²
s k
ÐĽÑİ Ð´Ð¸
Ġpriv ate
ĠÐ¿ÑĢÐ¸Ð½ÑĨÐ¸ Ð¿Ñĭ
ĠÐĹ Ð¾Ð»Ð¾ÑĤ
ĠÑĦ Ð°ÑģÐ°
Ġ1 10
ĠÐ¾ Ð³Ð»ÑıÐ´Ñĭ
ĠÑģÑĤÑĢÐ°ÑĤÐµ Ð³Ð¸Ð¸
Ñģ ÐµÐ¹
ĠÑĤ ÑĢÐ¾Ð¹
Ð½Ð¾Ñģ Ð¸ÑĤÑģÑı
ĠÐºÑĢÑĭ ÑĪÐ¸
ÑĤÐµÑĢ Ð¾Ð²
Ð½ÑĮ Ñı
ĠÐ´ÐµÑĢÐ¶ Ð¸ÑĤ
ĠÐ³ÑĥÐ¼Ð° Ð½Ð¸ÑĤÐ°ÑĢ
ĠD o
ĠÑĪ Ð¿
ĠAn g
ĠÐł ÐµÐ¼
Ð°Ð´ Ð¶Ð¸
ÐµÐ¹ ÐºÐ¸
ĠÑįÐ½ÐµÑĢ Ð³Ð¸Ñı
ad y
ĠÐ¼ÐµÑģÑĤÐ° Ð¼Ð¸
ĠÑĥÐ´ Ð°Ð»Ð¸ÑĤÑĮ
ĠCh ar
Ðµ Ð²Ð¸ÑĩÐ°
Ġ4 9
ĠÐ¼ÐµÑĤÐ¾Ð´ Ð¾Ð¼
ĠÑĥÑĩÐµÐ± Ð½ÑĭÑħ
ĠC he
c c
b it
ÐŁÑĢÐ¾ ÑģÑĤÐ¾
ĠÑģÑĥÑħ Ð¾Ð¹
ĠÐŁÐµÑĤÐµÑĢÐ±ÑĥÑĢ Ð³Ðµ
ĠÑģ Ð¶
Ð½Ðµ ÑĦ
ru ary
ĠÐ·Ð° ÑĢÐµ
ĠÐ¼Ð°Ð¼ Ð¾Ð¹
ĠÐºÐ°Ð±Ð¸Ð½ ÐµÑĤÐ°
ĠÐ¿Ð¾ ÐµÑħÐ°ÑĤÑĮ
ĠÑģÐ¾ÑĤÑĢÑĥÐ´Ð½Ð¸ ÑĩÐµÑģÑĤÐ²Ð¾
ÑĤÐ¸Ð² Ð½Ð¾Ð¼
ĠÑįÐºÐ¾Ð½Ð¾Ð¼ Ð¸ÐºÐµ
ÑĪ Ð°Ð»Ð¸
ĠÐ¦ Ðļ
ÑĦÐ¸ÐºÐ° ÑĨÐ¸Ñı
Ġth reat
ĠÐ¿Ð¾Ðº ÑĢÐ°Ñģ
ĠÐ¼Ð¸ÑĢÐ¾Ð² ÑĭÑħ
Ñĩ ÑĥÑĢ
ÑĢÐµÑģ ÑģÐ°
ĠÐ²ÑĭÐ´ÐµÐ» Ð¸ÑĤÑĮ
ĠÐŁÑĢÐ¾Ð³ÑĢÐ°Ð¼ Ð¼Ð°
ĠÐ¸Ð½ÑĤÐµÑĢ ÑĦÐµÐ¹
ĠÐĺÐ¼ Ð¿ÐµÑĢÐ°
ĠÐ¿Ð¾Ð¿ ÑĥÐ»Ñı
Ġis n
ĠÐĴ Ð«
ĠÐ·Ð° ÑģÑĤÑĢÐ¾Ð¹
ĠÐ¿Ð¾ÑĢÑĤ ÑĢÐµÑĤ
ĠÐ°Ð´ ÐµÐºÐ²Ð°ÑĤ
ĠÑģÑĤÐ¾ ÑıÐ½
ĠÐĴ ÐµÑĢÐ°
ÑĥÐ¿ ÑĢÐµ
Ð´ ÐµÐ½ÑĮ
ĠÐ»ÑİÐ± Ð¸ÑĤÐµÐ»ÐµÐ¹
ÐĴ Ð«
ĠÐºÐ¾Ð½ ÑĮ
ĠÐ¾Ð´Ð¸Ð½Ð° ÐºÐ¾Ð²Ð¾
ĠÐ´Ð¾ ÑĩÐµÑĢ
ĠÐ½ÐµÐ¾Ð±ÑħÐ¾Ð´Ð¸Ð¼ Ð°
ĠÐ· Ð²Ð°Ð»Ð¸
ĠM on
ĠÐĲÑĢ ÑĤÐµÐ¼
ĠÐ²Ð¾Ð·Ð¼Ð¾Ð¶ Ð½ÑĭÐ¼
ĠÐ± Ð»ÑİÐ´
Ġd am
ĠÑģÐ¾Ðº ÑĢÐ¾Ð²Ð¸
ĠÑģÐ¾Ð± Ð°ÐºÑĥ
ĠÑĢÐ°ÑģÑģÐºÐ°Ð· Ð°Ð»Ð¸
ĠÐ½Ð° ÑģÑĤÐ°Ð¸
ÐµÐ»Ðµ Ðµ
ĠÑĦÐ¾ÑĢÑĥ Ð¼Ð°
ĠÐ»ÑİÐ± ÐµÐ·
ĠÑģÐºÐ° Ð¶ÐµÑĪÑĮ
ĠÑģÐ¿ÐµÑĨÐ¸Ð°Ð»Ð¸ ÑģÑĤÐ°
Ð½ ÐµÐ½Ð½ÑĭÐµ
Ð½ ÐºÐ°
ĠÐĴ Ð¿ÐµÑĢÐ²ÑĭÐµ
ĠÐ± ÑĢÐ¾Ð²Ð¸
ĠÐ¶ÐµÐ½ÑīÐ¸ Ð½Ð°Ð¼
ĠÐ¾ÑģÑĤÐ°Ð² Ð°Ð»ÑģÑı
ĠÐ¾ÑĨÐµÐ½ ÐºÐ°
ĠÐ³Ð¾ÑĢÑı ÑĩÐµÐ¹
ĠÐ¾Ð³ Ð¾ÑĢÐ¾Ð´
es tern
Ġmom ent
ĠÑĥ ÐµÑħÐ°Ð»
ĠÑģÐ¾Ð²ÐµÑĢÑĪ Ð¸ÑĤÑĮ
Ð°Ð»Ð° Ð¼Ð¸
ĠÑĥÐ´Ð° ÑĢÐ¸Ð»
ĠÑģÐ¾ÑģÐµÐ´ ÐµÐ¹
ĠÑĥÑĤÐ²ÐµÑĢ Ð¶Ð´Ð°ÑİÑĤ
ĠÐ¿ÑĢÐ¸ Ð¼ÐµÐ½Ð¸
ÑģÑĤÐ¸ Ð»Ð°ÑģÑĮ
ĠÐ¾Ð¿ÑĢÐ°Ð² Ð´Ñĭ
ĠÐ¿Ð¾Ð´ÑħÐ¾Ð´ ÑıÑĤ
ĠÐ½Ð° Ð¸Ð¼ÐµÐ½
cl us
ĠÑģÐµÐº ÑĢÐµ
Ð¾Ñģ Ð»Ð°
ĠÐ¿ÑĢÐ¸ Ð»ÐµÑĤ
at ural
ĠÑĥÑħ Ð¼Ñĭ
Ġinclud ed
ĠÐ²ÑĢÐµÐ¼ÐµÐ½ Ð½Ð¾
ÑĩÑĮ Ð¸
ĠÐĽ ÑĥÐ³
ĠJ ava
ĠÑĩ ÐµÐ»Ñİ
ĠÐ·Ð° Ð´Ð°Ð½
Ð¥ Ð¾ÑĩÑĥ
ĠÑĢÐ°ÑģÑĤÐµÑĢ ÑıÐ½
ĠÐĿ Ð¾Ð²Ð°Ñı
ĠIs rael
ĠÐ¸Ð¼Ð¿ Ð¾ÑĢÑĤ
ĠÑĢÐ°Ð· Ð²Ð»ÐµÐºÐ°
Ð³Ð¸ Ð±
ÐĴ ÐµÐ»Ð¸
ĠÐ¿Ð°ÑĢ Ð¾Ð»ÑĮ
ĠÐ¼ÑĥÐ½Ð¸ÑĨÐ¸Ð¿ Ð°Ð»ÑĮÐ½ÑĭÑħ
ĠÐł Ð¸ÑĩÐ°
Ġcont rib
ĠÐ¾Ð±Ð»Ð° ÑģÑĤÐ½Ð¾Ð¹
ĠÐ¼Ð¾Ð½Ð°ÑģÑĤÑĭ ÑĢÑı
ÐµÑģÐ¾ Ð¾Ð±ÑĢÐ°Ð·
ĠÐ²Ñĭ ÐµÐ·Ð´
ĠÐ§ ÑĥÐ´
ĠÐ¼Ð°Ð»ÐµÐ½ÑĮ ÐºÐ¾Ð³Ð¾
ĠÐ³ÑĢÐ¸ Ð±
z a
ĠÐ¾Ð¿ Ð¾ÑĢ
ĠÐºÑĢÑĥÐ³ Ð¾Ð¼
Ð½Ð¸ Ð½Ñĥ
ĠC ent
ĠÐ½Ð°Ð±Ð»ÑİÐ´ ÐµÐ½Ð¸Ñı
ĠÐ¿ÑĢÐ¸ ÐºÐ°Ð·Ð°
ÑĢÐ°Ð½ ÑĤ
ÑĩÐµ Ð²Ð°
ĠÐ½Ð°Ð´Ðµ ÑıÑĤÑĮÑģÑı
ĠÐ´Ð»Ð¸ Ð½Ð¾Ð¹
ĠÐ¦ÐµÐ½ÑĤ ÑĢÐ°
ĠÐ¿ÐµÑĢÐµÐ´ Ð²Ð¸Ð¶
ĠÑĤÑĭÑģÑı ÑĩÐ°
gr ound
ÑİÑīÐ¸Ð¼Ð¸ ÑģÑı
ĠÐ·Ð° Ð¾Ð´Ð½Ð¾
ĠÐ¡Ð¾ ÑĦ
ĠÑĥÐ¼ ÐµÐ½Ð¸Ðµ
ĠÐ±ÑĥÑĤ Ñĭ
ĠJ ust
ĠÑĥÐ± Ð¸Ð»Ð¸
ĠÐ¿ÐµÑĢÐµ Ð¿Ð¾Ð»
Ð¶Ð° ÑİÑĤ
ĠÐ¿Ð¸ ÑĪÑĥ
ĠÑĢÐ¾Ð´ Ð¸Ð»Ð°ÑģÑĮ
ĠÐĳÑĥÐ´ ÐµÑĤ
ĠÐ¼Ð¾ ÑĩÐµ
ĠÑģÐ¾Ð· Ð´Ð°Ð»Ð¸
Ð¾Ð²Ð°Ð½ Ð½ÑĭÑħ
orm al
ĠÐ¿ÑĢÐ¾ Ð½
Ġw anted
s er
ĠÐ¿ÑĢÐ¸Ñĩ Ð¸Ð½Ñĥ
ĠÐ¸Ð· Ð¾Ð±ÑĢÐ°Ð·
Ð¼Ð° ÑĤÐµÑĢÐ¸
ĠÑĪ ÐºÑĥ
ĠÐ½Ð°Ñĩ Ð½ÑĥÑĤ
ÑĩÐµÐ½ Ð½Ð°Ñı
ĠÐ¾Ð³ Ð½ÐµÐ¼
ĠÐ¦ÐµÑĢÐºÐ¾Ð² ÑĮ
Ð·Ð° Ð½Ñĭ
Ġappro ach
ĠÑģ ÑģÑĭ
Ñģ ÐµÐ»ÑĮ
Ð¢ Ð°
ĠÐºÐ¾Ð½ÑģÑĥÐ»ÑĮÑĤÐ° ÑĨÐ¸Ð¸
Ð´Ñĭ ÑħÐ°
Ðļ Ð¾Ð»
ĠÐ¿ÑĢÐ¾Ð¸Ð·Ð²ÐµÐ´ ÐµÐ½Ð¸Ð¹
: -
Ð´ Ð¸Ð¼
Ð¶Ðµ ÑĢÐ°
Ġf ather
ĠÐ¡Ð²ÑıÑĤ Ð¾Ð³Ð¾
ĠÐ²Ð½ÐµÑĪ Ð½Ð¸Ñħ
anc ial
ĠÐķÐ²ÑĢÐ¾Ð¿ Ñĥ
ĠÐ·Ð° Ð¹ÑĤÐ¸
ĠÑĦÐµÑģÑĤÐ¸ Ð²Ð°Ð»Ñı
ĠÐ´ÐµÑĢÐµÐ² Ð½Ñı
ĠÐ¾Ð± Ð»Ð¾Ð¼
ĠÐ´Ð¾ÑĢÐ¾Ð³ Ð°Ñı
ĠÐĶ ÐµÐ´
[...]
